#version: 0.2
h e
Ġ t
Ġ a
Ġ s
Ġ w
n d
Ġt he
e d
Ġa nd
Ġt o
Ġ b
i n
Ġ h
Ġw a
r e
o u
Ġ f
i t
Ġ l
Ġ c
Ġ d
e r
Ġ he
Ġ m
Ġ p
Ġwa s
o m
Ġ T
Ġ o
a y
a r
i s
in g
i l
Ġ g
i d
a t
e n
Ġ n
Ġs a
Ġh a
ĠT he
Ġ S
a n
i m
o r
o n
Ġ it
Ġt h
l l
l e
Ġ H
o t
Ġhe r
e t
i r
ĠS he
e s
ĠH e
Ġ in
v er
u t
o w
ĠThe y
c k
Ġ e
Ġ y
Ġ u
l d
o o
Ġsa id
il y
i g
Ġ r
Ġ "
Ġb e
a m
Ġ I
Ġs t
k e
c e
v e
Ġs he
p p
it h
Ġw ith
L ily
O n
Ġo n
Ġy ou
Ġo f
k ed
r i
n t
Ġp l
Ġh is
Ġs o
a d
ver y
Ġd ay
Ġth at
Ġu p
Ġpl ay
Ġha d
s t
Ġthe y
Ġ Lily
Ġw e
Ġm om
Ġ B
Ġf or
e l
u n
ou ld
' s
T he
m y
Ġl i
c h
Ġha pp
Ġwa nt
en t
Ġs h
it t
ou t
he r
Ġn ot
Ġd o
s e
l y
om e
Ġ very
ou nd
e nd
a ll
Ġw h
im e
Ġ k
itt le
Ġt ime
a l
Ġl ittle
Ġ M
Ġn e
h t
Ġthe re
Ġ Ċ
Ġ is
Ġhapp y
Ġ re
Ġb ig
Ġs m
ĠI t
Ġb ut
Ġa n
r a
Ġsa w
r y
. "
ri end
Ġf riend
Ġa s
a ck
On e
id e
a ke
' t
u g
! "
Ġl oo
Ġwe re
t er
v ed
o re
Ġl o
On ce
e c
Ġto o
Ġh im
Ġb o
Ġg o
Ġs e
Ġa re
Ġ j
ir l
ar d
Ġwant ed
il l
ĠT im
Ġthe m
Ġg irl
Ġup on
Ġ out
Ġa t
Ġthe ir
u r
i nd
f u
w ay
Ġ A
Ġd id
Ġs p
Ġsm il
Ġc ould
he n
Ġha ve
a in
ar t
he d
Ġe x
r om
Ġa r
Ġc an
Ġw ent
i c
ĠB en
l p
fu l
Ġ J
oo d
? "
Ġfriend s
h ing
ig ht
Ġn am
Ġk n
Ġa ll
Ġhe lp
Ġs ay
u m
on e
ar k
Ġb ack
Y ou
ĠT om
Ġc l
Ġf un
a re
Ġn o
Ġl e
o p
Ġs c
Ġa l
Ġsmil ed
Ġnam ed
ou g
Ġm an
el t
Ġlo ved
s ide
i ck
Ġ One
Ġto y
Ġli ke
Ġas ked
Ġf elt
Ġf e
Ġloo ked
Ġse e
Ġm e
Ġs ome
Ġar ound
am e
om et
Ġ W
Ġr o
Ġb r
u re
Ġb ir
i ce
ĠTim my
g et
Ġw ould
Ġbo y
Ġst art
on g
s s
Ġbir d
Ġs omet
Ġf a
Ã ¢
â Ĥ
âĤ ¬
d d
ing s
Ġa g
ad e
Ġm ake
Ġw or
Ġwh at
, "
k ing
Ġ You
ĠB ut
Ġsay s
Ġr an
ow n
i e
Ġa way
Ġt re
get her
ar ed
a g
Ġstart ed
ou d
i f
Ġm ade
Ġc ar
Ġsomet hing
Ġto gether
t her
Ġp ark
Ġc o
it ed
Ġsa d
Ġo ther
Ġne w
Ġf rom
Ġp ut
e ll
Ġex c
Ġl a
Ġp r
Ġh ug
Ġ L
b le
oo k
Ġag ain
a ch
Ġm u
Ġg ood
Ġw hen
Ġh ome
e p
Ġwh o
ri ed
Ġf l
es t
h at
Ġthe n
Ġf ound
Ġc h
pp ed
Ġd ec
a s
Ġwa l
Ġg et
q u
Ġplay ing
n n
oug ht
Ġs w
Ġ E
p l
all y
ou s
Ġth ings
Ġli ked
u ck
Ġexc ited
Ġg ot
r o
Ġb l
id ed
ar a
a ve
Ġdec ided
Ġe very
Ġyou r
Ġ D
Ġc ame
ĠM om
Ġdo g
a x
Ġsc ared
Ġ v
u st
Ġd own
Ġon e
ou se
Ġf ind
Ġc are
nn a
is t
n y
a p
Ġth an
Ġbe c
The y
Ġfe el
u e
Ġd ad
Ġm y
u dd
Ġa b
Ġw ill
Ġloo k
ar n
ou r
Ġ ke
Ġg ra
u s
Ġg r
nd er
es s
way s
Ġp o
f e
Ġdid n
Ġtoo k
Ġab out
Ġal ways
er s
Ġtoy s
an t
b b
Ġl ot
Ġkn e
ĠS am
Ġb all
is e
Ġmom my
Ġtre e
Ġth ought
Ġout side
Ġ F
it e
Ġm ore
en ed
Ġt a
c hed
Ġle arn
ec i
Ġh o
re t
Ġo ld
Ġin t
g ed
Ġkn ow
Ġs or
Ġc at
Ġla ug
Ġt ake
i ve
eci al
Ġsp ecial
i a
Ġkne w
ĠM ax
udd en
Ġan y
Ġp e
f ter
Ġh ow
udden ly
Ġsor ry
in k
m a
Ġsh ow
B ut
Ġt r
Ġr un
is h
Ġt w
Ġs l
Ġmu ch
a nd
a u
Ġha nd
Ġh ouse
Ġo r
Ġo p
v en
Ġs k
Ġm o
Ġcl o
Ġs un
Ġt ried
Ġint o
T om
Ġwa ter
Ġin side
um p
Ġto ld
an k
at e
ĠS ara
Ġth is
Ġ en
Ġg ave
Ġpr oud
Ġ qu
Ġhe ard
Ġ if
Ġne ver
Ġe ach
Ġo ver
Ġcould n
a ce
ĠW e
t y
ĠA nna
Ġro om
b y
d y
Ġe at
ĠE very
ot her
Ġp ret
i on
Ġp ick
Ġex pl
au se
Ġplay ed
M om
a k
g e
et ter
Ġg re
Ġhug ged
Ġj ust
he re
Ġc om
Ġbo x
Ġof f
Ġwa t
ot h
Ġn ice
Ġne ed
Ġman y
' m
Ġst r
Ġbec ause
il e
Ġsm all
g ry
Ġf o
i z
Ġb u
Ġj o
v ing
Ġl ong
u c
im al
Ġan imal
Ġbe ar
in e
Ġs n
Ġt ry
or t
oug h
Ġu nt
ur t
il d
s el
Ġlearn ed
s ed
Ġunt il
ĠJ ack
Ġlo ve
Ġk ind
Ġb etter
f t
Ġfl ow
Ġ im
ĠM ia
Ġc all
Ġd on
H e
Ġb est
ar s
ur n
u ll
e m
Ġe nd
ad y
ur p
Ġc le
Ġa d
Y es
v ent
a ut
v es
ĠA nd
re am
ĠJ o
Ġcare ful
Ġ C
Ġfa st
ard en
Ġg arden
Ġbe aut
b er
T h
Ġf i
Ġc he
Ġthan ked
Ġb ra
p t
Ġsk y
Å ĵ
Ġe ven
i es
Ġj ump
ĠS o
ll y
Ġlaug hed
a se
Ġl oud
I t
Ġb y
Ġt e
sel f
ĠH er
Ġg l
Ġl ist
in y
w n
le w
Ġc ome
Ġbeaut i
Ġh ard
Ġbeauti ful
Ġwa y
Ġh urt
Ġanimal s
Ġlot s
Ġw o
Ġst ill
Ġf am
Ġr a
Ġu nder
ĠThe n
Ġst ay
Ġl et
c t
Ġ Ã¢
ec t
n ing
b e
he s
Ġc u
Ġb oth
Ġsa fe
ĠF rom
oo l
Ġb ad
ĠH is
Ġco l
op le
o ck
Ġre m
Ġtw o
re e
k ay
Ġb ook
Ġim p
Ġli ved
a st
Ġit s
Ġan gry
T im
an e
Ġsh ould
N o
uc y
re ss
Ġbra ve
urp r
is hed
Ġwal ked
Ġpe ople
Ġr ed
Ġf lew
ig h
o b
Ġs urpr
Ġfam ily
W hen
Ġcall ed
i p
Ġso on
Ġst or
Ġf in
L et
Ġsh are
f ore
Ġke pt
Ġd an
l ed
Ġf ly
x t
Ġf ore
dd ed
Ġp ic
is ed
h n
Ġdo or
Ġ P
Ġcle an
Ġgo ing
Ġro ck
Ġpret ty
B en
ĠW hen
âĤ¬ â
Ġn ow
Ġke ep
Ġno ise
Ġd ra
Ġsh iny
Ġdo ll
Ġop ened
um my
Ġw ind
ar y
Ġc ry
Ġad vent
ag e
Ġbe fore
Ġre al
Ġ ide
Ġst o
Ġc on
s o
Ġt urn
il ly
Ġexpl ore
Ġgr ound
le s
i ed
Ġal so
W hat
Ġf r
Ġe y
Ġf ar
Ġide a
Ġcol or
Ġno dded
T hat
o on
Ħ ¢
âĤ¬â Ħ¢
Ġha s
Ġwa r
o y
t h
im b
Ġu n
Ġfeel ing
Ġne xt
Ġpick ed
t ure
u ch
k es
t hing
Ġcl imb
ĠL ucy
Ġm a
Ġwal king
ĠD ad
Ġsmil e
ay be
Ġwh ile
Ġth r
Ġb ed
e et
g er
Ġadvent ure
Th ank
Ġbe ing
Ġg ive
Ġtr uck
Ġ G
ic ed
Ġclo s
Ġpic ture
Ġth ink
i ous
Ġd if
t ed
Ġf ood
Ġw r
j oy
Ġto w
Ġlist en
f f
a c
Ġey es
ug ht
Ġb re
Ġd el
Ġsto pped
Ġbr o
Ġt ra
Ġloo king
Ġa fter
t ing
ĠS p
Ġwa it
Ġo wn
Ġv o
Ġsh out
Ġwal k
Ġre pl
em ber
Ġhe ad
Ġflow ers
Ġgre at
Ġbl ue
Ġwo nder
Ġhand s
ĠS uddenly
Ġen joy
Ġe ver
S he
S uddenly
ir st
iz ed
Ġne ar
Ġimp ort
Ġnot iced
Ġd is
bb it
Ġsl ide
Ġf ish
Ġqu ick
Ġa pp
Ġfore st
a ble
Ġu s
ll ow
Ġrem ember
Ġd e
Ġme an
Ġs ound
le ase
ma z
Ġwat ch
Ġr ain
Ġa maz
Ġimport ant
Ġas k
Ġo kay
Ġwor k
bb ed
Ġshow ed
Ġt al
by e
g an
fe re
W e
Ġrepl ied
Ġst ick
Ġra bbit
Ġdif fere
Ġa c
Ġbr ight
Ġr ight
d ay
Ġfo llow
Ġevery one
Ġbo at
Ġstr ong
A nna
Ġu se
Ġs qu
Ġwat ched
Ġ our
Ġw here
ĠSp ot
Ġy e
at h
er ed
Ġquick ly
Ġm or
Ġy ell
Ġbe en
Ġvo ice
S o
Ġdo es
ĠB ob
Ġch ild
n g
Ġdiffere nt
Ġcu ri
Ġfa ce
Ġh op
L ook
ĠMom my
an ge
Ġ N
Ġs ure
ĠS ue
Ġa m
Ġbec ame
a ught
S ara
Ġd ress
Ġgood bye
Ġpl ace
Ġclos er
Ġst ore
il a
Ġm ag
Ġh igh
Ġwar m
Ġ R
Ġfor g
Ġcuri ous
Ġt ell
nd ma
Ġc ook
un ny
Ġc ake
Ġbl ock
Ġbe l
m ore
c o
le ep
Ġany more
a ss
Ġop en
Ġn ight
J o
ou nt
Ġfa v
Ġhe re
Ġp ull
it c
Ġf irst
Ġth ree
Ġ z
a ched
ĠT h
ir ed
Ġp ain
is s
Ġp u
Ġb us
im es
H er
Ġgra bbed
Ġle a
or n
Ġr u
C an
Ġsw eet
Ġfe ll
Ġk id
Ġon ly
Ġbut ter
Ġbird s
is y
Ġm on
Ġse es
itc hen
Ġk itchen
Ġjump ed
Ġfi re
Ġcon t
Ġb it
Ġsa nd
Ġb a
Ġfl o
Ġst op
Ġhelp ed
Ġgl ad
Ġhapp ened
Ġgra ss
Ġp er
Ġs ing
Ġshout ed
Ġc ra
Ġd r
Ġt ri
ĠSara h
ĠD o
nt s
Ġc r
ĠL et
Ġbe h
Ġbr other
Ġre ached
Ġstor y
pp y
A fter
a ir
Ġreal ized
in s
Ġb unny
Ġl ady
ĠJ ane
Ġy ummy
ĠA s
Ġm ess
Ġha ving
Ġso ft
Ġunder st
Ġg ame
Ġl ess
ak es
Ġat e
Ġc re
' re
Ġpret end
ĠEvery one
Ġdra w
Ġpr in
Ġh at
Ġm um
Ġp are
Ġre st
Ġfav or
Ġthr ough
Ġre ady
Ġp ap
z y
Ġfavor ite
Ġth ing
w here
k en
Ġlook s
ĠT hat
Ġre ally
ĠC an
Ġmag ic
Ġd uck
Ġma king
Ġc ut
at er
Ġwor ld
Ġhim self
at her
Ġbe gan
Ġd one
fu lly
Ġcom ing
Mom my
ĠJo e
Ġkid s
Ġcar s
Ġpo nd
Ġp rom
Ġwa ved
Ġt ired
Ġto uch
Ġwh y
Ġf ro
b o
st er
Ġbutter f
W ow
Ġfi x
Ġst e
Ġflow er
Ġp art
Ġwor ry
Ġf ill
Ġnam e
Ġfun ny
Ġcat ch
Ġc ried
Ġm ouse
s h
Ġu sed
Ġdel ic
Ġp us
Ġse en
Ġblock s
Ġha ir
Ġpare nts
ig n
i ent
Ġan other
re l
u ff
Ġho ld
one y
ed dy
Ġc ool
a isy
Ġgre en
o lly
Ġto p
Ġta st
Ġl ight
Ġho pped
i ver
m er
h y
Ġdo ing
Ġless on
Ġthan k
Ġsurpr ise
ĠJo hn
Ġli kes
at ion
" .
ard s
Ġsw im
Ġg i
Ġpap er
Ġflo or
Ġw ished
A s
Ġd ri
Ġwind ow
D on
S am
Ġsm ell
Tim my
Ġb ag
Ġbeh ind
Ġd ark
Ġw ood
Ġf ull
Ġtre es
Ġd ro
Ġrun ning
Ġre ad
i ke
Ġwor ked
Ġsp ot
Ġ -
Ġd in
Ġb ow
and y
Ġyell ow
re n
u l
Ġsh o
Ġye ars
u ed
Ġs leep
Ġs at
Ġho le
ar ing
Ġlaug h
Ġhapp ily
el y
Ġfro g
Ġsurpr ised
ĠI n
Ġs et
Ġsw ing
Jo hn
re w
Ġsl ow
Ġremember ed
Ġcare fully
Ġhe ld
Ġlo st
Ġco ld
H ell
Hell o
Ġbutterf ly
Ġbu y
Ġ ice
u it
on s
Ġneed ed
Ġmo ve
Ġle ft
Ġhe ar
Ġany thing
Ġper f
Ġenjoy ed
Ġwr ong
Ġfollow ed
Ġfa ir
re ed
Ġt all
Ġd ream
Ġh un
Ġe l
Ġar ri
Ġchild ren
c ess
Ġta ble
in ally
Ġa ir
Ġbook s
en s
Ġfriend ly
Ġd ir
Ġunderst and
Ġh ill
Ġfin ished
ro ss
Ġp lease
Ġsn ow
Ġh ot
Ġher self
Ġdelic ious
Ġclo se
in ed
Ġh id
Ġcont in
d s
Ġm ight
ĠA fter
Ġar m
s p
Ġel se
Ġb ug
Ġforg ot
Ġarri ved
Ġc ast
Ġcolor s
l f
ie ld
ĠL ila
Ġbro ken
Ġg ent
Ġre l
Ġba by
Ġt ight
Ġwonder ful
ĠD aisy
Ġbu ild
Ġm at
Ġa ble
Ġs ong
The n
Ġg one
a v
as ure
Ġwant s
ĠN ow
Ġfill ed
Ġsqu ir
ĠBen ny
n er
Ġwa ll
ĠS ally
Ġcre at
Ġp at
O K
ro om
Ġsome one
Ġag reed
Ġy es
i ch
Ġlea ves
Ġc ount
Ġp ink
Ġsquir rel
Ġcontin ued
as k
J ack
ĠThe re
am a
e e
' ll
e y
ĠE m
Ġv is
Ġli on
Ġen ough
Ġbre ak
F rom
ĠTom my
Ġstay ed
Ġget ting
Ġpo in
Ġmor ning
Ġmom ent
ĠM aybe
Ġfin ally
a pp
as h
Ġf all
Ġgra ndma
Ġcook ies
ri es
Ġj u
Ġhun gry
Ġsc ary
an ce
g on
Ġturn ed
Ġf ight
Ġsomet imes
Ġp i
r ow
Ġm akes
Ġbe ach
Ġw et
ĠTh is
Ġtry ing
c ed
Ġ K
ic y
Ġamaz ing
Ġsmil es
Ġfe w
ĠW hat
r ed
Ġother s
Ġclimb ed
Ġm other
Ġdin ner
o om
a pped
Ġcom p
Ġlist ened
Ġtal k
Th is
ke y
Ġpicture s
Ġcast le
Ġc ream
Ġm et
A t
Ġperf ect
r ot
Ġmu s
Ġcl ot
Ġwh ite
Ġf ur
Ġdad dy
or ing
H is
Ġclot hes
l c
Ġta il
am p
ou p
Ġball oon
Ġpu ppy
Ġm ar
ct or
Ġp et
ĠG ra
Ġjo y
Ġal one
Ġpo l
Ġask s
en ce
O h
m an
ĠB illy
Ġsa il
Ġwas n
Ġbr ought
Ġsp l
Ġsp ark
Ġwood s
Ġevery thing
at ed
Ġde ep
Ġstr ange
d er
is ter
ĠT o
Ġpull ed
Ġs it
Ġr ide
Ġdan ger
Ġse ar
uff y
Ġpl an
Ġgr ow
Ġro ll
l ing
ot t
Ġw on
et er
Ġwa ited
ĠJ en
Ġh ide
Ġvis it
uck y
Ġp ie
Ġfo x
Ġamaz ed
ow er
m ed
Ġle ave
m e
Ġtre at
z z
o s
an g
Ġmus ic
Ġt eddy
e ver
ĠA my
Ġtow ards
Ġrun s
Ġs illy
ap e
Ġthink s
Ġla nd
Ġli ving
Ġcl oud
M ax
Ġfly ing
M aybe
Ġp en
Ġp re
Ġf ield
Ġsh ared
am es
ig g
ain ed
is es
Ġprom ised
O kay
ug g
op e
Ġqu i
Ġown er
g s
o l
Ġg u
Ġjo b
Ġpain t
Ġr ace
th y
Ġbel ie
ck et
Ġp a
Ġs ide
Ġm oney
Ġmor al
Ġl ake
Ġpart y
Ġs ec
u ally
or m
Ġqui et
c le
Ġs ister
Ġwe ar
av y
ec es
Ġmu st
Ġpi eces
Ġwor ried
ĠJ im
Ġfast er
Ġbr an
Ġcu p
Ġslow ly
s w
u p
un ch
Ġcolor ful
i x
Ġan sw
as ed
Ġo w
Ġbro ke
Ġg if
Ġgr ate
Ġwe lc
Ġb ike
Ġdan ce
Ġb ott
Ġc andy
z e
Ġbig ger
Ġre ach
Ġbl ank
Ġgrate ful
p h
Ġe le
Ġs uch
Ġpl ant
f ort
Ġsm art
ĠA ll
Ġpr o
le ss
Ġp ot
Ġch o
Ġtra in
Ġtre asure
Ġblank et
Ġsn ack
i re
Ġsc ream
Ġdanger ous
Ġmagic al
Ġmon ster
Ġbl ack
Ġw in
Ġb ar
Ġr iver
out h
Ġdra gon
Ġ ve
Ġn ap
Ġtow er
Ġjo in
Ġm outh
S ure
Ġprin cess
e ar
ck ed
Ġevery where
Ġe m
Ġdoll s
Ġhelp ing
Ġj e
Ġmo st
i pped
Ġmon key
Ġac ross
Ġdis app
Ġtw ins
m ing
Ġth rew
Ġfar mer
Ġs ign
s et
Ġdo ctor
d e
Ġste pped
Ġsa me
Ġdir ty
or ed
Ġhe avy
Ġbe e
W hy
Ġcry ing
Ġfr uit
Ġb ite
e ared
H i
ĠDad dy
Ġcar rot
Ġwor ds
Ġbow l
M ia
Ġhop ed
Ġhe al
Ġst re
b ble
Ġhe art
Ġclo sed
e re
Ġp ass
Ġsp r
Ġh ig
ĠF l
Ġbelie ve
Ġwould n
Ġb ath
ĠM r
id ent
Ġst uck
Ġte ac
Ġac c
Ġto wn
ask et
Ġb asket
ĠJ ill
Ġc our
ch ool
Ġfeel s
Ġbut t
ĠM olly
Ġb uck
Ġcr ay
Ġat t
Ġm ix
Ġbr own
Ġco ll
it ing
Ġs uddenly
Ġfair y
Ġs chool
Ġch air
Ġeat ing
Ġcour se
Ġpus hed
Ġgent le
Ġcl apped
or d
vent ually
Ġm in
Ġp ack
Ġh it
pp ing
Ġp ers
Ġne igh
is sed
t s
Ġwith out
Ġst and
Ġneigh b
Ġpo cket
or s
Ġhig her
Ġwelc ome
Ġteac her
Ġdro ve
Ġsw ings
or row
Ġy ard
Ġsm o
i er
Ġto day
Ġno ises
Ġfor get
Ġche ered
our n
Ġg ames
h o
Ġb en
Ġw ings
Ġj ourn
b r
Ġne ck
Ġturn s
Ġpie ce
um b
ra ct
L ila
Ġlong er
Ġd ry
Ġf ree
Ġsa ng
ve l
F inally
e ad
Ġhug s
Ġexpl ained
i ble
ou n
Ġin st
Ġc orn
ph ant
c y
Ġhapp en
Ġacc ident
Ġal ong
Ġthr ow
Ġl ate
Ġsho es
Ġm iss
Ġwe ll
c hes
Ġyou ng
Ġl on
Ġtr ou
m ent
itt ing
Ġse a
Ġsec ret
Ġstor ies
ĠM ary
Ġsh ap
Ġele phant
Ġw ish
Ġp urp
Ġsing ing
Ġlon ely
Ġadventure s
Ġsh ook
Ġf ence
Ġmo ved
Ġst ars
e k
Ġl unch
Ġd ist
Ġup set
Ġapp le
Ġst ar
Ġbel ong
bb y
Ġp h
aught y
Ġm ine
Ġn aughty
Ġke y
Ġpl ac
Ġrock s
Ġto m
Ġnear by
Ġc aught
D o
fu sed
Ġstre et
Ġw he
ĠGra ndma
Ġsh op
ount ain
Ġexpl oring
Ġdro pped
Ġpurp le
y ard
ock ed
Ġex p
Ġw ise
Ġj ar
Ġbr ing
Ġback yard
b ow
Ġta king
ll o
Ġor ange
a il
Ġsw am
Ġs oup
u b
Ġshap es
c es
w ard
Ġsee med
aught er
Ġin v
Ġow l
Ġfar m
Ġdr ink
Ġ es
Ġre sp
Ġbuck et
Ġp ast
Ġye ar
Ġc a
Ġrel ie
Ġma il
us h
ion s
ĠEm ma
Ġst u
Ġben ch
ĠTh ank
Ġa f
Ġb at
Ġbus y
ad ow
un g
Ġd es
Ġta kes
Ġm ad
Ġnot hing
Ġth ough
Ġ 3
Ġno se
Ġju ice
A nd
Ġsound s
Ġwo ke
s y
it y
Ġarm s
Ġcom es
Ġt iny
es e
f ish
Ġd aughter
Ġwonder ed
Ġc ou
c ing
ck s
Ġrain bow
Ġm ark
Ġhold ing
Ġn est
Ġ O
Ġc ow
co l
Ġf it
th day
Ġs itting
t o
Ġbran ch
in ing
Ġc ir
Ġb oun
Ġp ig
re ad
o se
Ġs ick
ĠFl uffy
ra id
ĠIn side
Ġo b
Ġaf raid
w eet
Ġco at
Ġpat ient
Ġr ound
Ġk ite
pp er
Ġgif t
Ġdri ver
Ġm il
Ġcut e
ver ed
Ġfore ver
Ġto u
Ġtou ched
Ġpe ace
Ġrelie ved
Ġli ft
Ġprom ise
our s
id ge
Ġbre ad
Ġk ing
Ġsp oon
Ġhug e
Ġl etter
ĠC ome
Ġhe llo
Ġcar ry
Ġgra b
O f
st ing
Ġf ing
Ġbir thday
Ġb and
et h
o g
Ġa ct
itt ens
Ġche ese
ĠF inally
Ġp ower
ĠM ama
Ġint ere
le t
Ġexc iting
c er
Ġday s
He y
Ġswim ming
Ġshe ll
Ġwh ist
u nt
Ġon to
s c
Ġg igg
bo ard
Ġjourn ey
Ġlaug hing
Ġcra w
Ġcreat ure
Ġw ra
Ġsun ny
Ġli fe
Ġk ick
Ġm ist
Ġdis co
sh ine
Ġcom fort
Ġw om
ar p
Ġre t
Ġwom an
Ġhop e
p ed
it ch
g ged
Ġbus h
Ġgi ves
Ġinst ead
Ġmil k
Ġco zy
Ġput s
al m
Ġbott le
Ġin c
g g
Ġsh arp
Ġpoin ted
Ġim ag
Ġsp in
t en
Tom my
ĠSo on
Ġl ucky
Ġsun shine
Ġe ar
n ess
Ġc ave
Ġret urn
Ġwatch ing
Ġcoll ect
Ġduck s
ĠSam my
Ġp udd
Ġaccident ally
Ġh or
Ġe as
Ġl ater
Ġsmil ing
Ġs uc
b all
Ġh oney
Ġro ad
Ġany one
Ġf an
Ġsp o
Ġ ent
ble m
Ġpro blem
L ater
nd p
Ġb ought
el s
Ġtal ked
B ob
itt en
iz e
Ġg ather
r ound
Ġsear ched
Ġapp les
Ġpers on
G ood
Ġsand w
Ġheal thy
Ġc e
Ġme et
ir t
Ġtrou ble
Ġlo ves
Ġcray ons
Ġr ope
Ġintere sting
Ġp op
Ġcloud s
on t
Ġtast y
Ġs u
Ġk iss
Ġbutt on
Ġcle ver
Ġpl ane
am ed
Ġsmell ed
Ġad m
o ve
Ġp ile
Ġw ide
Ġm ach
e b
ĠT weet
Ġmat ter
Ġz oom
L ucy
Åĵ I
Ġpre s
Ġsh ining
ow ed
Ġp ar
Ġfr ont
Ġor gan
Ġpr ot
ĠW ith
Ġfe ather
Ġe ag
a ur
Ġp ath
Ġv ill
ĠJim my
Ġstor m
Ġspot ted
Ġresp ect
Ġscream ed
Ġprot ect
Ġmu d
ĠE ll
Ġp ract
ndp a
Ġz oo
C ome
Ġpu zz
Ġsa f
Ġa p
Ġsp id
er ly
Ġv al
Ġsn ake
is a
Ġmy ster
Ġas leep
Ġlove ly
ep end
Ġb ark
Ġqu est
Ġw ild
Ġneighb or
Ġapp eared
Ġansw er
Ġse at
a le
Ġhor se
Ġsnow man
Ġpres ent
Ġdan ced
Ġc ard
Ġte ach
Ġh on
oo se
Ġwh ich
Ġmin ut
Ġp ill
Ġs ur
ĠS omet
Ġche er
Ġth in
er t
J im
Ġgo es
o nd
e en
e x
J ust
Ġwho le
Ġtri es
S t
Ġgent ly
Ġforg ive
Ġwe aring
Ġm ed
ch ing
ul ar
Ġcon fused
Ġd i
M olly
Ġph one
Ġcorn er
Ġplac es
Ġimp ress
Ġgi ant
E very
Ġroll ed
Ġte eth
Ġdir t
Ġtri p
Ġm ind
M um
Ġru de
Ġsh r
ce an
Ġsl id
Ġo cean
Ġli ve
ĠG o
Ġsp ent
itt y
iz z
Ġpretend ed
Ġdri ve
Ġwor m
ĠEm ily
Ġas h
ss ed
Ġtast ed
ĠH ow
Ġsu pp
I n
Ġspl as
Ġc alm
Ġcook ie
l a
Ġl ad
Ġfa ces
Ġs er
Ġo ven
Ġp our
n ic
Ġdel ight
Ġl ay
ĠM ittens
Ġco in
Ġla st
Ġpic nic
Ġwa ve
Ġfur ry
Ġp an
Ġfe et
Ġre c
at o
Ġmach ine
Ġr ing
Ġch ick
on es
un k
Ġhelp ful
Ġw ip
Ġe ventually
Ġb an
Ġpus h
Ġem b
Ġrem ind
Ġbu bble
ĠC h
um ber
Ġlad der
Ġtom orrow
Ġsa ck
Ġc art
Ġ ign
Ġsa l
Ġre p
Ġbe ll
Ġcou ch
Ġt un
Ġt id
Ġneck l
Ġsp read
Ġb lew
Ġspid er
Ġbuild ing
at or
Ġst ret
Ġbug s
ar ge
Ġtoo l
Ġsmo oth
Ġtal king
Ġcho col
Ġro b
Ġfo ot
Ġs el
Ġsh y
Ġhid ing
h ile
Ġm ountain
Ġkne e
ig hed
Ġfo ld
al s
m o
ar ra
Ġch ased
Ġfight ing
if e
Ġsong s
n ot
S oon
Ġemb arra
Ġw ore
Ġlea f
Ġp ool
Ġwr ite
Ġpudd le
Ġvill age
Ġwait ing
Ġcan not
Ġwhen ever
Ġa nt
Ġfin ish
Ġst ep
M y
Ġcl oth
Ġtreat s
Ġh um
le x
ĠJen ny
Ġc ross
Ġpa w
Ġm aybe
Ġsel fish
Ġrob ot
Ġban an
ĠSomet imes
op h
Ġchocol ate
Ġc oo
Ġtast e
bo x
ul t
ĠJ ust
Ġbar ked
Ġstr ing
Ġsp e
ĠEvery where
Ġl arge
Ġn et
ĠS t
P lease
Ġpeace ful
Ġtid y
Ġst ra
M ama
Ġso l
Ġcol our
ump y
Ġwas h
Ġg en
ell y
Ġneckl ace
Ġp le
Ġfix ed
Ġshe lf
l ice
o ld
Ġst one
ĠP lease
h nn
Ġsc ar
Ġspr ay
le br
Ġ '
ar m
Ġst ir
D ad
ĠL e
Ġce lebr
or ry
ĠJ ake
o in
ĠT V
ig er
ung le
ir d
Ġm issed
N ow
Ġd eter
Ġcra b
Ġhe ars
Ġcreat ive
ĠThe ir
Ġembarra ssed
Ġtr ust
Ġj ungle
Ġfor ward
air s
Ġwh is
Ġdeter m
Ġjump ing
hnn y
Ġstick s
ĠS ome
ur se
Ġcarrot s
Ġsh aring
Ġhe l
Ġland ed
Ġwhist le
Ġpl ate
mo st
Ġsh irt
Ġdisapp oin
Ġtell s
Ġkn ocked
Ġte a
n ed
et s
i an
ĠA nn
Ġmo on
Ġle gs
Ġdec or
Ġal most
ĠD on
Ġs our
Ġem p
Ġash amed
get able
d ge
Ġemp ty
Ġgre w
g round
Ġve getable
Ġgr ay
Ġshe ep
ĠL isa
Ġgen er
Ġbre ath
y ing
Ġspl ash
Sara h
Ġme ant
B e
Ġtight ly
Ġpol ice
a king
Ġsa ve
Ġme adow
er p
Ġb al
Ġg as
Ġst ood
Ġwhis p
ĠW hy
Ġyell ed
d le
Ġje w
Ġunderst ood
T o
Ġno ds
Ġ On
Ġhon est
Ġthe se
it al
Ġb er
Ġdisappoin ted
Ġp ay
Ġcar ried
Ġsnack s
ar l
Ġsuc cess
d en
Ġpill ow
Ġho sp
Ġk itten
Ġh ours
Ġsee k
ust r
Ġhosp ital
Ġgo ld
Ġg un
Ġspark ly
Ġsh ip
ĠT eddy
Ġb ored
St op
Ġl ine
Ġn ut
or k
Ġp izz
v ous
Ġle m
Ġpower ful
Ġsp icy
W here
o bby
k in
Ġsh ore
Ġplant s
an o
ĠE ven
Ġbed room
Ġgener ous
Ġfr ustr
Ġt est
Ġpuzz le
Ġhid den
Ġj elly
bo dy
ĠB e
ĠTo gether
on y
h in
in a
Ġta ught
Ġeas y
Ġd rew
Ġwa ves
Ġgl ass
Ġ Z
Ġreturn ed
Ġfe ar
Ġmyster ious
if f
Ġs ighed
ĠM um
Ġstand ing
Ġm ot
Ġfe ed
Ġse ed
Ġscar f
Ġdeterm ined
Ġp in
Ġcl ass
ĠR ex
Ġknow ing
Ġgr oup
Ġbl ow
Ġk issed
c les
Ġche w
Ġpizz a
itt er
Ġv an
Ġh ur
Ġthank ful
erp ill
Ġcat erpill
Ġpol ite
Ġfing er
Ġa v
Ġc ries
Ġsleep y
Ġmess y
Ġn er
Ġfrustr ated
Ġp ri
Ġclos et
g ly
Ġyour self
au l
Ġminut es
' d
J ane
Ġte ars
Ġfan cy
Ġha ng
S orry
Ġb urn
The re
Ġu gly
Ġso ld
Ġpo or
w ork
Ġner vous
Ġg ate
Ġsandw ich
Ġr ad
Ġprin ce
ĠP eter
Ġw is
Ġcr own
Ġf ig
er a
Ġlo ck
Ġes c
Ġre g
Ġspo il
us ie
Ġgr umpy
oo f
A re
oo p
Ġwo lf
Ġpass ed
Ġt ick
Ġp ir
p ack
Ġtw irl
ot e
Ġho pping
Ġgather ed
Ġexc ite
Ġbr idge
Ġsc r
a f
Ġof ten
Ġm ummy
id dle
f l
Ġfl ag
ens ive
Ġche st
Ġdr op
os aur
Ġexp ensive
sel ves
Ġcaterpill ar
Ġb oring
Ġv ase
Ġt ent
iss ors
Ġta ken
ill ed
s ist
The ir
Ġm ir
Ġp ress
Ġl it
Ġle g
m b
Ġsa ved
Ġc and
Ġsc issors
iz zy
Ġf il
Ġdin osaur
Ġget s
Ġdan cing
Ġansw ered
Ġtr ue
Ġpick s
Ġexcite ment
Ġwor king
Ġde er
Ġon es
Ġsp end
W ho
u al
Ġmist ake
Ġcl own
Ġwa gged
Ġm iddle
u ce
Ġbo ss
ĠB r
Ġfruit s
r or
qu e
ell a
Ġgigg led
Ġwa nder
Ġt ie
Ġple ased
Ġcomfort able
s er
eci ally
Ġbr ush
l ight
Ġmo v
Ġkn ight
Ġ OK
at es
Ġmed ic
Ġrock et
ĠLe o
Ġpack ed
Ġas king
ug ar
Ġo k
Ġb one
Ġmat ch
S p
p ecially
ot s
Ġst uff
Ġes pecially
Ġdr um
Ġd est
Ġs ight
in ess
Ġwalk s
Ġvegetable s
Ġ No
Ġn umber
Ġdog s
Ġmedic ine
Jim my
Ġdist ance
Ġa dd
us hed
Ġdraw ing
Ġcall ing
Ġsmell y
g gs
Ġcl ap
Ġla zy
Ġch ange
Ġlo se
Ġt ape
Ġs ugar
Ġc ap
Ġf ake
Ġwe ak
Ġe ggs
Ġtw ist
Ġmo ving
Ġmir ror
ĠJo hnny
Ġplay ground
ĠB l
Ġdisapp eared
h a
ag ed
Ġgl ue
Ġl ying
Ġg ar
Ġbec ome
Ġli cked
ĠI f
Ġwe ek
Ġc age
et e
Ġex am
or y
Ġsweet ie
Ġfl ut
Ġfeather s
Ġno d
Ġwhe el
Ġh orn
Ġfl uffy
el p
M e
Ġb ake
Ġru ined
Ġe ld
Ġd ish
Ġsplas hed
Ġdr ank
Ġbath room
Ġyour s
Ġr id
Ġme asure
Ġle ad
Ġbo dy
Ġfam ous
Ġro ar
Ġrel ax
Ġinc red
at ing
Ġse ll
Ġno isy
Ġquest ions
Ġm ic
Ġsk ipped
Ġqu een
ugg est
Ġ ed
Ġs uggest
Ġst ones
Ġball s
Ġdec ide
Ġlem on
S ally
h ip
Ġc ri
Ġcle ar
Ġmom s
in ation
Ġex t
Ġju icy
y al
Ġshow s
Ġco vered
Ġor d
Ġche ck
Ġl amp
Ġgl ow
Ġcont ent
B illy
Jo e
H elp
Ġsw an
ee z
Ġpr ay
Ġeag er
Ġr ich
Ġd ig
Ġwr ote
Ġtow el
Ġmot or
ill i
en ny
?" .
Ġsho ot
Ġincred ible
Ġ ind
ĠA t
Ġsail ed
Ġte am
al ous
Ġclean ed
J ill
Ġr are
Ġso ap
Ġje alous
Ġf ather
Ġadvent ur
Ġlo yal
Ġorgan ized
Ġco ins
Ġf ine
Ġbo ard
Ġbran ches
Ġext ra
Ġboy s
Ġm ap
umb led
Ġneed s
Ġeld erly
ĠE nd
Ġa w
Ġb orrow
Ġfig ure
im p
Ġadventur ous
Ġhurt s
G ra
Ġco st
Ġchick en
Ġbubble s
Ġdisco vered
Ġmo d
ke ep
Ġf is
Ġha m
Ġfr own
ĠL ittle
Ġt ag
Ġt iger
Ġreal ised
Ġjo ke
Ġgar age
l and
W ell
Ġoff ered
Ġhappen ing
as ing
at ely
Ġcolour ful
Ġstra w
i que
i pper
Ġco ver
f ic
Ġch ase
Ġwa nd
A my
Ġloud er
Ġar g
Ġjew el
c il
Ġtruck s
t i
Ġho se
Ġlift ed
Ġun ique
Ġpen cil
Ġey e
Ġsw ord
ce pt
Ġdif fic
Ġwe ird
Ġp ump
i pp
ur ed
Ġy og
Ġon ce
Ġbott om
im ed
Ġs il
Ġwor d
Ġman aged
Ġbal ance
Ġkn ife
Ġcir cle
Ġth ick
Ġun us
Ġto ug
Ġh unt
al k
Ġcraw led
Ġmight y
Ġgu ess
Ġdiffic ult
Ġan g
M ummy
S ue
Ġwh ale
Ġfr ight
Ġbanan a
Ġb arn
ĠK itty
keep er
Ġunus ual
p ort
Ġkind ness
ag es
Ġgi ving
Ġf our
a w
Ġber ries
Sp ot
Ġed ge
Ġdo lp
Ġlaugh s
ĠBl ue
i v
Ġsh ake
ol og
ĠS usie
H ow
He re
Ġrec ord
Ġf ool
Ġhard er
ra g
Ġt urt
Ġa dded
Ġd izzy
y m
ll a
Ġlearn ing
Ġwra pped
Ġgo at
he ad
Ġap olog
ĠM ark
Ġballoon s
ĠBr own
ol a
Ġfav our
Ġpoin ting
Ġg uit
Ġval u
Ġtoug h
re ady
Ġsmo ke
Ġsp un
Ġca b
Ġbox es
Ġher o
Ġe ars
Ġenjoy ing
j ect
Ġgr own
Ġhat s
Ġbelong ed
Ġmean s
Ġloud ly
Ġcomp et
Ġd epend
Ġn orm
er ry
Ġmov ie
Ġh arm
Ġsh ape
Ġmark et
Ġcir cles
Ġis land
Ġbl oom
Ġba ld
Ġimpress ed
Ġagain st
Ġre f
ra ge
Ġal ready
Ġsear ch
ugg led
Ġbrother s
Ġbr illi
Ġch oose
Ġcab in
Ġfavour ite
u nd
l ies
Ġsay ing
Ġfall s
Ġsk in
Ġfl ash
er y
Ġbutt ons
at ure
Ġpain ting
ĠB obby
y e
Ġbrilli ant
Ġcl ay
p es
Ġdream ed
Ġsaf ely
Ġhelp s
Ġgra ce
Ġt er
Ġtr unk
il t
Ġstraw ber
an ged
Ġboss y
ous es
Ġnorm al
Ġsc are
Ġwra p
Ġpe e
Ġbat ter
Ġguit ar
Ġstu bb
Ġj ack
em o
ĠD an
Ġcray on
Ġf at
f ast
Ġr ough
Ġsl ipped
Ġc her
Ġm elt
Ġknow s
Ġproud ly
Ġwa gon
Ġvalu able
Ġh ouses
Ġc udd
g y
Ġlo g
Ġbreak fast
Ġfright ened
Ġcheer ful
Ġfool ish
Ġstubb orn
ip e
Ġc ro
Ġcompet it
Ġesc ape
Ġhapp iness
ĠM y
c ient
Ġp il
om ed
Ġli br
ĠTo day
Ġinv ited
Ġwa ke
app ing
re en
Ġfr idge
Ġno sy
Ġstu dy
Ġla w
Ġsh ark
Ġan cient
ĠEll ie
Ġnot ice
Ġbird ie
Ġturt le
Ġwall s
Ġth u
ed ient
Ġc ity
Ġuse ful
ĠF red
e xt
Ġsp ace
Ġst ri
Ġdelic ate
Ġsound ed
a z
Ġter ri
Ġac cept
or ge
Ġun l
Ġ icy
Ġt imes
w ards
Ġfi er
Ġto ast
Ġwip ed
Ġde ad
Ġlight s
Ġle an
Ġshell s
ĠR ose
Ġdes ign
Ġexc la
Ġoff ice
Ġr oof
Ġdepend able
Ġfier ce
Ġdream s
Ġexcla imed
Ġnice ly
Ġmix ed
ĠBob o
Ġtool s
Ġlo cked
Ġob edient
Ġsuggest ed
Ġbag s
Ġfing ers
Ġgra ndpa
Ġkind s
Ġsmall er
ac he
Ġc am
Ġcount ed
art h
Ġst ream
Ġd ough
Ġro de
Ġla b
Ġro se
Ġpar rot
ĠMr s
Ġsto ve
Ġab ove
Ġexcited ly
Ġr at
Ġwe al
Ġpour ed
Ġme m
Ġte le
Ġl ow
c orn
Ġz ip
ent ion
Ġb itter
Ġst umbled
k n
Åĵ Let
Ġj am
Ġsh adow
Ġf ountain
Ġshow ing
n a
Ġscr at
Ġcra ck
Ġsuccess ful
Ġe gg
e orge
ad o
ĠP ete
Ġus ing
Ġbus hes
o ot
Ġexpl ored
Ġw itch
Ġc op
Ġthem selves
Ġbright ly
ar ry
Ġtom ato
Ġind epend
Ġspin ning
ut h
Ġsw e
Ġf rag
it her
Ġre sc
Ġpract ice
Ġwhisp ered
ir p
ĠEll a
Ġadm ired
in al
Ġremind ed
Ġpump kin
Ġg em
E m
Ġtw ig
Ġcost um
ĠTweet y
Ġjo lly
Ġsh one
Ġsee m
d om
Ġor ig
Ġperf orm
Ġkick ed
ĠYou r
Ġbu ilt
Ġsn iff
Ġboun ce
Ġstrong er
Ġway s
Ġmag n
Ġdelight ed
orm ous
Ġpop corn
!" .
Ġb ump
Ġste al
Ġs on
Ġbe ak
Ġclean ing
ia ble
Ġen ormous
o ppy
kn own
Ġf re
Ġ U
in es
Ġspoil ed
Ġra ced
Ġen c
Ġjo ined
v ice
Ġt ummy
Ġthought ful
Ġprin t
Ġa unt
ee ze
Ġbe es
Ġfrag ile
Ġd ust
Ġindepend ent
r ay
Ġdo ve
Ġen g
Ġh oop
Ġtun n
Ġjo g
Ġplay ful
Ġham mer
Ġrel iable
Ġch anged
Ġorig inal
am ond
ĠN emo
ic t
an ger
Ġhel m
an ut
Ġhand ed
Ġun known
up id
co d
Ġboat s
Ġru bb
Ġsol ve
ur ing
Ġy arn
Ġdi amond
Ġfind ing
Ġmet al
Ġc one
Ġbe an
ĠB u
Ġlea ving
ĠA lice
Ġcho se
Ġpain ted
Ġser ious
S ee
at ter
in ary
Ġha lf
g u
Ġs ink
Ġpo st
Ġhair y
Ġall owed
Ġcl um
Ġhold s
Ġdoes n
Ġlo ll
Ġst at
Ġac orn
ip op
Ġh ay
Ġth ose
ĠD ucky
Ġcam era
Ġru b
Ġmar ble
mb re
Ġche ap
Ġy et
Ġu mbre
Ġcro cod
i ence
Ġbe et
Ġloll ipop
ĠM ar
Ġst upid
eb ra
Ġcomp ass
Ġgra nd
ro be
Ġopen s
Ġtell ing
Ġgu ard
Ġfor th
Ġsleep ing
Ġweal thy
Ġm is
Ġsal ad
Ġpick ing
Ġst airs
Ġgas ped
ĠM ike
Ġg oose
Ġth irst
Ġbra ce
ĠWhen ever
ter n
Ġsun fl
Ġthu nder
ug ged
Ġt ank
Ġr ushed
ie w
il ty
Ġar row
Ġen vel
Ġgu ilty
Ġang el
Ġmo der
is ion
Ġclum sy
Ġpot ato
Ġterri ble
Ġz ebra
Åĵ Yes
G o
Ġwas hed
Ġto r
Ġc ur
Ġv iew
Ġkn ock
Ġthin king
Ġbar ber
Ġbu ll
Ġdolp hin
Ġr ug
Ġpe anut
Ġpre p
ĠF in
ĠB ella
Ġ ing
Ġpop ular
Ġd ull
Ġpe bble
Ġmiss ing
Ġpig e
Ġsqu are
Ġreg ular
Ġthirst y
Ġad vice
Åĵ What
Ġf lex
Ġsear ching
Ġing red
Ġingred ient
Ġcre ate
Ġt em
Ġmar ch
umb ers
Ġcare less
Ġpers ist
Ġfre sh
ation s
Ġdel iver
t ime
Ġn urse
c om
Ġch ar
Ġru bbed
he t
Ġclo ck
Ġmoder n
Ġst age
ill a
Ġcompass ion
Ġstr anger
Ġlo ad
Ġs uit
Ġsa uce
Ġsh ocked
g est
i bb
Ġcarry ing
eez ed
Ġn ature
Ġdri ving
ĠGra ndpa
Ġflash light
Ġimpress ive
ĠS n
Ġstop s
Ġpat ch
up er
Ġgrace ful
Ġsn e
ag het
aghet ti
oom y
Ġsh iver
Ġshe l
Ġdest ro
O w
Ġfriends hip
Ġspark led
Ġflex ible
f a
Ġbig gest
Ġdream ing
M ary
Ġt ied
Ġend ing
Ġeng ine
âĤ¬â Ģ
Ġjack et
Ġwhe els
Ġpir ate
Ġre ward
Ġbeet le
Ġw ing
Ġs udden
ho st
Ġcrocod ile
Åĵ It
Ġpu p
Ġseed s
Ġpee ked
Ġsp aghetti
Ġent h
Ġp ant
Ġdes k
Ġme al
is k
ell ig
Ġn umbers
ars h
Ġor der
Ġcomp ut
i kes
Ġint ellig
Ġwar ned
Ġcra zy
Ġpen gu
Ġtow ers
Ġst amp
l oo
Ġumbre lla
Ġsp illed
Ġdisco ver
Ġenth us
Ġsad ly
ĠF r
Ġnot e
Ġg host
Ġstat ue
Ġpat tern
Ġt ur
Ġm ask
Ġm el
ĠM ummy
Ġen v
Ġmail box
em ent
Ġtr uth
Ġwindow s
Ġingredient s
Ġ er
Ġst ack
Ġtra vel
oph ie
Ġsur f
Ġcom b
Ġpri ze
ĠW hile
Ġear ly
ie f
Ġimag ined
Ġhand le
Ġre ce
Ġenvel ope
Ġe arth
ĠD ave
Ġb ent
Ġsor ts
Ġav o
i o
Ġsc ale
Ġpa le
Ġpen ny
Ġtor n
Ġa head
Ġfor k
in ce
Ġcr ane
a wn
Ġtur key
Ġbad ly
Ġsc reen
Ġpretend ing
Ġjump s
ill ie
Ġread ing
Ġhum ble
Ġw ire
Ġplac ed
ÅĵLet Ã¢
ĠHe re
ri c
Ġspr ing
Ġspo ke
ic hes
Ġharm less
b led
Ġcouldn Ã¢
Ġpersist ent
Ġold er
Ġsh ut
Ġper m
Ġc ere
Ġcount ing
Ġgrow ing
Ġtunn el
Ġenc ou
ĠL ola
Ġslid es
Ġli z
Ġlibr ary
ct op
W hile
Ġbrace let
Ġmu sh
ĠG ive
ctop us
Ġpi ano
ĠTo by
u d
Ġflut e
Ġbeaut y
Ġcomp let
Ġcry st
Ġs uper
Ġpar ade
Ġm ay
ĠL ook
Ġcom pl
Ġnam es
c ream
ĠB ear
Ġso fa
com fort
Ġsc atter
Ġtri ang
Ġcraw l
Ġan x
Y ay
Ġbutterf lies
Ġtra p
Ġcelebr ate
Ġcar p
Ġo ctopus
Ġtra sh
Ġcomput er
Ġj ug
ĠK im
Ġp ow
ĠP e
comfort able
a id
Ġto oth
Ġun comfortable
Ġdestro y
Ġintellig ent
Ġc ards
Ġtri ck
Ġanx ious
Ġob ject
Ġre fused
ic es
Ġbe ep
Ġph ot
Ġcou rage
Ġval ue
Ġcoo king
Ġhun g
u bby
Ġsandw iches
Ġg um
Ġsc oot
Ġtra ck
Ġcl ub
Ġletter s
Ġspe ed
Ġord inary
Ġchar ming
o e
udd y
A lice
Ġquest ion
Ġne at
Ġband age
Ġtwirl ed
ac hes
ip s
ĠP at
Ġblue ber
Ġun cle
Ġcup board
Ġgif ted
Ġcere al
Ġc amp
en ry
or ant
Ġhunt er
Ġt ask
Ġmo le
Ġpige on
Ġany where
Ġru les
Ġsunfl ower
R e
Ġb ase
Ġch asing
Ġsn uggled
Ġn ail
g ust
Ġv i
Ġc urt
Ġcompetit ive
Ġgl oomy
Ġdraw er
Ġset t
Ġcurt ain
Ġcoll ar
Ġun iver
arl ie
Ġdis gust
Ġmush room
Ġy awn
G ive
Ġb icy
Ġs end
ar ian
ce ed
Ġign orant
Ġde af
Ġatt ract
Ġst ation
Ġliz ard
a by
Ġcarp et
Ġle ash
c ut
Ġfl our
us ed
Ġboun ced
Ġstick ers
Ġpast a
co a
Ġlive ly
Ġsold ier
Ġch ance
Ġt ire
Ġcompassion ate
a ff
Ġstart s
Ġal ert
Ġhur ry
Ġl ed
Ġp ony
Ġch ubby
Ġcart oon
s es
st ri
Ġsupp ort
Ġd ug
er able
ĠS m
Ġpress ed
Ġpack age
Ġwis hes
c u
Ġcreature s
Ġhelp less
Ġmis erable
Ġsh ine
ĠM andy
Ġj et
ĠE ventually
t ter
ur b
Ġh ook
Ġth ief
Ġstret ched
Ġh ipp
Ġg ir
Ġsh aking
Ġre sist
Ġt ap
um mer
Ġit self
Ġhelm et
Ġsqu ash
Åĵ That
i est
Ġdist urb
he art
Ġpant s
Ġg or
Ġtr ay
Ġco coa
Ġen er
ĠP olly
Ġneed le
Ġpo em
Ġimp at
g ie
Ġshout s
Ġfear ful
Ġpe pper
Ġcri cket
Ġc ase
ĠA l
n oon
Ġt en
Ġafter noon
D aisy
ĠS h
ĠA re
Ġsuc ceed
Ġrep e
Ġm ill
Ġbright er
Ġall ig
Ġb et
Ġle op
I f
Ġenv ious
Ġr ibb
ĠB ill
Ġtem p
aur ant
Ġimpat ient
Ġwa ff
or able
Ġno body
Ġdisgust ing
Ġrest aurant
Ġc omet
Ġm ath
Ġpract iced
Ġcryst al
a ked
Ġr ice
Ġcu be
Ġstep s
Ġfur ther
Ġo tter
Ġsand box
Ġsc rew
ĠG eorge
Ġtr ump
Ġsome where
Ġcand le
Ġattract ive
ĠW here
Ġmonkey s
Ġp un
Ġp urse
ol in
B ye
Ġv ide
Ġje ep
Ġback pack
Ġhum an
Ġme as
Ġsk ip
Ġany way
Ġfire man
Ġad orable
Ġrest less
Ġstret ch
ic op
icop ter
Ġm ug
Ġfil thy
Ġd ess
stri ch
Ġf u
ar oo
ang aroo
Ġdecor ate
Ġb ri
st ic
Ġrespect ful
Ġtrou bled
Ġgigg le
ĠC l
g n
Ben ny
Ġatt ic
Ġhel icopter
Ġmu ff
Ġp and
Ġmel on
Ġth read
Ġnow here
Ġra ven
Ġstir red
Ġso ar
Ġenthus ia
Ġf le
lc ano
Ġenthusia stic
Ġgrab s
Ġimp ro
Ġgor illa
Ġleop ard
Ġfind s
Ġbark ing
Ġcoo ked
Ġexpl ain
Ġmagn et
Ġbicy cle
Ġtrump et
Ġk angaroo
Ġnut s
s hed
Ġqu ar
Ġhipp o
ĠL ee
Ġsho e
Ġlisten ing
Ġcat s
Ġs ummer
Ġdist ant
Ġf ive
Ġbar rel
ir it
st airs
gg ing
ĠW h
Ġsp ell
Ġre co
Ġexp er
n ight
Ġst ared
Ġadm ire
Ġp ipe
L ittle
Ġun pack
Ġvo lcano
Ġa nts
Ġjelly fish
Ġhapp ier
Ġs ent
Ġallig ator
Ġfor t
Ġorgan ize
Ġh arsh
Ġu r
uc t
Ġqu ite
ĠEvery thing
c ome
Ġspl it
Ġsec ond
Ġv ine
Ġsweet heart
Ġpaw s
ĠW ould
Ġrad io
Every one
cy cle
Ġrid ing
Ġpull s
Ġgi ven
Ġbat ht
oph one
Ġse al
Ġdidn Ã¢
Ġfire work
Ġscoot er
Ġbre at
p ar
er op
erop l
Ġp al
Ġbatht ub
Ġmod est
ap a
Ġha ll
Ġtri pped
Ġa eropl
Ġmess age
Ġch alk
Ġl id
Ġse par
Ġb ikes
Ġcow s
Ġs le
Ġpus hing
Ġspe ak
Ġfrown ed
Ġm ama
ll ie
Ġo strich
Ġsor t
ĠJoe y
Ġsail or
Ġsh ield
Ġswe ater
Ġpa id
Ġer as
Ġrep air
c col
Ġso ck
Ġb in
ĠBrown ie
Ġdess ert
Ġme at
Ġsal t
y ear
Ġhair cut
Ġob ser
Ġs ize
ccol i
ag gie
h ood
e er
Ġresc ue
Ġsp irit
Ġe ither
uck ed
ĠTweet ie
Ġpil ot
Ġvi olin
ĠJ erry
Ġho les
Ġgra pes
Ġsc old
Ġlight ning
Ġtriang le
ĠSm ith
Ġbel t
Ġshe et
Ġbeh ave
Ġbu zz
ĠA lex
Ġro ared
Ġdis hes
Ġpal ace
re c
Ġcount ry
Ġcostum e
Ġpus hes
Ġele v
Gra ndma
Ġli ons
Ġforg ave
Ġsw itch
Ġstart ing
Ġpap ers
Ġl uck
Ġc ush
Ġch ain
ast ic
Ġp ed
Ġra ft
Ġstick er
Ġswing ing
Ġloo p
Ġpe ek
Ġsh akes
Ġreco gn
Ġbear s
b ul
Ġsh ade
Ġtra ins
Åĵ You
Ġelev ator
Ġh ive
Ġshop keeper
Ġmic r
Ġche cked
Ġsa us
Ġbasket ball
Ġt ax
Ġsil ver
Ġbro ccoli
Ġjo kes
ha ppy
i pping
Ġal ive
Ġro d
Ġo y
rec i
Ġli p
ic er
Ġpro v
f fe
Ġle ar
Ġfall ing
Ġlear nt
Ġwhe at
Ġener gy
u be
Ġapp reci
Ġsoft ly
ffe e
al ed
Ġpo le
Ġeven ing
Ġmicr ophone
Ġwall et
Ġneighb our
Ġin se
Ġp or
Ġju dge
Ġca ct
Ġplan et
isk ers
Ġcol ours
Ġpengu in
Ġbark s
Ġvis ited
Ġend ed
Ġre ind
il ing
Ġkn ot
Ġcl apping
ĠO r
c ast
in king
Ġhe dge
Ġzoom ed
Ġrubb er
ed y
Ġo at
Ġmar ched
Ġbo ots
Ġun happy
Ġjourn al
Ġeras er
pl ay
Ġm ild
Ġo l
en se
Ġavo c
Dad dy
Ġsho vel
Ġtax i
Ġg ro
Ġsand cast
Ġp ad
oo ped
Ġla und
op hy
ĠSn ow
Ġt ube
Ġcard board
im i
Ġlaund ry
ĠS ophie
Ġar t
Ġav ail
el ery
Ġb ur
se um
aul if
H a
Ġpand a
aulif l
Ġreind eer
eb ook
Ġbelong s
Ġam bul
Ġnot ebook
Ġw ool
Ġc ord
ĠR ed
Ġdraw ings
Ġcact us
Ġsmell s
Ġspr ink
Ġtr ophy
Ġshel ter
Ġmu le
Ġfeel ings
Ġste ak
Ġput ting
Ġclimb ing
Ġdis play
Ġpain ter
J enny
Ġroll ing
Ġunl ock
Ġmu seum
Ġtri cks
Ġhad n
Ġbreak s
Ġm en
a it
Ġstr ugg
Ġbanan as
Ġavail able
n ger
Ġrain ing
Ġstrawber ry
Ġd ive
g es
Ġst om
Ġso il
Ġfl ies
ĠB uddy
Ġbu l
Ġco ffee
Ġhop ing
n am
ĠT r
Ġdon Ã¢
Ġmar ry
Ġgo al
Ġp air
Ġambul ance
ree ze
Ġthank s
a zz
Ġc aulifl
Ġlean ed
Ġl end
Ġfr ame
ir on
Ġsh ort
r on
ĠP apa
Ġin sist
ma nd
ĠB et
Ġpol ish
Ġcup s
Ġquar rel
Ġhead s
Ġtreasure s
Ġpr un
Ġc elery
Ġsk ill
ĠB unny
Ġbul b
Ġfield s
Ġinc l
Ġair port
hin o
Ġapolog ized
Ġon ion
sel y
Ġy ach
Ġin k
Ġfoot ball
Ġfold er
ec ause
e ath
ctor y
Ġdrop s
Ġdi ary
Ġfl ame
ĠAnd y
Ġminut e
Ġaeropl ane
ur ch
Ġfil m
Ġre ver
Ġimag ine
Ġmed al
Ġv est
Ġlaw y
Ġk itty
Ġgo lf
Ġapp l
Ġfa ctory
Ġs ym
Ġshould n
ect ed
ĠP aul
Ġve nd
Ġeag erly
p e
Ġsw ung
Ġshr imp
Ġcaulifl ower
Ġyog urt
Ġmag az
Ġcomplet e
Ġt ub
Ġp age
Ġr ag
w een
Ġyach t
Ġclo sely
âĤ¬âĢ ľ
Ġpor ch
nam ent
ke let
Ġhot el
Ġbet ween
Ġpoin ts
pl ace
Ġr hino
Ġor nament
Ġfle a
Ġqu it
Ġdis ag
Ġshout ing
. .
Ġwin ter
Ġstuff ed
Ġche ek
st ead
Ġp it
e f
os ie
Ġch irp
Ġcool er
re nder
Ġsun set
Ġsee ing
g en
Ġimag ination
Ġpoin t
iz es
Ġfrog s
bo l
ĠWh iskers
Ġinse ct
z zy
Ġperfect ly
Ġthrow s
an ic
ĠS andy
Ġforgot ten
Ġcount er
Ġsym bol
Ġla ser
Ġher b
C h
Ġtw ink
af fe
Ġkn ob
ĠT ed
Ġli ves
ch anic
Ġhead ed
Ġcreat ed
Ġf urn
Ġs kelet
it ure
Ġatt ention
ac es
Ġfurn iture
Ġtun a
qu it
Ġtemp le
id es
Ġme chanic
Ġa x
Ġli e
Ġtra il
Ġmix er
c cer
Ġs ir
Ġphot o
Ġvend or
Ġw ife
Ġmotor cycle
Ġba king
Ġstu d
it es
Ġplay er
Ġsle pt
Ġoff er
ĠAnn ie
g l
Ġco al
ĠR o
Ġk ay
Ġpo ke
Ġso ccer
ĠW ill
Ġpet als
Ġthe ater
quit o
aw s
Ġpe ach
Ġarg ue
Ġh ut
sp ap
Ġpir ates
Ġmo s
Ġlawy er
Ġwa ving
ĠB un
Ġsw amp
Ġgir affe
Ġnew spap
Ġsk ull
r ight
You r
Ġfire place
Ġv et
or ies
Ġwe ather
In side
Ġp ine
ck ey
Ġho ckey
Ġo il
Ġ ig
Ġcher ries
an y
Ġig loo
ors es
Ġskelet on
u es
Ġit ch
Ġblow ing
Ġz ipper
Ġwip e
ĠCh arlie
Ġax e
Ġgl ove
ĠGra ce
Ġh orses
Ġmos quito
Ġcall s
Ġgr in
Ġcush ion
Ġfree z
ĠMar ia
Ġvide o
Ġch urch
Ġre ef
Ġglow ing
E ventually
Ġma ze
Ġgro cer
Ġb reeze
Ġwelc omed
Ġtra ve
Ġc able
gl ass
cer os
Ġgold en
Ġshow er
Ġmeet ing
Ġsl ipper
ang u
Ġboun cing
Ġchick ens
Ġcelebr ated
Ġsne ak
Ġsur render
Ġl ime
Ġpl astic
Ġslipper y
un ately
Ġsquirrel s
Ġfis hing
Ġt ut
el come
Ġpo pped
Ġl angu
Ġsun glass
Ġsunglass es
Ġgre edy
her o
ĠB aby
n ey
w as
Ġse as
Ġsniff ed
Ġlot ion
Ġking dom
Ġpow der
Ġstre ng
Ġfl apped
Ġcompl ain
m m
Ġwa gs
Ġoy ster
r r
ĠM illie
Ġhang ing
Ġfis her
Ġpare nt
Ġdoor s
Ġrhino ceros
Ġit Ã¢
Ġshould er
Ġsuper hero
Ġp ist
Ġr ot
Ġbu ry
was her
ro d
Ġde ar
Ġs ub
Ġyog a
Ġst aff
Ġbase ball
Ġstreng th
Ġfa uc
Ġbatter y
v ision
Ġcabin et
Ġsur round
Ġs ince
Ġpist ol
Ġun if
Ġinv est
ĠGo d
Ġdish washer
ĠU n
Ġint rod
Ġmyster y
ch or
Ġ iron
c ase
Ġunif orm
Ġce iling
ĠI Ã¢
Ġsqu e
Ġinvest ig
ro sc
Ġhop es
Ġmusic ian
Ġstick y
a b
Ġeat en
Ġmem ories
Ġfauc et
ĠJ ess
in arian
ĠIn stead
eter inarian
Ġf ought
t e
Ġkay ak
ĠL illy
Ġre ve
Ġv room
Ġv eterinarian
ss ible
Ġche ss
Ġto il
Ġag ree
rosc ope
Ġno vel
Ġsail ing
ĠH enry
t ress
m en
un a
Ġmat tress
Ġmist akes
Ġign ored
ĠM imi
Ġnew s
Ġburn ed
Ġtele vision
Ġb le
med i
N ext
Sam my
Ġfollow s
Ġc ell
all ey
Ġco b
Ġqu ack
Em ma
W ait
Ġshr ugged
To day
Ġjewel ry
medi ately
Ġmic roscope
Ġtoil et
Ġm op
Ġspray ed
is on
t ain
Ġblanket s
Ġhapp ens
Ġwr iting
Ġdis cu
Ġwe igh
Ġdan cer
Ġnap kin
Ġquiet ly
Ġan chor
Ġclass room
au d
Ġmo ves
Ġrad ish
Ġavoc ado
Ġinvestig ate
Ġs uff
Ġv alley
Ġreg ret
Ġpre vent
Ġcollect ed
To gether
Ġag re
Ġwor th
w eb
Ġal arm
Thank s
Ġthrow ing
Ġb other
Ġh ar
Ġmagaz ine
A nn
Ġscold ed
i ves
l er
in ked
Ġc ared
ch ie
Ġcho ice
ree k
Ġte ar
h ouse
ch air
Ġc reek
Ġsk irt
Ġo ak
Ġcan e
r s
Ġbee f
Ġfisher man
ÅĵIt Ã¢
Ġatt ach
Ġpass port
er c
an ny
Ġg ym
Ġcast les
Ġcob web
Ġt ug
Ġap art
Ġy ield
Ġappl aud
Ġtut or
ĠR osie
ĠN ext
Ġwar d
Ġpresent s
Ġaccept ed
ang es
Ġsepar ate
Ġs izes
Ġnewspap er
ĠDan ny
Ġward robe
Ġli cks
Ġmat ches
Ġpudd les
Ġcri b
Ġarm chair
Q u
Ġr ise
Ġstra ight
Ġent ered
Ġbook case
Ġtrust ed
Ġp ra
im ney
Ġdel ay
ĠT ony
Ġt ucked
Ġcar ing
Ġcand les
Ġgr ill
Ġwhisp er
et y
B ecause
Ġfo g
Ġkeep ing
Ġve il
Ġp ur
ĠK ate
Ġroom s
Ġper fu
Ġkiss es
Ġcr ow
Ġimpro ve
Ġch imney
Ġcoat s
Ġex erc
ĠH arry
Ġcl aws
Ġdress ed
ĠS ee
Ġla wn
amp oo
Ġra z
Ġbo ot
Ġbl ood
Ġflo at
Ġfreez er
Ġdisapp ear
Ġpast ry
id ay
Ġworm s
Ġpuzz les
a h
h ic
s it
ĠHe lp
Ġlet ting
e ve
Ġst ro
Ġve hic
r ing
om es
Ġst able
gg y
Ġamaz ement
ict ion
Ġsplas hing
Ġbl inked
iv al
Ġchair s
Ġperfu me
Ġbl ouse
Ġste am
iction ary
Ġro ot
Ġpin ch
m end
Ġf ile
Ġsh ampoo
ĠA b
Ġapp ro
Ġa ut
Ġwarm th
ĠM iss
Ġin f
Ġmake up
Ġop era
Ġde mand
i ved
Ġd ictionary
Ġsqu eeze
Ġs igh
Ġcraw ling
Ġr ake
Ġeas ily
Ġlangu age
Ġwas te
Ġsqu eezed
ra ged
Ġmin t
Ġw igg
Ġcross ed
Ġmust ache
ĠS u
ct ion
Ġraz or
Ġser ve
om mend
Ġcu b
Ġrec ommend
Ġinc re
Ġribb on
Ġpe ar
D id
ore s
Ġho l
Ġrelax ed
ĠJ ul
âĤ¬ .
Ġtick et
Ġsn ap
Ġhol iday
Ġwander ed
uck ily
ĠR u
Ġheart s
Ġmiss ile
c age
Ġwe ep
Ġsp ear
Ġtele ph
M andy
Ġring ing
Ġblueber ries
Ġinst r
Ġhurt ing
Ġmin er
Ġra il
Ġbird cage
I s
Ġpo ked
Ġbel ow
Ġteleph one
Ġre qu
ĠR e
le nd
fort unately
Ġcra sh
Ġf est
Ġg ear
Ġhelp er
as is
Ġsurpr ises
Ġfollow ing
Ġplan es
Ġsub way
Ġgrow led
Ġj unk
Ġmuff in
bb ie
Ġkne el
ĠW ho
i b
c us
Ġqu iz
Ġtorn ado
Ġy ucky
Ġsn eeze
Ġide as
Ġref re
Ġis n
is ing
Ġtr ade
Ġmar ried
up s
Ġl umber
Ġd ire
Ġhar b
Ġre aches
Ġsandcast le
Ġbe gged
ink y
Ġstrawber ries
Ġmy self
Ġb ill
Ġo asis
Ġflut ter
W ill
am ber
Ġshr ink
Ġlaug ht
Ġber ry
Ġbu ried
ic ing
Ġbrave ly
Ġfall en
Ġent er
Ġpl ates
Ġlaught er
Ġbooks he
Ġim mediately
Ġca lend
Ġbump ed
Ġbe amed
omed ay
ache l
om ob
Ġra ise
Ġrequ est
Y uck
Ġwe ap
Ġexper ience
Ġli c
Ġadm ir
Ġrabbit s
Ġinv ite
O k
op s
Ġto ng
ĠJ ames
Ġal right
ap ed
Ġma ss
' ve
Ġunderstand ing
Ġcalend ar
Ġmoment s
at ie
Ġskill s
Ġaut omob
Ġj ail
Ġrever se
Ġth umb
Ġble ed
ht ray
ĠTr ue
Ġcl iff
Ġharb or
Ġbookshe lf
Ġas htray
st ers
Ġkn own
ĠCl ara
ig ail
or al
Ġv ac
Ġfu el
Ġp ages
ar i
Ġign ore
Ġit em
Ġsupp ly
iss ion
Ġbat he
L isa
Ġd ried
Ġsn apped
Ġap ron
r iger
Ġsaf ety
riger ator
l ier
W elcome
Ġperm ission
Ġhard ly
Ġref rigerator
Ġfest ival
W ith
Ġspot s
ĠSnow y
Ġcap tain
uc ture
Ġrem ove
Ġs omeday
Ġstr ucture
Ġspark ling
Ġso cks
Ġcudd led
Ġsa ving
as p
Ġbal an
Ġblack board
' .
Ġwh ip
c akes
Ġch amber
ĠF o
Ġw ine
Ġdest ination
Ġto es
Ġspend ing
Ġlemon ade
Ġre s
Ġsp ade
Ġdress es
Ġhit s
Åĵ No
Ġha nger
Ġinsist ed
Ġteach ing
Ġbreat he
Ġscatter ed
ent s
Ġwaff le
ĠIt s
Ġsett led
ĠK ing
Ġdestroy ed
Ġair pl
Ġlab el
Ġbuzz ing
Ġpra ised
Ġjew els
Ġprep are
Ġyawn ed
Ġlic ense
Ġtall er
Ġmod el
Ġfire f
Ġp ort
Ġsc ooped
Ġdiffere n
Ġrece ived
Ġl ily
Ġr ow
Ġpr ide
Ġpr op
Ġbuck le
Ġear lier
Ġto ur
ĠH ave
ĠM aggie
Ġh omes
Ġbean s
i um
Ġvan ished
Ġgl o
re at
Ġpatient ly
ĠFr eddy
ct ly
Ġrem ain
Ġbath robe
Ġappreci ate
Ġchirp ing
Ġa chie
Ġdeep er
Ġpull ing
Ġn one
Ġsaus age
ant ly
Ġsit s
Ġd are
an na
Ġdecor ations
Ġdra in
Ġh ate
Ġshe d
Ġr hy
Ġpun ish
Ġwas hing
ĠE ach
ĠPe ople
Ġfast est
Ġs imp
Ġspark les
Ġbelie ved
Ġto re
Ġencou raged
Ġrepl ace
ĠBe fore
Ġsuff er
xt ure
Ġspark le
Ġbra in
at ch
n ies
ĠT ina
Ġte ase
Ġclimb s
ĠI s
P eter
s ing
s ity
Ġinv it
Ġtong ue
A ll
Ġb ang
Ġp alm
Ġhill s
Ġscrat ch
Ġm ention
Em ily
Ġgu y
Ġflo ated
Ġher s
Ġautomob ile
Ġplay s
ĠC o
Ġresp ons
be y
Ġweek s
ĠM ay
Ġfl av
Ġcr unch
Ġd igg
Ġst y
Ġinf ant
Ġhe at
Ġor anges
o sed
Ġpan ic
Ġgif ts
Ġsc ore
iz ard
Ġsol ved
Ġdigg ing
Ġwor se
Ġsh ot
Ġup stairs
Ġst ad
The se
Ġvac ation
Ġstad ium
Ġme owed
Ġstrugg ling
Ġm itten
Ġe qu
th m
Ġtwist ed
Ġshoot ing
Ġb ak
Ġch ores
ĠBu zz
Ġexam ine
Ġflo ating
Ġse w
Ġsn eezed
Ġ V
Ġpo ison
Ġhe sit
os ity
J en
F l
Ġthr illed
ĠO llie
f ied
all en
Ġuniver se
r m
Ġaw e
Ġsp aces
Ġbit es
Ġvehic le
Ġsp ort
Ġcher ry
Ġset ting
Ġprov ide
Ġwar ning
Ġpart s
Ġm all
Ġch allen
Ġn ation
Ġgre y
ĠG ood
M mm
Ġrest ore
d o
x y
Ġmeas ured
Ġthe rm
Ġgrin ned
Ġappro ached
Ġmass age
er o
u de
Ġran ch
Ġrhy thm
ĠEvery day
Ġcollect ion
Ġrepe at
Ġj azz
Ġur ge
Ġweap on
Ġe vent
Ġf ut
Ġbr ings
Ġw izard
Ġrem ained
Ġop er
Ġneighbor hood
l s
Ġfut ure
Ġstom ach
g ing
um ble
Ġtherm omet
S h
Ġdiscu ss
Ġl ugg
Ġbill board
Ġmem ory
em ember
Ġelephant s
Ġdifferen ce
Ġlugg age
Ġmail man
Ġcartoon s
Ġact ually
!" ,
M ark
Ġuniver sity
Ġseat s
Ġle ak
Ġfl ood
Ġgl owed
N ot
av id
Ġsupp osed
W ould
Ġgra pe
Ġfix ing
Ġthermomet er
J ake
all ow
Ġmarble s
asp oon
Ġpo ppy
! '
Ġsprink les
Ġincl ud
Ġbri cks
Ġd uring
Jo hnny
Ġte aspoon
Ġpaint s
Ġsign s
Ġr ush
Ġairpl ane
ĠBet sy
A l
Ġcon f
Ġe mer
Ġmelt ed
Re ady
Ġdisco very
Ġrece ive
Ġpotato es
Ġsurround ed
Ġbr us
ĠL ater
Ġm ister
Ġcur led
Ġhur ric
Ġwat ches
ĠJo y
Ġs ip
Ġwis dom
Ġso re
Ġgirl s
Ġz ipped
r ise
v et
Ġpillow s
Ġtomato es
Ġr ust
Ġla id
Ġd aisy
ĠL iz
Ġdec ision
Ġproblem s
Ġfa sc
Ġpa used
Ġg ust
Ġstr ang
Ġchew ed
is hing
Ġtra cks
Ġwe ight
Ġslid ing
Ġt ide
Ġcont ain
ĠSome one
Ġpattern s
Ġsun rise
Ġg ain
Ġbe at
Ġpo ssible
Ġgrocer y
Ġinvit ation
Ġun ite
Ġs ings
Ġg az
ĠR achel
Ġwhere ver
Ġsl ice
Ġadmir ing
u ing
ÅĵI Ã¢
Ġsun light
Ġcra shed
ÅĵThat Ã¢
w alk
Ġman age
Ġtwig s
o ved
i ers
bble s
e ed
Ġhurric ane
Ġord ered
Ġexerc ise
Ġspaces hip
Ġsp ill
Ġour s
b ers
Ġwater ed
L e
Ġw re
Ġc akes
Ġra cing
Ġmar ching
Ġli ck
E x
Ġbe g
Ġkind ly
c ious
Ġwhist ling
Ġlet s
Ġobser ve
ĠN ut
Ġglo ves
ĠL una
Ġspoon s
Ġsp it
Ġsc ur
Ġpu pp
Ġcollect ing
ĠSh aring
Ġdrink s
it ies
ĠC at
Ġoper ation
f y
Ġscrat ched
as es
Ġpet ted
Ġside walk
Ġch ir
Ġgl itter
Ġburn ing
Ġfasc in
ĠM e
Ġe ff
Ġra ised
z ag
Ġland s
Ġ x
Ġchir ped
Ġjo gging
Ġcontin ue
Ġsat is
und ay
Ġto e
Ġpeanut s
Ġstrang ers
ĠP oppy
Ġb es
Ġpig s
Ġf ed
Ġf et
Ġfold ed
Ġesc aped
Ġdog gy
ip ment
he st
Be fore
ĠS unday
Ġsold iers
Ġequ ipment
Ġwork s
Ġgot ten
ĠP enny
Ġoff icer
Ġearth qu
O uch
m other
Ġatt ached
Ġcrunch y
Ġco pper
Ġscream s
Ġmountain s
Y um
dd y
ig zag
ĠF ro
Ġwhist led
ĠZ oe
Ġon wards
l oe
Ġapp ear
ĠS ad
Ġcom fy
Ġn avy
Ġpe ered
Ġcle aring
Ġbuild ings
Ġbes ide
Åĵ Thank
Ġwar n
Ġsaf ari
Ġhapp iest
Ġim age
Ġtal ent
ĠAb igail
Ġrefre shed
ect ure
ĠLet Ã¢
ĠSt eve
joy ed
Ġrem em
Ġhur ried
Ġhat ed
" ,
Ġmeas uring
Ġremem bers
ĠSp ike
ĠRu by
Ġover joyed
Ġol ive
Ġnet work
Ġsell ing
Ġsecret s
ĠN ot
Ġpri ce
Ġsk ipping
Ġwonder s
Ġplant ed
Re ally
Ġl ecture
Ġbed s
Ġmen u
se ek
Ġswim s
ĠCh irp
Ġbow ed
ad ed
Ġturn ing
am ie
bb led
Ġstri p
Ġp ies
Ġeag le
am b
Ġwait s
Ġpre cious
Ġtre mb
Ġby e
Ġbri ck
Ġp itch
Ġlip s
Ġb ones
Ġo bey
Ġbra nd
Ġcomp any
Ġdinosaur s
Ġdisag reed
Ġdr inking
R o
Ġbr id
Ġfl ap
Åĵ We
Ġwood en
M oral
Ġsl ip
Ġwere n
Ġprun e
ĠM illy
Ġsucceed ed
ĠRe my
Ġeff ort
Ġprep ared
Ġrecogn ized
Ġpet s
Ġser ved
Ġshadow s
Ġminer al
om as
Ġkeep er
Ġfirework s
Ġcudd le
ff ic
Ġcre pt
Ġremind er
Ġhis t
Ġmouth s
Ġall ow
Ġcomfort ed
s on
Ġc hat
Ġex a
n ie
ĠNut ty
Ġw id
Ġbrid ges
Ġpray ed
Ġblueber ry
Ġreve aled
Ġsimp le
Ġevery day
Ġv ict
Ġprin ter
Ġhist ory
Ġme ow
Ġped al
Ġearthqu ake
Ġeas ier
S usie
Ġtra ffic
Ġc al
Ġran g
m are
Ġoat s
Ġacc om
c c
Ġrest ed
Ġcut ting
igg y
Ġsty le
Ġany time
Ġland sc
Ġtra pped
Ġmu ddy
Ġrain ed
Ġpad d
Ġvill ag
Ġcatch ing
Ġt ip
Ġwa ist
Ġacorn s
Ġbleed ing
ĠS unny
Ġwhat ever
Ġvo ices
Ġz igzag
Ġapolog ize
Ġche f
Ġstri pes
Ġste el
Ġwant ing
Ġnight mare
Ġsett le
Ġso ared
Ġown ed
Ġcir cus
Ġwaff les
Ġaccom pl
Ġs ix
Ġcre ation
Ġfiref ight
Ġb un
Ġsc oop
Ġdisturb ed
Ġmon sters
Ġsnow ball
L uckily
S omet
Ġfa sh
ĠSomet hing
ĠCh r
m ble
Ġg ained
Ġdoctor s
Ġper ched
Ġguess ed
ĠK atie
Ġfree ze
F irst
Ġbre aking
ĠR a
Ġtast es
Ġansw ers
Ġrespons ible
Ġsho pping
Ġcostum es
ĠP r
Ġagre ement
xy gen
Ġben eath
Ġlandsc ape
Ġpract icing
Ġpup il
i en
Ġol ives
Ġle ather
Ġvisit ing
is hes
Ġdra g
Ġcuri osity
iz ing
Ġwre ck
Ġvillag ers
Ġout do
n eath
Åĵ Can
ĠO w
Ġbring ing
ter day
Ġm ice
Ġcont ro
Ġso ak
Ġbr ushed
Ġitem s
la ire
ent y
Ġtre mble
Ġexa ctly
Ġve l
Ġfash ion
Ġdown stairs
Ġlady b
Ġeat s
Ġsteal ing
Ġare a
ĠM at
ĠJ e
Ġre le
Ġsad ness
ul u
O r
Ġstr uggled
Ġc aut
Ġvel vet
Ġtwirl ing
T weet
Ġr ipped
Ġact iv
Ġarg ued
d ing
ĠThe se
le y
Ġs i
ĠSp ark
Ġgrand mother
Ġ Qu
Ġfam il
Ġmiss ion
Ġd ied
om ing
Ġfascin ated
Ġwr ites
Ġunl ocked
anna h
d ie
Ġencou rage
Ġrecogn ize
i k
Ġkn elt
Ġinstr uct
ist en
Ġsister s
ĠFr ank
. '
Ġvict ory
U n
Ġwe ighed
Ġunder ground
Ġexam ined
ĠJ an
Ġkey s
Ġperm it
ic orn
Ġun icorn
ind y
Ġn icer
Ġso aring
Ġex it
Ġz ero
ĠChirp y
Ġplan ned
Ġbeg in
us an
u x
Ġtick ets
Ġwa gging
Ġlem ons
Ġjo gged
Ġreal ize
Ġt ugged
Ġpe arl
Ġsl apped
Ġrid es
Ġload ed
Ġwonder ing
Ġsupp lies
Ġb are
Ġsit u
Ġpin ched
Ġshiver ing
ĠD avid
ĠHow ever
Ġdecor ated
Ġstud ied
Ġsne aked
Ġnail s
Ġo xygen
ĠF irst
Ġoutdo ors
Fl uffy
Ġbun nies
Ġbe nd
ic a
D ave
Ġchallen ge
Ġru in
Ġan n
ind a
Ġwin ner
Ġst ing
loo king
Ġkeep s
ĠO l
Ġcontro l
Ġinstruct ions
ĠCo co
Ġmach ines
Ġyell ing
Ġsi ren
Åĵ Don
Ġwin ning
e ars
Ġpun ished
Ġpast el
Ġpil es
ĠT w
ĠL ike
Ġemer gen
Ġcomp le
Ġaccident s
ĠUn cle
ĠSu zy
Ġpe el
Ġfet ch
ux u
ĠIt Ã¢
Ġshould ers
Ha ppy
Ġunder neath
ĠAnn e
ak y
Ġfire men
l en
Ġbeh a
Ġdraw s
Somet imes
ir a
Ġstret ching
Ġsatis fied
ĠB eth
Ġgather ing
Ġmix ing
Ġincre ase
Ġl ines
Ġprop erly
ĠB ig
ĠJul ie
ay la
Ġzoom ing
Ġstir ring
Ġlo ving
Ġtrave ll
Ġd am
o h
Ġag o
Ġbro om
ĠK e
Ġpocket s
ant a
Ġintrod uc
Ġte asing
Ġprin ted
Ġclap s
Ġneighbour hood
bb ing
Ġneighb ors
Åĵ Look
L ola
Ġst air
Ġpan cakes
Ġbrus hes
s hing
Ġsight s
Ġt im
ag ull
th ank
R ex
Ġpe aches
Ġtun e
Ġc ape
ĠD id
ĠFl oppy
B ella
Ġru ler
Ġrele ased
v a
Ġdes er
o ed
ick y
Ġbu dge
ĠSt op
g ers
u ke
Ġherb s
Ġb unch
Ġintrod uce
Ġl uxu
Ġdec ides
Ġfro sting
Ġmus cles
as hed
z en
ay s
Ġse agull
Ġdri ft
Ġgun s
Ġribb ons
Ġprotect ed
âĤ¬âĢ Ŀ
Ġpo king
M r
Ġprun es
ow ers
Ġre lease
Åĵ This
Ġpar ked
l ow
Ġconf ident
a les
Good bye
M ike
Ġmark s
Ġcamp ing
Ġbucket s
Ġsol ut
C l
G eorge
Ġin ch
Ġop in
Ġspid ers
d am
Ġtouch ing
H enry
Ġpur red
Ġladyb ug
Ġd ent
Ġst itch
Ġcrow d
Ġlet Ã¢
Ġgigg ling
T eddy
Ġsh ock
Ġba ked
Ġcompetit ion
Ġstudy ing
ĠA m
Ġdrag ons
ri age
Ġstr uck
A h
Ġbe ard
Ġyou th
Ġour selves
Ġbur row
Ġm ast
n es
Ġs ides
Ġsurf ace
ĠRa bbit
Ġrepe ated
Ġdemand ed
Ġmention ed
ĠA n
M ar
ĠL ucky
Ġtick le
b ies
a is
ick ed
Ġfro zen
M aggie
Ġe ight
ed nes
Ġv owed
Ġent ire
Ġemergen cy
ednes day
z ie
Ġ 1
Ġsweet ies
uct antly
E lla
Ġste ep
ues day
Ġpro ject
Ġpolice man
Ġgaz ed
Ġmov ies
as on
ĠP ip
Ġforg i
Ġba bies
Ġboun cy
Ġgr ant
Åĵ Hello
Ġdra gged
And y
j am
Ġso aked
Ġsor ting
Ġstr ings
Ġcr umb
Ġhorn s
Ġloo se
Jo ey
Ġexp ect
ĠZ oom
Ġscur ried
Ġcaut ious
Ġbare ly
Ġsil ence
er n
ed ding
Ġto night
Ġv ent
Ġsn ail
Ġdiscover ing
Ġm ittens
ĠC arl
Ġrainbow s
Ġpour ing
ĠCh loe
k ins
Ġintere st
Ġw ound
ĠW ednesday
Ġfood s
ĠT iny
Ġe ast
Ġhon k
Ġmuff ins
Ġ Once
Ġte xture
Ġcon es
Ġseas on
B obby
Ġdri ves
ti est
Ġpret tiest
ĠG r
Ġsto le
Ġkick ing
Ġguy s
Ġres ult
im y
ĠT uesday
en a
ex p
Ġrubb ing
Ġprin ts
Ġb ank
Ġli ed
Ġpe ars
Ġsaus ages
ĠH op
Ġact ed
Ġhig hest
R emember
ĠTh omas
Ġch ases
Ġpat ience
Ġfa b
Ġwe b
Ġfab ric
Ġshel ves
F red
Gra ndpa
Ġgood night
Ġm ater
ĠBet ty
Ġmater i
Ġpow ers
Ġrock ed
Ġur ged
P ete
Ġplan ets
h ins
izz ie
ĠL ulu
Ġcur ly
Ġapplaud ed
Ġluxu ry
ĠB ir
Ġchew ing
ĠS anta
led ge
ĠBu bbles
Ġcomple ted
exp ected
Ġfl at
ĠT illy
Ġch ips
Ġrel uctantly
Ġstri ke
Ġcat ches
Ġt i
Ġst aring
U h
Ġcurtain s
ĠC ar
es ome
ust ed
Åĵ Why
Ġbloom ed
Ġtwink ling
ÅĵDon Ã¢
Ġw est
Ġsigh s
Ġknow ledge
av i
eez ing
ĠJo sh
Ġun expected
Ġincl ude
Ġcut s
Ġstamp s
Ġmat ched
Ġsaf er
ĠJ amie
ĠS usan
Ġth reat
th ough
Ġsing er
Ġlibr arian
Ġcont est
Ġfig ured
Ġimport ance
u ly
ĠS ure
Ġdire ction
Ġsitu ation
ĠR ob
Ġshiver ed
u zz
Ġbl ink
Ġw edding
Ġachie ve
Ġhe el
Ġbott les
Ġaw esome
Ġpebble s
Ġpass ing
Ġro aring
Ġsor ted
Ġsl imy
Ġrepl ac
Ġbra very
Ġdust y
Åĵ Oh
Ġpretend s
Ġdolp hins
Ġsn ugg
f it
Ġcheer ing
Y e
Ġhug ging
Ġex ha
ber t
Ġintroduc ed
un e
ĠAl ways
Ġcan Ã¢
Ġbalan cing
Ġhome work
ac ob
Ġtheir s
Ġpat ted
Ġus ual
he llo
Ġwait er
Ġsh ined
Ġsweet s
Ġmat ching
Ġmark ers
Ġout fit
Ġwork ers
Ġscream ing
K itty
Ġp out
Ġsolut ion
im mer
Ġstick ing
cu se
Ġtrave led
Ġpl enty
Ġrock ing
jam as
D anny
le e
Ġflag s
F r
y ou
Ġtow els
Ye ah
Ġfa ult
Ġgre et
Ġmar riage
.. .
Ġyou Ã¢
Ġmot ion
ess ie
Ġroad s
J ames
Ġwr itten
Ġreach ing
ĠC laire
Ġgrow l
Ġbloom ing
Ex cuse
Ġd ared
Ġgo als
ĠL ou
ir ts
Ġexp ected
Ġexha usted
i very
Ġus es
Ġrad ishes
Ġdisag ree
i ar
Ġarg uing
Ġca used
Ġresc ued
id s
Ġs way
Ġl amb
Ġman e
Ġsl ed
Ġpaint ings
Ġobser ved
ul ts
il es
Ġstart led
Ġtr uly
Ġgu est
Ġrecord ed
Ġzoo keeper
Ġkneel ed
Le o
Ġinclud ed
it ely
Ġran ger
Ġf art
ĠH a
Ġsl ap
Ġst are
Ġle ap
Ġspray ing
Ġtremb ling
Ġwork er
Ġarri ve
Ġpack ing
ĠJ ones
ct ions
Ġstore keeper
Ġregret ted
Ġrock ets
Ġcreat ing
Ġ Yes
Ġla p
Ġrest ing
Ġprincess es
Ann ie
Ġflav or
M rs
Ġtim er
a a
Ġa st
Ġagre es
en ces
Ch arlie
Ġvent ured
n joy
Ġsp ike
Ġlearn s
Gra ce
Ġrep ly
Ġgrow ling
Ġcomplet ely
Ġpoem s
Ġst ern
Ġro bb
Ġdel ivery
Ġpart ic
Ġorgan izing
Ġpencil s
ĠSad ly
S ophie
Ġc ent
Ġpa jamas
Ġbak er
Ġvan ish
Ġf ir
Ġch uck
Ġsn akes
Ġus ually
After wards
v in
Ġhe av
Ġopen ing
Ġinv iting
ĠChr ist
Ġsc ra
Ġpray er
Ġpengu ins
Ġquack ed
Ġcrumb s
ĠA unt
ĠJe ff
Ġsu itc
he ll
P aul
Ġfl ames
Ġpadd led
or a
Ġtwink le
ver s
oy s
Ġrem oved
Ġown ers
ĠH oppy
ĠB oth
Ġwasn Ã¢
ĠJen na
Ġfir m
ĠF or
ĠJess ie
Ġbe ad
Ġstrugg le
Ġw ink
Ġaccompl ish
ĠM ad
as m
Ġwor ries
Ġevery body
Ġcountry side
Ġwas ted
Ġdent ist
m as
ĠB ye
Ġrem ote
How ever
Ġreplac ed
Ġbe lly
Ġrub s
p ite
a ze
ang led
Ġteac hes
Ġun f
Ġc ott
at y
Ġwander ing
low ly
p er
Ġro ots
Ġcom m
Ġactiv ities
Ġcrab s
Ġheal ed
ĠLe ave
Ġlollipop s
Ġun ited
Ġpol ishing
id ing
Ġsc ales
Ġreve al
Ġsw irl
Ġfair ies
ais ies
g o
Ġth ro
Ġmiss es
Ġscr u
Ġsees aw
Ġroll s
Ġpot s
Ġval ued
Ġthro at
Ġb oo
Ġpol ished
Ġclos es
Ġbo om
Ġd aisies
op es
d ies
ĠChrist mas
Ġpartic ular
ĠA bby
Ġdes ert
Ġr isk
Ġtra ctor
Ġdark ness
Ġwin ked
Ġrelie f
Ġmelt ing
Ġwire s
Ġdire ctions
ĠB y
Ġpee king
Ġcrack ers
Ġhelm ets
ĠFo llow
Ġinterest ed
Ġfa ced
Ġknight s
ĠMat t
Ġg aze
ĠJ u
ara way
Ġbec oming
Ġr ings
Ġbalan ced
Ġyou nger
Ġcautious ly
M ittens
Ġcra cked
Ġc ause
Ġf araway
ĠM art
ĠL inda
Ġphot os
A b
Ë ľ
Ġ Y
âĤ¬ Ëľ
Ġpast ries
Ġlead er
Ġ ĠĊ
ĠO ut
Ġf reed
Ġsign ed
ĠJohn son
ĠB o
Ġsing le
Ġfu zzy
ĠS orry
Ġc ash
Ġst em
Ġrest ored
oph ia
ĠFo x
Ġwigg led
Ġd ipped
Ġsque aled
bo at
Ġgrocer ies
Ġlo gs
ĠMom o
Ġstay ing
Ġnap s
Ġitch y
ĠUn fortunately
l ings
Ġcolour ed
Ġfore head
Ġchuck led
ĠDo lly
B ad
Ġhow ever
Ġyes terday
Ġwr ist
Ġfill ing
F ine
Ġc ough
Ġw ow
Ġr ipe
Ġsneak y
E llie
Ġblow s
Ġseem s
H arry
r ance
Ġd en
Ġsl am
Ġlisten s
ĠP ut
Ġref le
M illie
Ġc ous
ĠBe ing
Ġopin ion
Ġrecord ing
Ġflutter ed
Ġbead s
Ġtrip s
ĠP inky
Ġsil ent
Ġl ined
Ġmar ked
Ġbowl s
Ġsw ooped
Ġtri cked
Ġact ions
ol ine
Un fortunately
Ġti pt
Ġfirefight ers
A lex
R ose
S andy
Ġsplas hes
To by
bb ly
Ġdeterm ination
Ġsn at
Ġhid er
ĠSu zie
Ġhis sed
Ġp iggy
Ġwe ars
c ited
Ġadd ing
Ġbump s
Ġstro ll
Ġk ites
ĠL izzie
Ġtw in
Ġseek er
Ġsnowball s
Ġh i
il o
ig i
Ġhand ful
Ġtrick y
ĠP ipp
Ġcon n
or ds
Ġsome body
Ġple asure
Ġso bbed
ĠL uke
Ġstay s
Ġsandcast les
y ond
Ġs ense
Ġbe yond
Ġro ses
Ġru le
Ġfro ze
pp ers
Ġheal th
Ġscar ves
Ġcop y
ĠJess ica
Ġexplore rs
Ġlight er
ĠDo ggy
Ġcub es
Åĵ Mommy
Ġprotect ing
Ġprov ided
Ġa ff
Ġaw ake
Ġcover s
ĠM any
Ġbak ery
Ġb umpy
ĠKe ep
in cess
Ġdark er
il ity
Ġl ung
Ġse ven
ĠH annah
Ġcelebr ation
aff es
ik i
Ġback ed
ĠK ayla
Ġsec ure
S ome
Ġin sp
Ġne ct
Ġdeliver ed
Ġcal med
Ġnect ar
Ġb ars
ĠE njoy
Ġgir affes
R un
Ġno on
Ġyour selves
Ġsto len
Ġpast els
Ġcash ier
an es
Ġglass es
Ġtick led
Ġped als
ĠQu ack
K ate
ĠB ird
ĠF riend
Ġde al
Ġent rance
Ġinsect s
Ġcomplain ing
Ġm es
ĠW atch
Ġg lee
Ġjo king
ÅĵWhat Ã¢
N ina
or med
um m
Ġatt ack
Ġmes mer
S ad
b oo
Ġli qu
B un
Ġsuitc ase
? '
Ġth orn
Ġc ust
Ġcan s
are n
Ġcow b
ĠNot hing
ĠA dam
Ġafter wards
Ġtall est
Ġtalent ed
ri ous
ĠM ick
Ġmil es
ar ter
th s
ĠL izzy
co at
Ġsal ty
Ġfold ing
Ġinstr um
Ġcust om
Ġo pp
Ġbad ge
Ġseas hell
Ġfart her
ig ers
M ay
n o
ĠG et
ĠM o
ĠM on
Ġread s
n ers
ell e
Ġkick s
Ġbegin ning
ĠTw o
Ġs ib
au ra
ĠEvery body
he e
ar ling
Ġpart ies
ch oo
Ġcolor ed
Ġsm arter
Ġmask s
Ġt y
ĠW ater
Ġspe aking
ĠT ara
Ġbeh avi
Ġachie ved
Ġkne es
ĠP l
ĠT ess
o ssible
B l
Ġcand ies
Ġgem s
Ġrain coat
r ig
Ġimp ossible
Ġact ing
Ġwip es
Ġvide os
Ġmark er
Ġknock s
b and
st ep
se qu
Ġweep ing
il ed
ĠBu zzy
an a
ĠC indy
Ġrecommend ed
Ġt angled
Th ose
Ġbur st
Ġm i
Ġcon sequ
Ġind eed
Ġcl ick
ĠP andy
Ġste er
P olly
Ġbuy ing
Ġjack ets
Ġmi xture
Ġd ots
Ġp ause
Ġimpro ved
Ġaccomplish ment
Ġcho ices
Ġarrow s
Ġexper ien
Ġsmile y
ĠN ina
Ġchef s
ĠHa ppy
Ġt igers
Ġliqu id
T ime
ĠJ azz
?" ,
Ġpad dle
Ġte ased
itc hes
Ġcheek s
Ġmagn ets
ĠR obby
Ġswims uit
Ġsc aring
ĠPr incess
ĠE arth
br ush
umb ling
T ina
Ġw ins
ĠL uckily
Ġwouldn Ã¢
iv ity
Ġcompl ained
Ġbed time
Ġsh irts
Åĵ Do
Ġdrum s
Ġr umble
Ġsnat ched
he w
Ġwe e
ep t
Ġch oo
ĠM el
ur ry
Ġpay ing
ĠJul ia
t le
at ul
v est
Ġhall way
Ġtravell ed
t uce
Ġst ung
ĠJ acob
Ġlet tuce
Ġhesit ated
Ġann oy
D ays
c ope
Ġfamil ies
Ġconsequ ences
Ġl un
ĠS qu
Ġne ither
Ġperform ance
Åĵ Come
Ġcreat ivity
Ġtask s
Ġbeha ved
Ġscru bbed
Ġth ird
Ġsw ept
Åĵ Hi
Ġru ining
Ġwid ened
ab el
rig ued
it ched
ĠJ on
Ġfl apping
Ġgrace fully
Ġneed les
Ġsn uck
Åĵ Wow
Ġsail boat
Ġcup cakes
Ġclown s
Ġl ower
Ġpout ed
M illy
e al
el ia
ind r
Ġlead ing
Ġsecond s
Ġyell s
Ġwra pping
L illy
y an
Ġbase ment
Ġstro ked
end y
Ġra indr
ĠSn ugg
Ġrust y
ĠS lowly
Ġfe ver
Ġcelebr ating
Sh h
Ġdrift ed
Bob o
Ġhe aring
Ġe ch
Ġcream y
Ġflutter ing
Q ue
ĠWith out
ĠS que
Ġswan s
ĠGood bye
d ed
an s
Ġdi ving
Ġsib lings
Que en
Ġbe am
Ġpeace fully
Ġde f
Ġsour ce
Ġbatter ies
ou ch
ang ing
Ġsprink led
at ur
ndp are
Ġscrat ches
Ġstom ped
Ġback wards
Ġcon cer
Ġpoin ty
Ġgrow ls
ĠOl ive
Ġmateri als
Ġc or
ĠE l
Ġwill ing
immer ing
ĠL arry
Ġhor iz
Ġobject s
Ġdeser ve
ĠSnugg les
Ġmushroom s
Ġornament s
Ġpupp ies
ĠG igi
Ġcudd ly
Ġhoriz on
Ġpass en
Ġsquare s
D an
oun ce
Ġscrew s
Ġart ist
ĠM ira
Ġgra bbing
c ers
Ġtemp er
ÅĵYou Ã¢
k y
Ġlo sing
Ġwa dd
Ġtipt oed
ĠS ophia
ish y
Ġwon Ã¢
Ġriver s
Ġare n
Ġfa ct
Ġch ip
A n
G reat
Ġh us
Ġgra ndpare
Ġgrass y
ig ning
Ġr ising
Ġraindr ops
Ġd arling
Ġdoll house
al ph
Ġsnow men
Ġtem pt
nt il
Ġdam age
ĠMick ey
Ġch op
Ġam ong
Ġplay ers
ĠR ock
Ġstud ents
Ġno ses
Ġbel oved
R u
ong r
c l
Ġr ip
Ġavo id
P at
Ġprom ises
Ġrep a
o ey
ie ce
Ġhid es
ke nd
ongr atul
d ri
Ġg ross
Ġtree house
Ġhead ing
rr rr
Ġast ron
Ġfe ars
Ġwee kend
H ave
m allow
ad es
arsh mallow
Ro ar
Ġon ions
ĠL ena
ĠFin n
Ġreward ed
Ġrepa ired
Ġst ool
Ġpan s
Ġhus band
Ġforgi ven
Ġ Queen
Ġl imes
Ġtr amp
Ġsa le
Ġspark s
Ġneighb ours
Ġastron aut
F or
o or
ĠB inky
ĠA bbie
ĠMike y
Ġslam med
Ġwind y
F in
Ġunpack ed
Ġme als
Ġforget s
Ġaff ord
- -
Ġa ud
Ġrec ipe
Ġsepar ated
Ġbo dies
Ġsp ikes
Ġdream t
Ġwrap s
Ġm er
Ġre ass
Ġun s
Ġtramp oline
Ġdad s
Ġac he
E w
w k
Ġimag ining
Ġpress es
Ġzebra s
Ġcent er
T r
Ġta pped
ĠZ ip
Ġwarn ings
Ġcre ations
a el
Ġm arshmallow
itt ed
ĠR emember
Ġfork s
Ġinclud ing
Ġto uc
Ġad ult
Ġprin ting
Ġmagic ian
ment s
Me ow
ĠSpark y
y es
B aby
u zzy
Ġpret t
Ġdecor ating
Ġwis hing
Ġheav ier
Ġtemper ature
n e
ich ael
Ġrust ling
B oo
Ġwr ink
in t
ch ild
Ġre fu
ĠEm my
Ġcorn ers
ab ly
Cl ara
Ġdoll ars
Ġsail ors
Ġhesit ant
ĠH oot
Ġcous in
W h
ĠE ls
it ion
Ġint rigued
Ġplan s
Ġdiscu ssed
O ops
W oof
p r
Ġsurround ings
Ġprett ier
Ġhop s
Ġaud ience
f all
Ġha wk
Ġst ain
Ġsl ices
ak er
Ġbow s
Ġwip ing
Ġenthus i
im on
Ġneat ly
Ġsnugg le
ck y
Ġar r
Ġag e
Ġsnow fl
Ġgas p
Ġfeed ing
Ġenthusi asm
Ġc oup
Ġpe cked
ĠJ ay
Ġtail s
Ġplan ning
Ġgrant ed
st y
un ched
op sy
Ġstreet s
Ġg ri
Ġblock ing
Ġdesign ed
ĠRo ver
K atie
P e
us ing
ll en
Ġhelp ers
Mar ia
Ġ1 0
ĠB ee
Ġrefle ction
B ill
Ġgo bbled
Ġsc amp
ĠAs h
Åĵ My
Ġcount s
Ġminer als
ar row
Ġslow er
ĠBlue y
Ġgrand child
Ġscrew dri
Ġhands ome
Ġborrow ed
Ġlean ing
Ġw oof
Ġtw ice
W hee
it ude
Ġd et
Ġe arn
Ġdo d
ĠD r
Ġdi ved
Ġtriang les
Ġch os
ĠP am
Ġtouc hes
Ġchos en
Ġre ason
Ġremember ing
ho g
Ġh our
Ġg e
Ġn ibb
Ġpe ppers
Ġthr own
Ġz ipping
ĠTh ose
ĠL aura
Ġshr inking
Ġpray ing
F o
Y ummy
Ġwo bbled
Ġpupp et
Ġh itting
Ġsp ong
ert ain
Ġcoup le
J ul
Ġco nd
Ġsunfl owers
Ġfe ast
us hing
Ġhero es
Ġrequest ed
j o
Ġn ine
ĠJ une
Ġstar fish
Ġtunn els
Ġfamil iar
ed s
ĠTo dd
Ġshop s
Ġcor re
ĠThank s
Ġrobb er
Ġlun gs
S urpr
Ġdan ces
Ġspread ing
ĠU ntil
T w
Ġwa g
ĠC ra
ott en
Ġforget ting
Ġspoon ful
Ġscrewdri ver
v il
Ġas ide
Ġdeliver ing
ĠFriend s
Ġgrandpare nts
id o
ĠM ilo
ast er
Ġgreet ed
Ġcolor ing
Ġbuzz ed
Ġbath s
Ġhope ful
Ġprep aring
on i
cc oon
Ġra ccoon
ĠN ick
Ġmus cle
Ġpot ion
ĠNo body
Ġsuperhero es
re y
ile y
Ġcurious ly
Ġbreat hed
Ġt iss
Ġr otten
Ġco c
Ġhedge hog
Ġmesmer ized
Ġpo ss
Ġembarra ss
B y
M iss
i ppy
ad os
Ġgarden er
oun ced
Ġsea w
Ġlift s
ĠSt ella
Ġd ie
ara c
ĠR yan
Ġsport s
D ucky
O ur
a e
Ġso fter
Ġbl ast
Ġd aring
ar mer
Ġle ast
Ġm erry
Ġcra shing
f ly
ĠS un
Ġvan illa
Ġthu d
ĠFro g
ĠS c
ent ly
ter s
ĠL isten
Ġbu lly
Ġsn eezing
Ġshap ed
Ġpl ain
Ġfl as
Ġstand s
Ġneckl aces
ĠRo bert
Ġpl ucked
fu s
ĠMart ha
Ġge ese
Ġspong e
Ġto dd
Ġn ur
Ġne are
Ġch anging
Ġsniff s
t he
Ġpol ar
Ġtest ed
Ġsew ing
Ġp ens
Ġsque ak
Ġwigg le
Ġguest s
Ġseaw eed
Ġtalk s
ĠF ire
Ġpu ff
Ġwhisp ers
Ġscra ped
Ġhon ked
Ġfirefight er
Ġon ward
ĠW endy
Ġgl ued
N emo
Ġpo ster
Ġnap kins
c used
Ġm unch
Ġwor n
Ġch arac
ĠE x
Ġfo cused
Ġrespect ed
Ġflav ors
im ent
Ġal ien
Åĵ Well
Ġwarm er
Ġcra ft
Ġthrough out
Ġpan icked
ĠAb i
Ġsuffer ing
ĠMay a
Bl ue
Ġjoin ing
Ġexp ress
Ġm oo
Ġfl ight
Åĵ Mom
ĠZ oey
Ġmarshmallow s
ĠSt ar
Ġavoc ados
Ġsk unk
Ġmatter s
Ġjoy ful
ĠO ur
ĠGr anny
ĠSque aky
ĠT ake
Ġg est
Ġresp ond
Ġdriver s
ĠBir thday
Ġr opes
Ġsp ins
Ġpop s
Ġbell s
ug s
ĠK iki
ĠOn ly
Ġrefre shing
Sad ly
Ġscamp ered
st ick
S u
b ird
u rious
all owed
Ġsw allowed
Ġmin ts
Tweet y
Ġo h
Ġsl ips
Ġstrong est
Ġlesson s
ĠSad ie
Ġwr igg
Ġgrow s
Ġincre ased
Ġthat Ã¢
Ġcre w
Qu ick
Ġdra wn
ret ty
Ġde fe
Ġencou rag
Ġleap t
V ery
Ġp ours
Ġo cc
ĠSt ay
Ġsend ing
Ġresist ed
pl ash
Ġfreed om
B r
Ġto ssed
Ġsc en
Ġro ars
Ġbit ing
ye ars
.. ."
ĠOw l
in o
Ġtr ot
Ġdan cers
Ġdraw ers
Ġca using
Ġlead s
B ack
Ġd ip
Ġpe ck
Ġwo bbly
Ġsp ices
Ġwater ing
Ġexpl o
ĠB essie
bb a
Ġperf ormed
Ġtwist y
Ġr out
ĠC he
Ġsw ords
ĠJack y
Ġdress er
Ġyield ed
Ġwadd led
Ġtiss ue
Ġgu ide
Ġuns ure
Ġn ood
Ġprop er
w hile
Ġste ady
Ġsp at
ect ion
Ġtwink led
le ts
Ġnervous ly
Ġtremb led
ir rel
Ġe vil
Ġdro pping
Ġgar b
Ġstack ed
Ġfiref ly
ĠJan ie
J erry
ĠL ove
Ġdoor way
Ru by
Ġgarb age
c ake
Ġwa kes
Ġp ound
Ġg ears
Ġsa n
ro ken
Ġam ount
Ġpro ve
Ġquarrel ing
ion a
Ġmon ths
Ġpen nies
Ġlift ing
Ġtoast er
b ut
ĠH oney
Ġsqu ishy
Ġtable s
Ġgigg les
Ġa imed
Ġplay time
Ġcl ues
Ġco sy
ĠZ ara
Ġwe pt
Ġappreci ation
ĠRo bbie
ĠJu dy
Ġech oed
p lease
on na
B et
v ant
Ġm ate
ĠB aa
Ġoff ic
ĠThat Ã¢
Ġfit s
Ġshark s
Ġfirm ly
Ġdesign s
ĠMe g
Ġbeha ving
Ġsan k
Ġf aded
Ġsa dd
Ġoy sters
m ates
u pt
Åĵ But
Ġgrand d
Ġpige ons
Ġload ing
Fr ank
K im
Ġp ins
Ġr ushing
Ġpol itely
Ġpost man
e el
Ġs y
Ġnot es
Ġsc ient
ĠW ally
Ġbra vest
Ġfle as
ĠFro sty
Ġscient ist
o dy
Ġpr ob
ĠL i
Åĵ Where
Ġduck ling
ÅĵI f
W atch
Ġman ag
Ġmast er
Ġprob ably
f ire
Ġsh ady
ĠFl opsy
l ves
ĠW ell
ĠF armer
Åĵ Now
Ġencourag ing
Ġplay room
Ġbl inking
ĠF ido
Ġcon fl
Ġsell er
Ġrever sed
Ġpassen gers
L isten
M ine
Ġrobot s
Ġfrown ing
Ġsurrender ed
Ġ 2
Ġg onna
Ġover come
eez es
L ike
an while
ant ha
bb ling
Ġt ies
Ġn uzz
pp ies
Ġthought s
D uring
b roken
Ġc ertain
c her
Ġc ongratul
Ġk ittens
ide y
Ġnear ly
Ġtri cycle
Ġheal ing
es pite
Ġsh own
ĠG reen
Ġhuman s
M ad
T ony
Ġbit s
rr r
Ġres ults
? !"
o ke
ay ing
ĠM ouse
Ġre un
Ġcobweb s
Ġin j
Ġcold er
n ow
me al
Ġpump kins
Ġbreat hing
ĠA ng
Ġsc ored
Ġfl own
Ġwater fall
Ġun w
ĠR ay
Ġtwist ing
Fo llow
Ġt uck
ĠT una
Ġsl ither
Ġcush ions
Ġbehavi or
en ing
Ġad ults
Ġwar ri
Ġtight er
allow een
Ġact ion
Ġpath s
ĠAl ong
E ven
d ress
Ġc oug
Åĵ Okay
Ġsqu eezing
Ġoat meal
Ġthorn s
d a
ĠH alloween
ry ing
Ġsweet est
Ġang els
Ġstream ers
ĠU nder
ĠAl i
Ġforgi ving
Ab igail
Ġcon vers
Ġdist ract
Ġgest ure
Ġnood les
Ġan ger
mand a
Ġpassport s
Ġdef in
c a
Ġu nd
step s
ast y
Ġblock ed
Ġdam aged
Ġmer ma
f ia
Ġn apping
Ġbus es
Ġperform ing
Ġrain y
Ġed ges
Ġc oral
Ġfrown s
Ġy um
Ġclean er
Ġband ages
Ġpuzz led
Ġaccompl ished
Ġf ant
Ġlay ing
Ġfoot steps
Ġcross ing
Ġsymbol s
Ġinstrum ents
ĠSqu irrel
Ġn i
Ġel f
Ġpay s
Al right
Ġt il
Ġremind ing
Ġwid er
M imi
Ġsn ort
Ġfin ishing
Ġheart broken
Ġqui eter
Ġtravel s
Ġtodd ler
Åĵ Please
Ġsail s
Ġign oring
Ġshovel s
Ġconn ected
T ed
Ġs ou
Ġpo ppies
Ġcott age
Ġsnowfl akes
f ound
Ġr ather
Ġrain s
Ġhair dress
Be ep
Ġcomm un
Ġgrandd aughter
âĤ¬ ,
Ġsmall est
Ġpack ages
Ġbat tle
Ġped aled
ĠAm elia
Ġdefin itely
Ġk ings
ĠE va
Ġrepe ating
Ġhe ight
Ġcho pped
Ġsuggest ion
Ġswe ep
Ġbrus hing
Ġwith in
Ġhand ing
ĠSp idey
Surpr ise
T ake
Ġa is
Ġso aking
Ġsl ipping
ĠU p
Ġappreci ated
c ent
id er
Ġsp ies
Ġtow ard
Ġhum ming
Ġtravell ing
Ġhairdress er
w he
on nie
Ġe ase
Ġse ver
ĠJack ie
ĠDave y
ĠQu ick
Ġreass ured
on ies
Ġcudd les
Ġcott on
Ġfant astic
Ġsever al
Ġt ipped
ĠI m
Ġbr u
Åĵ Of
Ġfill s
Ġtable t
St eve
Ġbrace lets
Ġcowb oy
Ġgen ie
Ġsniff ing
Ġsuff ered
ĠChr is
ĠB ecause
dd ie
Ġbel ts
Ġdr own
Ġcloud y
Ġpaint brush
Ġdisturb ing
Ġoffic ers
Ġt ying
ight ing
Ġfo cus
ĠAl though
Ġpunish ment
Ġrespons ib
Ex cited
per ate
Ġch anges
Ġbus iness
ĠPat ch
Ġlend ing
Ġb less
on se
ĠG ina
ĠK aren
Ġresp onse
Ġluck ily
Ġocc as
S ince
er k
Ġaf ar
Ġenc ount
Ġsurf ing
Ġcorre ctly
is ions
an ie
Ġst itches
Ġexplore r
ath y
Ġsur v
Ġwis ely
Ġrisk s
D avid
i bbit
ĠS imon
Ġy el
ĠM ichael
When ever
Ġban ged
ink le
Ġadd ress
Ġmagn if
Ġarr anged
Ġyel ped
Ġn asty
ĠM abel
Ġre app
ĠF uzzy
Ġeffort s
Ġconfl ict
J amie
iss a
Ġel bow
Ġcomfort ing
und red
H annah
Ġd ump
Ġfl ipped
Ġv ines
ad ing
Ġgood by
fl ies
Ġapolog ised
Ġsuit s
Ġloop s
Ann e
Ġvehic les
Ġlick ing
Ġinsp ired
Ġp onies
Ġkn ots
Ġfin al
Ġsto pping
Ġworry ing
Ġbelie ving
Ġmail ed
Ġgoodby es
i el
Ġs ill
Ġnew found
ail s
Ġple aded
a bby
Ġt ar
Åĵ Hey
so l
Ġfis hes
Ġpur r
Ġ X
Ġbra ver
Ġdes pite
erp iece
Ġcamp fire
Ġtrot ted
Ġd arl
ook y
Ġche ers
Ġspit s
Ġreun ited
Ġdarl ings
is c
Ġj ars
Ġpe as
Ġsurf board
iz a
Ġtast ing
Ġunderstand s
Ġdrive way
Ġgaz ing
ĠLou ise
ĠT ry
ri an
ec ca
dd ing
ĠPipp in
p en
Ġp uck
Ġwho se
Ġwo bble
ac les
Ġaw oke
Ġswe at
ĠMad die
Ġcustom ers
Ġnur ses
eel ing
V room
Ġ Okay
Ġli es
Ġdec isions
Ġmar ve
Good night
Ġpresent ed
Ġencourage ment
v room
Ġl ent
Ġm ood
Ġsa v
Ġst umble
ĠR alph
Ġcoll ap
Ġtar get
Ġco ach
Ġcon qu
Ġship s
Ġsimp ly
Ġcongratul ated
Ġme mb
Ġsurpr ising
ac le
Ġsmell ing
iv ia
Ġsupport ed
Ch loe
Ġseashell s
Ġmemb ers
G et
in ted
Ġbird house
ĠD ory
Ġant ic
Ġpri ck
Ġcrown s
i ens
Ġal iens
Ġstor ed
Ġcover ing
Ġpeel ed
Ġcalm ly
Ġdelay ed
Ġwe eds
Ġsp ed
Ġbasket s
M ira
Ġex cept
Ġart work
Ġbother ing
Ġspill s
Tr ue
Ġwrink led
Ġg ap
Ġcl erk
ĠE lly
Ġqu e
Ġwarm ly
Ġexam ining
Ġmast erpiece
e edy
o llen
Ġannoy ed
u el
Ġsh oo
Ġsw ollen
Ġun fortunately
Ġbelong ings
Ġscr am
Ġexerc ises
Ġdiscuss ing
w e
ss ss
Ġjo ins
em ma
Ġimag es
ĠMar ie
w orm
Ġb uddy
Ġstud ent
Ġwound s
B unny
m s
ĠF ighting
ĠBu bba
Ġsew ed
Ġtrouble s
Ġbury ing
Ġsque aked
atur day
ĠAsh ley
P enny
ĠS aturday
Ġsp y
ag ic
ĠL ia
Ġdon key
Ġaw are
ĠBir dy
Ġconcer t
e ven
l ine
r is
w ise
ri e
el ie
ĠR uth
Ġteacher s
Ġwhist les
Ġfigure s
atter ed
ĠFro ggy
R achel
Ġh undred
Ġd ep
lp h
Ġch illy
Ġfin s
Ġpurp ose
sc reen
Ġnibb led
Ġwarri or
c row
ri er
Ġla pt
Jo sh
ugg ing
Ġwindows ill
Ġtub es
ong o
Ġpo sit
Ġchocol ates
Ġguess ing
Ġmerma id
m ered
Ġwas ting
Ġr in
am my
Ġord ers
Ġdiamond s
Ġspeed ing
ĠSnow man
Ġexperien ced
f ather
ĠA ny
Ġex ch
Ġsqu aw
Ġterri fied
Ġspell s
ĠPipp a
Ġgri p
J ess
b ell
ri ck
A ny
ut ter
pp a
art led
ĠW elcome
Ġtre ated
Ġta pping
Ġjo ked
Ġtool box
Ġsol ving
P oppy
h il
Ġsun screen
ĠJo an
Ġra ces
Ġfire s
ĠDo g
Ġpri z
Ġmagaz ines
Ġadmir ation
Ġglitter ing
A m
ĠJane y
Ġni bble
r up
Ġno dding
Ġal though
ĠW il
ust y
Ġthan king
Ġforest s
Ġplant ing
Ġwhisper ing
Ġmateri al
Ġlapt op
m ies
r ily
or der
am ma
ĠO ther
Ġclass mates
Ġtire s
ĠRock y
Ġst all
Ġsp ooky
Ġsw ap
Ġunt ied
Ġexp ert
Ġstom p
Qu ack
Ġactiv ity
Ġrefu se
J oy
a ven
Ġdragon fly
Ġdisplay ed
Ġque ens
R osie
Ġm aker
Ġlo ses
Ġdis c
ĠBe cky
Ġinsist ing
Al ways
Le ave
A dam
ig hing
Ġsc ent
Ġtw eet
ip es
Ġfox es
Ġgoat s
Ġgrand son
Ġbackpack s
Ġopp os
ĠEx cited
Ġsy rup
J essie
K e
ĠA lly
ild a
Ġexplain s
Ġscur rying
Ġscram bled
Ġb ou
Ġb itten
Ġd ot
Ġdec l
Åĵ See
ĠK aty
Ġwigg ly
Ġbeam ing
Ġforgiven ess
Ġbou qu
Ġh oo
Åĵ The
Ġcon vin
Ġju d
Ġlab els
Ġstern ly
Ġoppos ite
Åĵ Sure
Ġdis o
Ġlo c
um ent
ĠD espite
Ġtr ans
Ġdoor bell
Ġhunt ers
ĠFred die
C ar
ĠS plash
Ġre ly
Ġfl ips
Ġneare st
w hat
re st
Ġr ays
Ġbright est
ĠR ain
Ġscare crow
Ġstro ke
ĠTess a
Ġrespond ed
Ġencount ered
D ear
o lph
s m
ort unately
Th omas
Ġtid ied
Ġweal th
Ġdiscover ies
ud olph
Ġpupil s
ain t
Ġte les
Ġghost s
Ġaeropl anes
Ġemer ged
isc uit
Ġteles cope
ĠM ina
Ġlow ered
ĠPat ty
Ġpand as
Tw o
id ence
ĠD uck
Ġpray ers
illi am
g ain
ĠB ounce
ĠF iona
Ġpe ep
Ġtest ing
Me anwhile
Ġattack ed
Ġty pe
y l
Ġt ing
Ġperm itted
Ġvi br
Ġmate y
Ġantic ip
Ġtrans f
Ġg er
Ġunt ie
ĠSp eedy
Ġve gg
Ġser vant
Ġtwist s
Ġquar re
Ġcharac ters
Ġcle ared
Ġvisit ors
St ay
C laire
Ġ icing
Ġwh imp
Ġbreath s
Ġmeow ing
M at
Ġshe ets
ĠB ow
Ġch arge
Ġswe aty
Ġcrawl s
Ġbeep ed
Ġa im
at s
an cy
Ġastronaut s
and a
ort un
Ġspr out
Ġturt les
ĠPe pper
ĠH old
Ġgirl Ã¢
Ġyoung est
Ġscrat ching
Ġopp ortun
m unk
ĠS k
ĠS w
Ġsh all
ĠA manda
Ġend s
ĠEll e
Ġhon king
ĠSt an
Ġtap ed
Ġincre asing
Ġcoc oon
ing er
oo king
ĠJo jo
ĠZ oomy
Tweet ie
Ġsh immering
Ġbee h
Ġmill ion
Ġnuzz led
Ġconvers ation
Ġt umbled
Ġfa iled
Ġfloor s
Ġenv iron
Ġrat s
Ġstat ues
Ġfilm s
ab ra
Ġpur rs
Un cle
Ġenviron ment
ĠK elly
Ġunw ra
Ġtil ted
Ġzoom s
Ġtidy ing
ud ged
Ġcryst als
ĠMe gan
Ġchip munk
Ġto ss
ĠB ongo
ĠSo fia
Ġmis chie
ĠRob o
Ġmanag er
Ġanticip ation
Ġmischie vous
B ang
y ler
Ġfor ce
ĠA na
Ġbeauti fully
Ġdress ing
Ġrot ting
oo sh
ig ger
Ġr umbling
Ġbe ating
ĠYou Ã¢
Ġgr at
os cope
Ġresc uing
ĠMad dy
J e
em pt
ct ric
Ġdan gers
Ġvisit s
ĠFl o
Ġpicnic s
Ġremind s
Ġgrand father
Ġseagull s
Ġcustom er
C indy
l o
Ġbe a
Ġman ners
Ġatt empt
Ġdes igning
Ġoffer ing
Ġsway ing
Ġrobb ers
l ied
il ities
Ġfor m
ĠE ddie
ott e
Ġjob s
arl otte
Ġcheck out
Ġhoop s
Ġmosquito es
Ġdecl ared
Ġst eth
Ġprevent ed
Jul ie
Ġdrown ed
Ġgrat itude
b it
h ind
Ġs ens
Ġr owed
rom ise
Ġsw itched
Ġdecor ation
Ġobey ed
Ġflap s
Ġdod ged
Ġsurv ive
Ġvegg ies
B uzz
a ct
b elle
p it
Ġmove ments
Ġquestion ed
Ġcell s
Ġann ounced
Ġais le
B eth
B uddy
itt ered
Ġbl ond
Ġinst antly
Ġknock ing
Ġsway ed
ĠQuack ers
O ut
ĠH olly
Ġgood ies
ath an
Ġpart ed
ord inary
Ġotter s
Ġsteth oscope
u lp
Ġsc ulp
ĠSam antha
ĠR udolph
Ġrec order
Ġarg ument
Ġcowb oys
Ġresponsib ility
Ġcl icked
Ġbad ger
Ġcon s
Ġde ars
Ġcra cks
Ġele ctric
Ġshr unk
Ġlip stick
Ġsteer ing
F riend
f ive
ĠT aking
Ġin ches
Ġse als
Ġcare s
Ġdiso bey
B oys
T illy
an ced
Ġsm ashed
Ġfl ip
air y
Ġexplo ded
Ġrout ine
K aren
Ġt in
Ġdri pping
Ġact ive
Ġaw ful
ĠRe ady
or ter
Åĵ Who
Ġadd s
Ġmod els
umm ies
Ġbouqu et
l t
Ġsm elt
Ġmind s
Ġsel f
Ġpadd ling
ĠAunt ie
A bby
R ed
in nie
ĠH ope
Ġsupp lied
Ġchat ter
ĠKe vin
le phant
Ġslow ed
Ġcup cake
Ġbat hing
Ġrob in
ipp ers
ĠAng el
r ink
at ive
Ġsn ug
Ġde ed
Ġfarm ers
Ġbother ed
Fr eddy
Some one
Ġflas hing
Ġhe n
Ġbl own
Ġche cks
Ġextra ordinary
Ġappl ause
Ġsnap s
E ach
Ġh ike
or ation
ll as
Ġfl ashed
Mom ma
Åĵ Maybe
Åĵ Good
Ġgl immering
Ġstret ches
L ena
Ġm unched
Ġk illed
ĠD ino
Ġwater s
Ġset s
Ġnest s
Ġumbre llas
Ġshort s
Ġparticular ly
Ġhe aven
st orm
Ġgro an
Ġcond uct
Ġconvin ced
ot ch
ĠHe len
Ġsh ines
Ġtw enty
Ġpet ting
fl owers
Ġunpack ing
Ġobser ving
Ġcollap sed
Ġsculp ture
C o
ĠT ime
Ġr amp
Ġhard est
ĠP oor
Ġblue bird
Ġtrust ing
Ġinch worm
Ġopin ions
M art
Ġsh in
Ġgener osity
Ġtest s
Ġearn ed
P l
ĠS ay
Ġso ot
Ġwind ing
Ġboun ces
eb ecca
Ġdisappoin t
Ġg all
le st
Ġpo ses
Ġforg ives
Ġswim mer
Ġvisit or
Ġstamp ed
Ġconf idence
Ġcontain er
Ġexpect ing
C he
v y
er ing
Ġg oo
Ġlo cks
Ġsqu ished
Ġmem ber
ĠSnow ball
ĠEls ie
Ġconduct or
w ater
Ġwhat Ã¢
ĠL ion
ook s
Ġtr igger
Let Ã¢
ĠG l
ĠR os
ĠFin ny
Ġapplaud ing
Ġfloat s
P apa
Ġkn ives
Ġbuck led
Ġexperien ces
N ice
el vet
ĠP en
Ġclos ing
Ġcour t
Ġwhis k
Ġdestro ying
Ġprick ly
Ġger ms
Ġbeeh ive
A rrr
r ough
Ġt ummies
it a
Ġmom Ã¢
ch y
Ġbo nd
Ġcar ries
Ġdry er
ĠTr ust
Ġinstrum ent
Ġsadd er
G ina
H oney
Ġ ill
Ġwa ded
âĤ¬ Â
B ear
y le
Åĵ Be
ang le
Ġtick ling
Ġteam s
Ġhunt ing
ĠCra bby
Ġmunch ing
K ids
ĠB rian
Ġtr aded
Ġover head
ĠG ary
Ġnight s
Ġscr ub
Ġlangu ages
ĠIs n
pr il
Ġt ips
Ġin ter
Ġwho ever
udd les
ĠC la
be e
ĠSp ring
Ġwis er
Ġcomb ed
âĤ¬Â ¦
Ġs igning
ĠS weet
ĠI zzy
ĠJ ax
Ġstr um
Yes terday
ac y
Ġscoot ers
Ġcub s
Ġsiren s
ĠEls a
id night
au la
ĠP o
Ġspray s
Ġscold s
Ġbur nt
ĠJe an
cent r
O l
ĠJ illy
Åĵ Ok
Ġte aring
Ġreal izes
Ġcon centr
Ġsing ers
Ġcomp an
Ġenvel opes
Ġuniform s
l ers
Ġk et
Ġgarden s
ac ock
Ġcr ops
ident s
ĠZ ee
ĠZ ero
ĠPe ppa
Ġchat ted
ĠFrank ie
at ors
an ces
ad abra
bo ards
ĠDon Ã¢
ĠOl ivia
rrrr rrrr
Ġposs ess
T oo
end ed
Ġtre as
ĠMom ma
Ġclear ly
Ġquack ing
A unt
o c
y d
Ġk it
ara ble
ash a
ĠFl ora
ho le
Ġwild flowers
ĠSt itch
Ġpeep ed
er g
Ġha ven
Ġpl ugged
st r
ly n
Ġch in
ap tain
cc idents
Ġconqu ered
J acob
c ar
c adabra
Ġh ood
ĠB ad
ĠA nt
ĠC le
Ġche at
Ġsure ly
Ġpap a
ball s
Ġrelax ing
Ġcheck ing
Ġnewspap ers
Ġb ound
or king
Ġfl ick
ĠF el
ĠC urious
Ġhot ter
ĠSt ri
Ġmic row
Ġcheap er
Ġexpress ion
ĠIm mediately
Ġpriz es
e aring
Ġplay d
ĠB ang
ĠW o
Ġfo nd
Ġpass es
Ġreturn ing
Ġbicy cles
Ġnovel s
Ġdet ails
Br own
S now
Ġb orn
Ġo dd
Ġmom ma
Ġsh orter
ĠA va
Ġflow ing
Ġra ising
Ġmess es
Ġcir c
ĠV room
Ġpupp ets
Ġoutfit s
ĠJon ny
elie ve
L iz
R ob
h ny
v ince
Ġfl ock
Ġexpl oration
Ġche ated
Ġgl ided
ĠP hil
Ġcon vince
Ġpro d
Ġsque aky
Ġswirl s
Ġhealth ier
ĠLi am
ĠS mo
Ġmom mies
ĠM ae
ic ate
Ġgr umbled
Ġgu lp
Ġcheer fully
Ġaw hile
Ġprov iding
Ġmeow s
Ġdefe ated
C at
ou raged
ĠN ever
ĠN ana
Ġhang ers
ĠSpark le
Ġannoy ing
Ġbea ver
Ġn atur
ĠB ess
ĠJ ason
sh ip
Ġneck s
Ġburn s
Ġunl o
Ġtreas ured
Ġmicrow ave
Ġf aint
Ġhonest y
Ġexplain ing
Ġvibr ant
Ġcompan ion
J on
s ers
Ġdo z
Ġj ugg
Ġlong est
ĠP ick
ĠK ay
Ġmel ody
ĠWho ever
ĠTw inkle
ĠAm ber
i ving
Ġin vent
Ġsc ri
Ġbr ide
Ġpe acock
Ġsound ly
Ġpract ised
Ġsoap y
ĠDan iel
Ġdeser ved
Ġfa ith
Ġab ility
ĠP ing
Ġcount ries
Ġimag inary
Ġcur l
Ġmeat balls
v al
ĠB oun
un o
Ġro ast
Ġdoll ar
Ġsmo king
Ġstrip s
Ġwrigg led
whe l
Ġreapp eared
f ree
o ff
Ġwas hes
el ope
get ic
Ġsw allow
ĠRo ger
ĠRu fus
Ġgall op
b u
Ġth ump
Ġbe ast
ro ll
Ġover whel
Ġgl ittered
ĠP in
ĠPe ggy
Ġtrave ling
ĠPr ince
Ġcomm on
om b
Ġha bit
Ġpl ug
ad ually
ĠW illiam
Ġbec omes
Ġmatter ed
Ġcrocod iles
io let
asm ine
Ġloc al
b elt
o ard
Ġ ouch
ĠM other
and ra
Ġen em
Ġcaterpill ars
Ġpress ing
Ġexper iment
Ġbur ger
Ġsprink le
Ġenem ies
Z oom
b l
Ġsomet ime
Ġclean s
Ġeng ines
Ch oo
Ġweap ons
ĠV elvet
B u
P ut
Ġ 5
ow ing
Ġhis s
Ġup side
Ġab oard
Ġmo at
Ġfascin ating
Ġbehavi our
are t
Ġspr ang
Ġca w
Ġnatur al
O llie
Ġst ur
ĠB oo
end ing
ĠA r
ĠL a
Ġun able
Ġsand y
ĠSt ep
Ġchat ting
ĠT iger
Ġth ie
be ep
ĠP retty
Ġca fe
e my
ĠT erry
ĠT yler
if t
Ġch ill
Ġbu bbly
sh adow
Ġseat belt
Ġmir acle
ĠMon key
Ġopportun ity
K ayla
N ever
Ġsh attered
Ġex amp
ven ir
Ġsk ies
Ġshr ug
Ġser ving
ĠZ ack
ĠSee ing
Ġdistract ed
Ġsou venir
F eeling
Ġb omb
Ġback s
ĠW oo
Ġte ap
Ġshr ank
In stead
Ġfreez ing
Ġ icky
Ġfor ts
Ġwh ined
ĠM idnight
ĠE lephant
Ġsal on
Ġhum med
Ġtent acles
Ġsince re
ĠEl iza
ĠHoot ie
Ġa ctor
ou ched
ĠB onnie
Ġcl ut
sh aped
Ġmind ed
Ro bbie
' ,
o ver
Ġdo ck
Ġsqu inted
ĠPat rick
Ġweigh s
Ġthie ves
c ie
Ġbu nd
ĠN e
ĠCh arlotte
Ġple as
Ġaunt ie
Ġmug s
ĠRu dy
Ġcal mer
Ġdisc ouraged
Ġexamp le
Ġteap ot
M on
j est
ĠA ccidents
if i
Ġen emy
Ġsand pit
Ġpin ching
Ġinse p
Ġcrowd ed
Ġy umm
Ġun co
igg ie
Ġchew s
Wh iskers
Ġoccas ion
Ġs ipped
ĠN ice
Ġsnow y
Mad dy
Ġinsep arable
Ġ Yum
Ġl ump
Ġsh allow
Ġre wards
Ġanswer ing
ĠSt ill
Ġthick er
Ġdemand ing
Bet ty
p o
Ġb iscuit
ĠShe lly
Ġhis ses
ĠM an
Ġj ets
ĠE ric
Ġfin ishes
Ġgrass ho
Ġcream s
Ġcoo lest
Ġgasp s
L ulu
Ġl im
st and
ĠM ake
Ġenjoy able
ĠR avi
ugg y
Ġrepair man
Ġappro ach
Ġcoug hed
a i
in ts
ot o
ĠBut ter
Ġsl apping
Ġdoor step
Ġfire flies
ĠDo es
Ġsmart est
Ġsuccess fully
ib ly
Ġnightmare s
Ah oy
Ġty pes
ĠMel issa
Any time
it s
Ġfor med
Ġcan v
Ġpat ches
Ġemb ra
Ġstuff ing
Ġzip s
Ġbeet les
Ġscatter ing
Ġswimsuit s
Ġposit ive
Ke ep
Ġjud ges
B ig
m el
ĠS leep
am il
Ġbird y
Ġmark ing
ĠO ink
Ġstorm s
ĠCh ick
Ġtun es
Ġang rily
fa ction
Ġer ase
Ġcompl iment
ĠSh ow
Ġhaircut s
Ġsatis faction
G r
Z oe
o ss
at ty
Ġnot icing
ĠL uc
Ġgood ness
Ġsweet er
Ġhesit ation
Ġunf amil
Su zy
Brown ie
Ġunfamil iar
Ġp ipes
Ġcr is
Ġmyster ies
Ġbur gers
Ġsweat ers
Ġexch ange
H old
H mm
Ġr ips
ĠW igg
ĠD e
Ġbu bbling
Ġcho pping
Ġatt itude
sc otch
Ġcro aked
ĠLiz a
amb oo
Ġinj ured
R alph
b ur
Ġ Oh
ĠS e
Ġwo lves
Ġlea king
Ġcomp ete
Ġhor ri
Ġpant ry
ĠMat ilda
Ġslither ed
Ġsnort ed
Ġcanv as
L izzie
r upt
Ġf ade
Ġl ar
Ġr ack
ic ious
Ġsc ow
Ġsn eezes
Åĵ Yay
Ġstore s
Ġprotect ion
Ġdig s
Ġspill ing
May a
Ġl ull
ĠM agic
Ġcl ue
ĠBe hind
w are
Ġto t
ĠM aisy
ĠC ara
ĠC aptain
ĠR ight
ren ch
Ġpill s
Ġener getic
Ġrow s
Ġblond e
B oth
g r
i al
Ġwe ighing
ch up
Ġwater mel
Ġsho el
Ġapolog y
ĠSpark les
Ġcond ition
Su zie
Je ff
Ġgrassho pper
ĠS l
ĠA gain
Ġshr ugs
Ġguard ing
Ġyawn ing
Ġmagnif ying
Ġgroan ed
Ġstur dy
H E
O pen
Ġd ing
im mered
Ġrun ner
sc ar
Ġbru ises
F ro
b ank
p s
Ġn apped
ic iest
ĠF airy
ĠGra nd
Ġspe ars
Ġbend s
sol ut
P retty
ĠB arry
Ġall ey
Ġtop s
Ġinv ites
Ġmeadow s
Ġintellig ence
Ġer upt
Ġf ist
ĠT ammy
ĠL ooking
ĠD ra
Ġunder water
Ġland ing
Ġkey hole
Ġscare s
Ġreward ing
Ġpops ic
Ġscen ery
Ġoverwhel med
Ġd ou
ir ing
am ing
ĠB ra
ĠL ina
ant ed
ĠC D
Ġjoy fully
Ġwelc oming
Ġmoon light
ĠPe ep
Ġtexture s
ĠBo bbie
Ġconn ect
ĠPl aying
Ġtempt ed
Ġcommun icate
Ġdisappoint ment
Ġket chup
ĠBoun cy
k a
ing ing
Ġall erg
Ġbl ushed
Ġsty les
Ġchoo sing
D eal
Ġhe els
ot ion
ĠB ert
end ant
Ġwh ales
ra cadabra
Ġbo ld
Ġmo ons
ĠC r
Ġshare s
Ġsqu eezes
Ġpizz as
Ġtrap s
Ġmill er
Bet sy
Ġelectric ity
ĠCla us
! '.
Ġb as
Ġd a
Ġd art
an i
Ġr ipp
Ġtal ents
Ġtooth brush
Ġbin oc
ĠCar la
S usan
Ġb amboo
it er
Ġle vel
Ġint ently
Ġde v
Ġam used
ĠO f
Ġtor to
Ġairpl anes
H urry
Ġre bu
Ġwor st
ĠL enny
Ġch arm
Ġche ating
ĠG us
Ġmon th
Ġcur re
Ġspring time
Ġsupport ing
M oo
Ġar rest
Ġfun n
ĠW in
Ġpr ank
ĠD eal
Ġqu ilt
Ġba a
Ġsho ots
uct ion
Ġglitter y
Ġpedal ing
Ġunf air
T ara
ĠS ince
Ġfo am
ul ars
ere my
Ġcam el
Ġcop s
ĠCar ol
Ġast on
Ġcertain ly
Ġwhimp ered
j ack
u ess
Ġt ugging
ĠS uper
ĠR icky
sp e
Ġben ches
Ġmed als
ĠSt artled
Ġtim id
Ġplayd ate
Ġbinoc ulars
Ġtorto ise
B o
L izzy
nd ed
ig e
ct s
Ġun less
Ġhop scotch
ĠR ebecca
Ġcher ish
ÅĵWe Ã¢
Ġsitu ations
Mike y
Ġtempt ation
ĠQuick ly
Ġmarve led
Ġtransf ormed
ĠT oto
ĠA pril
Ġsp are
hing s
Ġle vers
gg les
Ġcomput ers
ĠAn other
Ġstroll ed
Mat t
Ġcons ider
Ġcris p
Ġd ashed
Ġste w
ĠJen n
A choo
P r
Ã ĥ
Ġ 4
ed ic
Ġp ounced
ĠT ears
ĠS ir
ĠS asha
ro b
Ġbl ade
Ġma jest
Ġdifferent ly
Ġsleep s
Ġtrust y
Ġcourage ous
Ġthumb s
Ġfet ched
Ġscen e
H op
Ġs ection
all ed
Ġbo il
Ġbo iling
Ġlook out
Åĵ How
Ġown s
Ġwarm ed
orm ation
Ġwigg ling
ais ie
Ġinj u
C urious
l or
u dy
Ġa rom
is dom
ch ief
Ġbl ades
Ġra king
Ġcr ouched
Ġste pping
Ġriver bank
Ġpres chool
St ill
Ġgroup s
Ġtick les
Ġluck iest
Ġbulb s
Ġwatermel on
M abel
ĠW ait
ĠE d
Ġmo ld
Ġsn apping
Ġob st
Ġtrust s
Ġteam work
Ġcudd ling
Ġpil ots
Ġlean s
Ġpepper oni
ĠSh are
Ġdisag re
Ch irp
ĠV ery
Not hing
Jul ia
solut ely
L ia
f illed
s ie
Ġn ic
Ġsa cks
ĠI ce
Ġgo ggles
Ġpo pping
Ġmagic ally
ĠO uch
ĠBird ie
Ġdefe at
Ġunwra pped
Ġcirc led
L ou
j ust
Ġto pp
Ġc ages
ĠM oon
Ġre cess
ĠL ight
Ġpo kes
uff in
Ġmust ered
Ġmind ful
Ġmel ons
Ġrail s
Ġkneel ing
Ġstructure s
Ġnic est
P ip
r um
Ġp ouch
ĠT re
ĠH o
Ġplay house
Ġwe Ã¢
ĠN ora
cy cles
ĠCh oo
Ġshy ly
Ġcoo perate
Ġthunder storm
Ġglo be
Excited ly
ĠHe llo
Ġy elp
our ed
sh irt
ĠOl iver
L inda
w ell
ĠM ath
Ġcl aw
Ġla sers
ĠP et
ĠP ink
Ġsweet ly
Ġalong side
ĠLe ah
ĠBe ep
ĠBr uno
Ġcrack er
Ġkangaroo s
Wh ich
Ġhundred s
Ġlull aby
F ire
b arrow
u se
re g
Ġl ush
il i
on ut
et ah
Ġsw apped
Ġche etah
Ġru ff
ĠAfter wards
Ġact s
Ġwheel barrow
Ġcher ished
Ġda ily
D anger
c at
h ow
u nder
Ġwh ipped
ĠM a
Ġho llow
Ġthr ill
Ġmean ing
col ored
Ġimpro ving
Ġlumber jack
Ġallow ance
Ġcoc onut
B aa
ar on
Ġwh oosh
ĠF ifi
Ġta le
ĠAnna belle
Åĵ Thanks
Ġfish y
Ġbow ing
Every thing
Ġnet s
Ġbump ing
Ġrubb ish
Ġseas ons
Ġcous ins
rey a
Ġcraft s
ĠWo lf
Ġallerg ic
Ġrebu ild
l ish
Ġt ant
Ġg room
ĠA lf
are fully
Ġball er
ump er
ĠN ancy
ĠR ich
Ġsoft ened
ĠExcited ly
w en
ver ing
Ġbo ards
ĠW as
ĠW illy
us hes
Ġbra ins
Ġcomp ared
Every day
Ġloyal ty
ĠPat ches
Pe ople
B ee
in ny
Ġhe Ã¢
Ġg ummy
Ġwh ir
ĠL u
as hes
Åĵ A
Ġfore shadow
Ġmess ages
Ġhat ched
Ġcool ed
Ġgu ards
og a
Ġfrustr ation
Ġspeak s
Ġrow ing
Ġrepeat s
Al though
ĠMon a
Ġembarrass ing
Ġaston ished
Ġtant rum
" !
M ilo
T HE
ĠM amma
us p
bb i
ĠJo dy
Ġgl isten
Jack ie
Ġdeep ly
Ġliz ards
Ġhar vest
Ġcoug hing
Ġcurre nt
Ġarom a
Ġwh ine
Ġpe cks
ĠJo anna
Ġloud est
ĠG ray
Ġbus hy
Ġmotor cycles
Ġdoesn Ã¢
Ġbang ing
ĠT e
Ġso da
Ġwh irl
Ġcl ip
ĠW oof
ag ine
ĠL ife
ast e
Ġcontin uing
Ġcricket s
ĠBun Bun
Ġallow ing
Ġrin se
Ġdoz ed
J an
ĠH urry
get s
Ġla va
Ġcre ak
Ġlife gu
izz a
Ġmay or
Ġstro kes
Ġinvit ations
Jen na
Ġhonk s
Ab racadabra
Ġconcer ned
Ġpound s
Ġdisagre ement
Ġr iddle
ce ll
ĠJ asmine
ĠL ots
Jack y
Ġdisapp earing
Ġdry ing
Ġ' '
Ġachieve ment
Ġsled s
Ġflas hes
Ġlar ger
k er
an tern
st antly
Ġpe ak
oth y
Ġbat s
Ġpoison ous
Dave y
Ġproper ty
N ick
g ar
t hat
Ġh udd
Ġg ates
on ed
Ġso bbing
Ġdo lly
Ġho ses
Ġsk irts
ĠWe Ã¢
ĠP aula
ĠAll ie
Ġlunch time
Ġdes per
Ġrever sing
Ġcaut ion
Ġfact s
Jess ica
Out side
Ġballer ina
u ppy
Ġwa king
Ġl il
ĠH ar
Ġst un
Ġpl o
Ġhis sing
Ġan k
ĠE ver
Åĵ Welcome
Ġsoon er
ĠG ret
Ġmess ed
ĠSt even
Ġincred ibly
Ġcost s
keep ers
F ortunately
S lowly
T ry
Ġs usp
ĠB elle
Ġsh ave
ight y
ĠTom orrow
Ġle ver
Ġbu d
ĠP er
Ġwra pper
Ġscoop s
Ġinter rupt
Ġpleas ant
Ġn arrow
ĠD uring
Ġsk ate
Ġmind ing
Ġfoot pr
Ġchallen ges
ĠOut side
Ġquarre led
Ġsoot hing
ĠRos a
ĠWoo ly
, '
m ark
ĠS al
on est
ic ally
Ġbl ur
Ġab solutely
ĠDo ctor
Ġtown spe
Do es
Ġspoil ing
Ġpur ring
ĠFo xy
Ġreveal ing
Ġposs ib
Ġhoo ves
ĠPen elope
Ġtownspe ople
L uke
ĠS itting
ĠF ly
th is
Ġwr iter
Ġflo ppy
Ġpro cess
Ġbloom s
Ġdesk s
Ġrepair ing
Ġknob s
Ġtrail er
Ġnibb ling
Ġmoo ed
Ġdep art
Snow y
um ed
Ġpark s
ell ing
ap s
ĠJo se
Åĵ There
ĠR atty
ĠWhat Ã¢
Sp ike
Ġharm ony
Ġwhisk ers
M o
Ġfa cing
ĠJo Jo
ĠR iley
Ġinst in
ĠThank fully
Ġadm it
Ġang rier
Ġpersist ence
Ġimagination s
Ġrecommend ation
Ġisn Ã¢
Ġattempt s
Mart ha
ĠFel ix
ĠPin chy
g ood
p an
r ons
Ġd ate
Ġn ations
Ġne cess
ra p
Ġold est
and el
Åĵ OK
Ġhead ache
Ġap rons
Re my
Ġhook s
Ġcomet s
Ġund one
R a
S unny
ri ce
ĠB uggy
Ġal oud
Ġsw at
ĠC ould
Ġcut est
Ġste ered
Ġsquir ted
Ġju iciest
Ġstir s
Ġcop ied
Ġcent re
Ġmesmer ised
Ġsens ation
Ġglisten ing
M other
M ichael
g ress
Ġw ig
Ġr oo
ĠB a
ĠM ine
Ġother wise
Ġfl uff
Ġtr ading
Ġsn oring
Ġ- -
Ġbell ies
Ġserious ly
Ġchar ged
Ġallig ators
Ġflood ed
ik y
Ġstain s
Mad die
Ġlil ies
Ġst alk
On ly
ark y
Ġro amed
Ġmove ment
Ġbuild er
Ġlast ed
Ġcoo ed
ĠZ iggy
Ġtick ing
Ġcontent ed
Ġmap s
Ġgrand k
ud rey
ĠSmo ke
Ġshoel aces
L una
T ess
ĠT ree
ur ity
Ġla ces
Ġop t
em on
ĠC ook
Ġdis aster
Ġba it
ul a
Ġwin ners
Ġdes perate
Ġweak er
Ġfool ed
Ġclub s
ĠAl bert
Ġspeak er
ĠYes terday
ĠSun shine
J ump
Ġc uc
ĠB ooks
Ġex h
Ġch amp
ĠJack Ã¢
ber ry
Ġwind s
Ġreal ise
imb o
Ġwood cut
Ġpil ed
ĠPe anut
Ġkay aking
Ġcal ming
Ġheav ily
Sad ie
Ġpassen ger
ĠWil bur
b ook
c ri
t led
Ġt ill
Ġd edic
Ġm ashed
ll ing
ĠM oo
Ġsp iky
Ġho vering
Åĵ Are
Ġrock y
Ġcup boards
Ġdifferen ces
ĠJon athan
ĠChick ie
Ġlifegu ard
o ors
Ġc ig
an ish
Ġj ing
Ġro be
Ġro ds
Ġgl anced
Ġreal izing
Ġfight s
ĠO ff
ĠCh uck
Ġind oors
Ġham ster
Ġfu ss
Ġsneak s
Ġech o
Ġneare r
Ġhudd led
T iny
h h
h and
r ings
Ġf ul
er ts
om p
Ġbl oss
Ġho ot
Ġen ch
ĠC athy
ĠN ell
Ġcart on
Ġsmooth ly
Ġhang s
Ġscr unched
Ġguard ian
Ch ris
Ġflav our
Ġank le
ĠS ky
Ġst ings
ĠB er
el ine
Ġdog gie
Ġcre ep
Ġdess erts
Ġvolcano es
Ġvine gar
Ġquack s
Ġtempt ing
Ġmagnif ic
Ġplo pped
Ġcig aret
m ie
ĠC andy
Ġrest oring
Ġgrate fully
Ġtown s
ĠO ver
ian a
ĠBr uce
ĠV iolet
Ġsilent ly
Ġcharac ter
Ġpeck ing
Ġdisobey ed
Ġdesper ately
? !
A w
p ect
Ġt iring
ĠH ank
se ed
ĠM ila
ĠM uffin
Ġsc re
Ġbird seed
Ġtr im
Ġhand y
ace y
Ġkind er
ĠC olin
Åĵ Would
Ġcon fus
ĠG abby
Ġwarm est
ĠO scar
Ġzoo keepers
Ġocean s
Ġhipp os
Ġsque al
Is n
Ġstroll er
ssss ssss
ĠOther wise
Ġyumm iest
Ġnecess ary
Ġconfus ion
D olly
b ed
Ġs inking
Ġp urch
se y
Ġman Ã¢
Ġho st
Ġover fl
Ġfo ggy
Ġwo ken
Ġbat hed
Ġkiss ing
Ġlaw s
Ġperform ers
Ġorder ing
Ġbeep ing
Ġsle igh
Ġvest s
Ġmusician s
Ġvalley s
Ġrin sed
Pl aying
Ġgrandk ids
M ick
S ophia
m ers
in ner
ĠJ elly
Ġcl uck
if er
ust er
ĠP iggy
Ġcomp romise
Ġcloth s
Ġesc ap
Ġcap ture
Ġener g
ĠWh ich
Ġrot ted
Ġautomob iles
ĠPl ay
Ġinstin cts
Ġexh ib
S imon
Ġh ips
ck er
Ġcar n
ĠD ay
Ġpo se
ĠF ish
Ġpe els
Ġgl ared
ĠG inger
Ġsec urity
Ġear rings
Ġfold s
Ġfloat y
Ġscru bbing
Ġdep ths
yl an
Ġmagnific ent
M ina
Ġf ries
Ġbl amed
ĠD ot
Ġgr ump
ĠC hew
Ġeld ers
Ġbeak s
Ġregular ly
Ġunlock ing
Ġchallen ged
Al ong
ĠMart in
Ġshin ier
ĠF reya
Ġgreat est
ĠN ate
Ġsoft ness
Ġant en
Ġpeaceful ness
Ġhadn Ã¢
Ġappear ance
Ġgulp ed
Ġfootpr ints
Ġpossib ilities
Ġwoodcut ter
Â ©
Ġthe at
ĠT ra
Ġn udged
ĠH i
Ġdo ves
ap er
Ġra cer
os ure
Ġenc l
Ġdust ed
Ġstack ing
Ġchain s
Ġpeek s
ĠSk ip
Co co
ĠHo pper
B less
O oh
r it
Ġw rench
ĠS andra
el ve
Ġbo iled
Ġar my
Ġke en
ĠAnd rew
Ġhun ger
ĠK en
Ġpres ence
To dd
Ġpri v
Ġsniff led
Ġshort cut
J azz
g re
Ġf if
Ġsc ut
Ġfa il
It Ã¢
ĠR usty
Ġdr ill
ĠSt e
Ġhandle b
cream s
Ġpra ise
With out
Ġrisk y
Ġchoo ses
Ġgoo ey
ĠCle an
Ġgallop ed
Ġcarn ival
J anie
L ucky
f orm
ĠT ell
ĠT hings
Ġg orge
ĠL y
Ġhand les
ĠG emma
Ġglad ly
Ġcoo p
Ġunf old
Ġoccas ions
Ġunco vered
Ġtheat re
Ġencl osure
Ġgorge ous
B ird
J une
s ite
Ġl ur
Ġr ic
Ġpl umber
Ġbo oth
ill as
ĠA pp
ic s
ick ing
ep e
Ġch ili
Ġdri pped
ĠGra cie
Ġjourney s
Ġtong ues
Ġsnugg ling
ongratul ations
ĠChe ss
Ġbund le
a ith
w hy
Ġm ur
im ents
or se
Ġsh aky
al ity
Ġkn it
Ġunt angle
ĠP a
Ġma car
Ġenjoy s
Ġperf or
Ġbuild ers
Ġcomple ting
Ġmacar oni
C ra
M el
e or
Ġwh ines
Ġho vered
Ġthr one
Ġbaby s
Ġmat s
Ġtent s
Ġfil es
Ġguess es
ĠOr ange
Ġrag s
Ġwid ely
Ġfashion able
Ġconfident ly
cl oth
A bbie
I m
Y ears
s he
ĠT oo
Ġsa x
ĠM ighty
Ġre a
ur render
ĠE r
Ġcare free
ĠG irl
ĠN urse
Jo hny
ĠTh rough
ĠJen nie
ĠBr ad
Ġhalf way
Ġstack s
ĠAl an
Ġladyb ird
Ġproject s
Frank ie
Ġhorri ble
Ġbabys itter
a ving
y a
Ġd umb
or ious
ir ty
Ġat mo
sp here
Ġph ones
Ġtank s
Ġpant ing
Ġinf ormation
Ġintroduc ing
Ġcommun ity
Ġactor s
Ġatmo sphere
G uess
Ġsc ience
Ġag es
ell ow
as y
ĠF ortunately
urt le
ĠP aw
Ġun z
Ġlon el
Ġinv ol
og o
hnn ie
Ġsuggest s
Ġtrunk s
Ġload s
Ġmush y
Ġscratch y
Ġpearl s
Ġdeser ves
ĠJoan ne
Ġd amp
Ġha mb
ĠM aisie
Ġdec iding
ous el
Ġpro gress
Ġcap s
Ġrefle ct
oor ay
ĠRain bow
Ġdepart ment
Ġhamb ur
L aura
N ut
Ġf ences
Ġin no
Ġas s
ĠW ow
Ġover he
Ġsoft est
Ġmiss iles
Ġfre ely
stri ches
Ġgor illas
Ġur ging
Ġpad s
S leep
Ġa id
Ġwa x
Ġwa nna
Ġn iece
Ġha lves
al a
Ġbo lt
Ġsp arrow
Ġco de
ĠD oug
us y
Ġpo llen
Ġtw itched
ĠR ita
ear l
Ġfright ening
Ġhelicopter s
amb i
Ġrout e
Ġbless ed
R ight
b ly
id i
Ġr ibbit
Ġst ate
Ġsh h
Ġwh izz
ĠA very
Ġcar ousel
Ġtw elve
Ġsun b
ĠC arefully
Åĵ Mummy
Ġright ful
Ġlight ly
ĠK ids
ĠK yle
Ġmust n
Ġsmo other
Ġlunch box
Ġowl s
Ġorgan ised
ĠBe a
Ġstri king
Ġstomach s
Ġsolut ions
Ġswirl ing
Ġdet ect
C arl
S weet
d ers
k ind
t to
um n
Ġsw oop
Ġgr adually
Ġlearn er
Ġsk ips
Ġoff ers
âĤ¬âĦ¢ .
ĠN ature
Ġpro ved
Ġfan s
Ġborrow ing
Ġdesign er
Ġjog ger
Ġsend s
Ġtap s
Ġsle eve
Ġmass ages
ĠStan ley
b s
o st
s a
Ġt umbling
Ġs uck
Ġl en
Ġl antern
is ible
at form
ĠS ummer
Ġpl atform
Ġgo d
Ġle aped
ĠC ow
ĠG wen
Ġdri p
Do g
Ġinv isible
Every body
ĠBl ack
Ġfierce ly
Ġfresh ly
Ġspring ing
ĠY oga
Ġsquaw k
Ġlen g
r idge
Ġm ound
Ġm end
ĠM s
ĠJ eremy
Ġro yal
Ġboy Ã¢
Ġshow ers
Åĵ Go
Åĵ Will
Ġpain ful
Ġweight s
ĠJan et
Ġamong st
Ġsnowfl ake
ĠLi bby
Ġbound ed
Ġchamp ion
O O
h anie
o f
z ing
Ġd andel
ĠW isdom
ss y
ĠJo sie
Ġlight ing
Ġsquir med
Ġfeather ed
ait lyn
Ġtut u
Ġattach ing
ĠCat ty
Ġpound ing
P am
S c
d ream
Ġp airs
ay e
Ġy uck
ĠM ac
Ġpark ing
Ġla kes
Ġsl urp
ort h
ĠN icky
Ġcr ushed
Ġtight ened
Ġpol ka
Ġdes cri
Ġdi ves
Ġcrisp y
c an
ĠT oys
ĠB ar
ĠM innie
iz ab
Ġunt angled
Ġbright ened
Ġsweet ness
Ġhat ch
Ġwood pe
Ġca f
ĠO pen
St artled
Ġadd ition
Ġcro ak
Ġcamp site
Ġfart hest
Ġheight s
Friend s
Ġchatter ed
Ġclut ched
Ġpopsic le
Ġdedic ation
Ġexhib it
izab eth
R ibbit
a ly
w orking
il s
oo h
Ġst inky
ri et
ic al
Ġsc ores
Ġbl ame
ĠC ars
Ġgl iding
ĠP ast
Ġreal ity
Ġvo l
Ġhat es
app le
Ġpet al
Ġgu ided
Ġwhe ther
ĠGo ld
Ġsell s
Ġobedient ly
Ġthread s
Ġmajest ic
Chirp y
cell ent
Ġench anted
' ."
R ain
in ting
ĠD uke
ĠF ind
Åĵ Wait
Ġroll er
ĠFl utter
Ġspe ck
Ġdust pan
Ġdisplay ing
Ġlawy ers
.' "
ĠGr umpy
Ġdump ed
ĠLight ning
N G
b el
f ived
t ured
u dge
ing ly
ĠS a
Ġr ink
Ġday dream
Ġas hes
Ġgr uff
Ġsl ight
Ġbra kes
Ġtast iest
Ġboard ed
Ġstretch y
ĠRob in
Ġdisagree ing
Ġtot ally
Ġsax ophone
M ake
S n
S illy
f ield
l ook
m ate
Ġ 9
on fused
Ġst ained
Ġsp ice
Ġex ist
ous and
ĠC ro
ĠR es
Sam antha
Ġant lers
Ġfu rious
Ġenthusiastic ally
Ġexerc ising
Ġscra pe
Ġwink s
Ġdod ging
Ġsou l
Ġpossess ion
Ġcompliment ed
Ġscow led
Ġfunn iest
Ġhandleb ars
Ġrea ction
A na
E njoy
c he
p ey
w ing
Ġsp ied
Th ree
That Ã¢
Ġcont ained
Ġdr oop
Ġarm or
ĠU se
Fin n
Ġsusp icious
a way
o kay
he ee
Ġs izz
Ġon line
Ġli f
Ġj aws
Ġsc ree
ĠW ise
ine ma
ĠJo die
Ġac cess
Ġsign al
Ġser vice
ĠCh icky
Ġtwirl s
Ġcontent s
Ġmis chief
Am elia
rrrrrrrr rrrrrrrr
Ġconsider ate
Ġwoodpe cker
E l
E ls
re s
Ġd ips
Ġth irty
ĠB iggie
ĠJ ump
arn ing
ĠP anda
ĠR ia
ead ing
Ġca ves
Ġpudd ing
Ġtooth p
Ġpor ridge
D r
K iki
s orry
w ood
Ġh ind
Ġh uff
ĠT urtle
ĠF eeling
Ġta les
Åĵ John
Ġrem o
ĠP uppy
Ġhide out
Ġwin king
Ġhor ror
Ġcompet ing
Ġcal f
Somet hing
Ġsuitc ases
cl ock
Ġcorre ct
G us
Ġt end
Ġh oof
Ġc inema
ĠS inging
Ġth ousand
ĠB ambi
Ġfor wards
ĠW ant
Ġla unch
Ġhome less
Åĵ Me
Ġgl immer
Ġstor my
ĠLucy Ã¢
Ġsnow ing
Ġrespect ing
Ġdelight ful
Ġguit ars
Ġhammer ing
Ġavo ided
Ġspirit s
Ġpalm s
ĠChe ese
Jon ny
Ġoverhe ard
I ce
b elieve
Ġp ace
Ġr umbled
Ġbird Ã¢
Ġab and
us ic
ĠC uddles
ĠP ark
Ġsqu ish
Ġtri pping
Ġcr uel
Ġclot hing
col ate
Ġfan c
Ġsuper mark
ĠRo ar
Ġ2 0
utter ed
ĠGret a
Ġroo ster
Ġlonel iness
L i
h ill
Ġo striches
is bee
Ġsh ots
ĠM ir
ĠA udrey
ĠE ating
ĠD ee
ĠF aith
ild ren
urp le
ĠC her
Ġlisten er
Ġfarm s
Ġsett ling
Ġswirl ed
ĠSque ak
Ġmanag ing
Ġting le
Ġunlo ad
Ġdart ed
Ra bbit
Ġsupermark et
P ipp
ar led
Ġg le
Ġsh immered
Ġre ck
Ġsee king
Ġra ked
Ġdin ing
ĠK enny
Ġbuck les
Ġsick ness
Ġpan cake
Ġexam s
Ġvalu es
Ġenter ing
Ġcomm otion
ĠFriend ship
ĠMel ody
f er
Ġl umpy
Ġp als
Ġha re
Ġst iff
Ġloo s
Ġcon str
Ġun st
Ġapp ears
Ġnight stand
ĠTh umper
Ġbuy s
Ġpot ty
Ġob l
Ġrid er
Ġsne aking
aid s
Ġwre cked
Ġexplo de
ĠWigg ly
ĠDra gon
Ġlur king
Nut ty
Ġreck less
S anta
Z ip
Ġn ug
an n
Ġas sist
ĠJ am
Mom o
Åĵ C
Ġra ises
ĠP op
Ġdisapp ears
Ġbat ch
Ġhoney com
Ġmeet s
Ġsol id
Ġpri est
Ġcur ves
Ġsupply ing
Sh ould
Ġtopp ings
Ġenerg ized
Ġleng th
E ver
F iona
R uth
p ie
Ġt roll
il ar
Ġpl ank
ĠB ree
ic ated
Ġback ward
ĠSp anish
Ġjoy ous
Ġmust aches
ĠO strich
ĠCh ar
Ġaw a
Ġyawn s
Ġsub ject
ĠJan ice
Ġweb s
Ġthreat ened
Ġservant s
Ġripp les
Ġinju ries
M ove
Z ara
f ess
il k
ĠB uster
Ġpr ison
ĠE ve
Åĵ Here
ĠP ee
imb a
ĠG en
Ġown ing
sh op
Ġwra ppers
Ġglow s
ĠMar ley
Sh aring
Ġshoo ed
ĠJenn ifer
R obby
S ir
l ock
Ġo gre
Ġat op
Ġbl ob
ĠD el
Ġab ack
Ġtr ad
ate ful
Ġun kind
ĠR un
Ġmusic al
St ella
Ġcart s
Ġspeed y
Ġdisgust ed
Ġvac u
asp er
Ġreass uring
yd ia
Ġembra ce
ĠLuc as
Ġpurch ase
A ng
G abby
L arry
R ock
W endy
Ġw icked
ĠS il
ĠA f
ell er
Ġgra sp
Ġsl ot
Ġru led
Ġmar vel
up ert
ĠO tto
Ġdi v
Be cky
Ġpin ec
Ġstream s
Ġstream ing
Ġresist ing
ĠCo pper
Ġunicorn s
Ġvent ure
ĠMon ster
Ġdev ast
G ot
S qu
i et
re m
it am
ay a
Ġbe gs
Ġpl ow
Ġne ighed
ry st
Ġpo les
ump h
ĠP earl
Ġcook s
Ġduck lings
Ġpract ising
Em my
Ġsucceed ing
Ġstud io
Ġbeg un
Ro bert
Ġreapp ear
Ġsquaw ked
ĠWil ma
Ġescap ing
R yan
s aw
Ġt ink
ll ed
ĠW orking
ĠE at
Ġad op
Ġwo bbles
Ġcon fu
Ġapp et
ho colate
Ġfold ers
Ġcoo per
Ġisland s
ĠSh adow
Ġzigzag s
ĠPr une
Mar ie
Pat ty
Ġruff led
Ġfif ty
Ġdevast ated
d est
d og
Ġp y
ĠT urn
ll e
Ġsh uff
ĠM ic
But ter
Ġsn arled
Ġhurt ful
ĠR ani
ĠIn stantly
Ġcomp are
Ġpre fer
Ġpass ion
Ġnest led
Ġpatient s
Ġcontent ment
Ġeras ers
Ġgrin ning
ĠRa ven
Ġstare s
ĠY ellow
Ġanten na
Ġaband oned
Ġnug gets
H ooray
M ila
T urn
a ppy
re et
Ġn in
Ġv itam
Ġgr umble
Ġany ways
Ġany body
Ġsk ating
ull y
Åĵ Remember
ĠTh under
ĠK at
gg ie
Ġstret cher
See ing
ric a
Ġleop ards
Ġpine apple
Ġrust le
ĠSunday s
ĠPing u
h i
p hew
Ġl imp
Ġne phew
Ġkn itting
ous ly
Ġqu izz
Ġgarden ing
Ġra cers
ĠG ogo
Ġhair s
John Ã¢
Ġmist y
Who a
Ġindepend ence
Ġtour s
Ġloving ly
Ġleap ing
Ġtarget s
Ġstomp ing
ĠClean ing
K aty
S m
n ings
Ġs im
Ġw itches
ay lor
oo ked
Ġr is
Ġso ggy
Ġsh ame
Ġsc aly
Ġv ast
Ġsun s
Ġsn ip
Ġmot ions
Ġchew y
ĠFr an
ĠCl ub
ĠCl ose
Ġevent s
ĠAm i
Ab i
Ġprod uc
Ġjugg le
Ġdou ble
ĠCook ies
ĠBer nie
M ae
P oor
k i
m ony
Ġp ec
Ġst itched
Ġshe Ã¢
ĠB oom
ist ened
Ġde vice
Ġwork shop
ĠSarah Ã¢
Ġsu nd
ĠBe es
Ġscold ing
Ġres our
ĠIs la
ĠLou ie
Ġraincoat s
Ġtuck s
ĠAny time
ĠJose ph
E va
M ore
t ling
Ġs ite
Ġto ne
Ġb udd
Ġp oop
or ty
am i
ent ial
Ġgl oom
Ġcu l
Ġmag pie
ĠR eading
Ġatt endant
ĠO ld
ĠJust in
Ġped alled
Ġchirp s
Ro ger
ĠCar rie
sm art
Ġting ling
Gr anny
Ġslight ly
Ġhoneycom b
Ġbudd ies
C onfused
Ġr ay
Ġdo dge
ic ia
Ġcl ips
ous y
Ġhow l
Ġche es
Ġgl istened
ĠG oose
Ġdes ce
ert ie
Mum ma
Ġstri ped
Ġcere mony
Ġaut umn
Ġwigg les
Ġbleed s
Dan iel
Ġsadd le
Ġpossess ions
Ġtoothp aste
ryst al
F ly
Ġw il
al ia
ĠM ag
Ġre el
Ġbo ast
are ful
Ġgra ins
Ġgr anny
No body
Ġfix er
ĠK ai
Ġpast or
Ġdi aled
ĠBir ds
ĠJu ice
ĠEl izabeth
Ġrefu sing
Ġwrigg ling
Ġscientist s
Ġund o
Ġexch anged
Ġinterrupt ed
Ġcul ture
S plash
Ġp ave
Ġo ars
ĠH ug
Ġr iches
al ter
Ġse vent
Ġclo ver
Ġpick les
Ġkind est
ĠP uddles
Ġpro ceed
ĠFl ash
Ġpers u
Ġimag in
Ġadm itted
Ġlad ders
Ġchick s
ser y
Ġharm ful
ĠWhere ver
ĠAlex a
Ġsurround ing
Ġappro val
Ro ver
sm elling
ĠSw im
Ġinvent ion
ĠCr usty
Ġquizz es
A r
W ake
i bbles
Ġf are
ad a
Ġsm ash
are r
ĠD ylan
Ġthought fully
Ġde ck
iss y
ul iar
Ġpat ting
Ġje ans
Ġmix es
Ġprotect or
ĠBl ink
Ġmoder ation
Ġlecture s
Ġscoop ing
Ġdef end
Tr ust
Ġsurprising ly
ĠBra ve
Ġpec uliar
Ġpave ment
' ?"
K elly
N e
Ġl ens
is her
ĠS urpr
Ġj igg
Ġcl ucked
Ġch a
Ġgr umbling
ĠF aye
imal s
ĠJo hny
Ġjump er
ĠG reg
ĠR el
Ġper se
Ġdr ople
Ġpro fess
Ġthin ner
ĠSt u
Ġpay off
Ġsupport ive
Ġbarrel s
Ġsepar ating
Ġequ ally
ĠMe anwhile
Ġsnugg les
ĠJu les
eal ing
Ġarr ange
ĠStri pey
Ġunlo aded
Ġjugg ling
ĠStep hanie
Ġarrest ed
ĠAf rica
G igi
W heee
d on
Ġw etter
Ġm itt
om ers
Ġre jo
Ġsome how
Ġro am
Ġcar ved
Ġv oy
arn ey
Åĵ Mama
Ġwo nd
ĠP aws
Ġac rob
ĠN ed
Ġtri umph
iver sity
Ġspo ken
ĠSt ret
Be ware
Ġcap tured
Ġaccept ing
Ġunl ike
Ġpost ers
Ġstud ies
Ġpra ises
Ġti ara
ne w
M amma
a ved
f riend
m ade
t ock
v ie
Ġs up
Ġw it
ce l
ĠM ore
Ġlo bby
ĠP izza
Ġfr isbee
ĠSp irit
itc her
Ġdri es
Ġmail ing
Ġhope less
Ġcart whe
Ġcap es
Ġskin ny
jam in
hell e
ĠMatt hew
Ġwrink ly
Ġnur sery
Ġpuff ed
Ġconcentr ated
ĠPing o
Ġobst acles
Ġproceed ed
M agic
U nder
b ec
o le
Ġto ad
Ġp itcher
ĠS usy
Ġher d
Ġr ises
Ġbe gging
ĠW ake
Ġbl ed
Ġrun ny
ress ed
Ġadventure rs
ac her
Ġwait ress
Ġfavor ites
ĠEll en
Ġmelt s
Ġstri ct
Ġcomb ing
Ġhurry ing
heart ed
Sh oo
Ġgrandchild ren
ĠCra b
Ġquarre lling
Ol ive
R os
t alk
Ġs ly
nd s
at ted
oo o
ve y
Ġnot ices
Ġbo bbed
Ġout smart
Ġcom mand
Åĵ Because
Ġimportant ly
Ġper ch
Ġrec ipes
Jane y
ĠNo ah
Ġmeasure s
Ġfriendship s
Ġcomb s
ĠSh ark
ising ly
Ġrust led
Tw inkle
Ġconcentr ate
Bu bbles
ĠRes pect
Ġvoy age
B uzzy
J ason
P hew
U sing
Ġs omers
id dy
at ic
or ia
Ġfor ty
Ġfor ced
ĠM indy
Ġsc an
ĠL and
pl ed
Ġdra gs
So fia
Ġcut ter
Ġfull y
Ġbar bec
Ġspr ings
unt ed
ustr ated
Ġnumber ed
Ġsurrender ing
Ġpistol s
Sh rink
Al i
Cl ose
Ġstroll ing
Ġconn ection
ĠAny thing
ĠNe ither
epe at
Ġsomers aul
T en
l ike
Ġl itter
ĠM usic
Ġsp ades
Ġab ilities
Ġsn oo
Ġun p
Ġquick er
ĠN ia
ĠR ibbit
Ġinst ant
ĠO ak
Ġbirthday s
Ġpan icking
Ġtick ly
ĠMar cus
Ġcompl icated
Ġspell ing
ĠCar oline
Ġsecure ly
Ġconvers ations
Ġsculpture s
Ġperfor mer
W o
Ġb umble
ut e
ĠB all
Ġfriend Ã¢
Ġnew ly
ous ers
ĠD V
Ġtr udged
Ġtr ousers
Ġtw itch
Ġsk ates
Ġexpl an
uc cess
Ġsn ipped
Ġad v
ĠSp ider
ĠR andy
ĠR ory
Ġfire wood
Ġpart ner
ĠK ind
Ġem pt
Ġvill ain
Ġdest r
Ġcrack ing
ĠWh ite
Ġres umed
Cl imb
Ġmotion ed
Ġsweep ing
Ġscri bbled
: "
c ies
i or
r ous
Ġsa uc
Ġre ct
Ġbo bbing
Ġla z
Ġch unk
Åĵ you
Ġwalk ie
Ġuse less
ĠN one
ĠN ear
ĠR oo
ĠR ick
Ġnight fall
Ġz ippers
Ġset up
igg les
Ġsmo ky
Ġjourney ed
Ġext rem
Ġterri bly
ĠSh ould
Ġsneak ers
Ġdelay ing
Ġbang s
Ġchallen ging
Ġdiscuss ion
Ġearthqu akes
ĠSe an
Ġgod mother
Ġconfu sing
Ġwond rous
ĠDV D
Ġextrem ely
B le
a ld
c r
c up
h ave
k s
Ġm ower
ĠT ri
Ġg al
ĠB illie
Ġk ern
ĠJ es
ĠL ady
Ġgra in
ant s
Ġor ch
Ġflow ed
th an
ĠR upert
Ġbeh old
Ġcoll age
Ġband s
ĠZ igzag
Ġham mered
Ġparrot s
Ġshouldn Ã¢
Ġholiday s
Ġemergen cies
Ġbank s
Ġstrum med
Ġforeshadow ed
Tess a
Ġunfold ed
Ġvitam ins
A manda
H ar
L a
O ver
U se
e ves
g ra
n is
o d
Ġt ang
it i
Ġd azz
id ance
at rice
ĠS imba
Ġin ched
ĠI vy
Ġpl un
ĠB ug
ĠJ umpy
Ġsl ime
Åĵ Mum
Ġgl imp
Ġun sc
Ġdis ob
Ġgu ilt
Ġgu idance
Ġgiant s
ti v
Ġcur ls
Ġsle eves
Ġflav ours
ĠCar ly
Ġreplac ing
Ġwrist s
Ġbloss om
Ġric her
Ġcaf Ãĥ
Ġappet ite
Ġdrople ts
Ġbarbec ue
D espite
S que
T e
h aps
Ġp endant
ĠH ippy
Ġu nn
Ġst ump
Ġout er
Ġpr ops
Ġsw itches
ĠD inner
ĠF aster
Ġfly er
Ġma c
ĠN orth
Ġprom ising
Ġtrain ing
Ġprotect s
Ġlay er
Ġcap tiv
Ġlamp s
Gra nd
ray s
Ġsink s
Ġguard ed
Fl oppy
Ġheav iest
Ew w
Ġslither ing
Ġstun ned
Ġcreep y
Ġchees y
Ġwit ness
A sh
J u
v ious
er ris
ĠT oni
at t
et ime
st op
ĠB oy
el sey
Ġsh ades
Ġex cellent
ĠJ imbo
ĠW r
as hing
Åĵ Help
ase y
Ġwo bbling
ĠP urple
Ġwarm ing
Ġfix es
Ġread er
Ġspr ung
Ġhon or
ĠZ ippy
Ġrad i
Ġlow ers
Ġcur sed
Ġseal ed
Ġshield s
Ġinsp ected
sol ved
Ġcontented ly
Ġcigaret te
Ġinno cent
Ġsubject s
t ons
Ġg n
ke lly
Ġpl um
Ġthey Ã¢
Ġwh oo
ĠM ousy
Ġbo omed
ĠA d
Ġcl ung
ĠD ina
Ġta co
Ġun h
Ġsmooth ie
ĠMar cy
Ġphot og
Ġyield ing
ĠMiss y
Ġrele asing
Ġsqueak s
Ġais les
Ġful filled
Ġfare well
Ble ch
H el
S un
Z oey
Ġc ords
Ġo o
ay ed
id get
ĠS id
ĠH ipp
am s
Ġplay fully
Ġcar ve
Ġla ce
Ġsun g
ĠC ake
Åĵ Stop
ĠG ail
Ġbright en
Ġsqu atted
Ġmor nings
ĠDo ing
Ġsquir t
Ġpa il
ÅĵI s
ĠBr other
Ġgrown ups
Ġcur ved
ĠAl ison
Ġtrail s
ĠV al
Ġann ounce
Ġsnugg ly
Ġbru ise
Ġcuc umbers
Ġlif etime
Li am
Ġexplan ation
Ġorch ard
E at
H ope
N ana
S w
v o
Ġb ould
Ġg umb
Ġwe ed
ĠA aron
Ġbl ush
Ġcle arer
Ġra is
Ġground ed
Ġfr ant
ĠR oy
ĠDo ll
Ġcr ust
ĠAs ked
Ġrep airs
Ġcross es
Ġpin ches
Ġclass es
Ġham mers
Ġfour th
Ġcur ve
Ġreco vered
Ġcable s
Ġapart ment
Ġrequest s
Ġwarn s
ĠMo st
Ġdod ges
Ġhoo ked
Ġbiscuit s
Ġscut tled
Im agine
Ġdetect ive
Ġawa ited
Ġantenna e
Ġgumb all
B rian
J ay
g iving
o es
Ġl ately
ĠT ippy
all ing
al thy
ĠM uch
ĠJ emma
ĠTom Ã¢
Ġother Ã¢
ĠL o
Ġgood s
ĠJo lly
ac ul
Ġgreat er
Ġduck ed
Ġsick er
oph ies
ĠZ og
Ġcop ies
Ġbull ies
Ġenv y
Ġcomb ined
ĠCl oud
ĠCl imb
Ġremain s
Ġbend ing
Ġti ppy
ĠCar rot
Ġstem s
ĠSc r
ĠUnder neath
Fro g
Ġtimid ly
ĠTre es
Ġopt ions
ĠNell ie
Ġoverfl owing
Ġremo ving
ĠSil ver
Ġdestr uction
? ,"
F ree
P inky
c ra
r ant
w elcome
Ġf ading
an ked
Ġpl us
Ġup s
ĠB arky
Ġsh immer
Ġk ill
ĠM ill
Ġse le
ĠA men
Ġco cked
ĠD izzy
ist ory
Ġkne els
Ġhow led
ĠC ream
ĠP up
ĠG erry
Ġsqu ashes
ĠN ibbles
ĠK aitlyn
Ġsil k
Ġjack s
Ġrat tle
com ing
ĠSh all
gn es
Ġsteam ing
Mmm m
Ġexa ct
Ġvict orious
Ġstair case
ĠMad eline
Aunt ie
ĠChew y
Ġsunb urn
Ġconstr uction
B ra
R icky
r ope
t w
in ter
Ġc ities
Ġd im
al f
ĠM iles
Ġback ground
Ġdad dies
Ġhow ling
Ġtr ophies
Ġz ig
Ġsand als
Ġcool ness
Ġclothes line
ott ie
Ġcorn field
Ġaccident ly
Ġdes ire
Ġbread cr
ex i
Ġrec ords
Ġselfish ness
ĠSt and
Ġrare ly
Ġturkey s
Ġgain ing
ĠTuesday s
ĠAng ie
Ġmarve ling
Ġlim its
Ġobst acle
Ġyelp s
ĠPer cy
Ġstalk s
ĠLy nn
Ġbreadcr umb
P en
ow s
ĠB urt
Ġli ar
ĠM ars
Ġgo bble
Ġsp ee
um e
Ġbird ies
Ġbl urry
us es
ĠF ather
ĠF uzz
ĠF ishy
Ġcat cher
Ġtr an
Ġsun k
ber ries
Åĵ Just
Ġgl immered
ĠP romise
Ġdra gging
Ġun e
Ġper ked
ey ed
Ġspl itting
Ġplac ing
Ġrep ort
Ġbal c
Me gan
Ġstri kes
Ġclum s
Ġchar ity
ĠPe ace
Ġladybug s
rob es
Ġhambur ger
L ina
Ġb ins
Ġc y
Ġhe y
ĠS low
ĠB op
Ġwh ining
ĠM ix
ĠTim othy
iz mo
Ġde eds
ĠR on
ĠR uff
Ġsleep over
Ġsharp en
ĠBe atrice
Ġeld er
Ġstri pe
Ġflashlight s
Ġur ges
Ġfisher men
Ġsty lish
!' "
Ġhurried ly
ĠAlf ie
Ġmur ky
Ġacrob ats
Ġcaptiv ated
Ġbould er
Ġspee ch
B rrr
M aisy
P er
P aula
S urrender
u ri
Ġ ic
Ġf ired
it ive
Ġp ounce
ar ies
ig her
ec ess
Ġse ated
ood le
Ġfe ared
ure n
Ġfl ippers
ĠF urry
Ġdon ut
Ġad just
Ġbra id
Åĵ Jack
Ġhard working
ast ian
ĠG eor
Ġtired ness
Ġarri ves
Ġdeep est
Ġele ven
Ġpot ential
ĠFl uff
br ina
eb astian
Ġscr unch
aw k
Ġpost c
Ġbeep s
Ġpad lock
Ġiron ing
ĠHelp ing
ĠMat ty
Ġgesture s
Ġembra ced
Ġshuff led
Ġglimp se
Ġbalc ony
J ax
n ut
w ar
in nam
Ġf itting
Ġm id
il ot
ĠS pl
ĠB re
Ġsh aker
ĠM in
ĠM ara
Ġout ing
Ġsw ift
ĠSam Ã¢
ĠF ore
ump kin
Ġqu ality
Ġcu pped
ĠP ain
ac on
ĠTh ough
Ġcra z
Ġdri ven
Be ing
Ġmot ors
Ġswe ating
Ġanxious ly
Ġvi ol
ĠTr uck
Ġwaste ful
Ġcrunch ing
Ġweren Ã¢
ik o
Ġaff ect
Ġbless ing
Ġbless ings
Ġroast ed
gr ateful
Ġdesce nded
Ġdisob edient
Ġunn ecess
innam on
D e
J udy
R A
Ġc innamon
ĠS chool
st ack
un ior
Ġre nt
ĠJ et
Ġcar riage
as c
Ġbl ues
ĠD ora
Ġbu ds
Ġun grateful
Ġcr ooked
Ġcre aked
Ġtight rope
Ġforget ful
br ushes
Ġcolour ing
Ġshore line
Ġsil ky
ĠDan cing
Ġroof s
Ġview s
Ġcareless ly
ĠSn ap
Ġhung rier
Ġexper iments
Ch ildren
Ġprevent ing
Ġteaspoon s
ĠDr op
Ġnuzz les
Ġtil ts
Ġclut ching
ĠDe bbie
Ġdou b
ĠSal t
Ġinvol ved
Ġdandel ion
ĠCher ry
Ġloos en
Ġobl ig
Ġfrant ically
G inger
R ay
c ip
g ling
m ill
m ary
s hes
y la
Ġh yd
ar ked
il st
or gan
Ġe c
ĠI nt
Ġfor ming
un ate
Ġlo ser
ic ity
Ġman go
ĠW illie
Ġho bby
Ġmo ist
ak en
Ġad ored
be ha
Ġground s
th ur
Ġsound ing
col oured
Ġret rie
Ġdirt ier
Ġpri ces
Ġhay stack
Ġ1 2
Ġslam s
ĠSc ott
Ġposit ion
Ġscre ens
Ġscree ch
Ġempt ied
Ġgal ax
F reeze
H oppy
L ove
h op
r uck
v ia
Ġa h
Ġw oo
Ġj ay
Ġout come
Ġsp ir
ĠL ydia
Ġhand led
What Ã¢
Ġfr ames
ac ing
Look s
Ġprin cip
ĠK athy
een a
ĠBe an
Ġsalad s
Ġrece iving
Ġscoot ed
Ġimpatient ly
ÅĵYou r
Ġremain ing
Ġmast ered
ĠAn imals
Ol ivia
ĠAlf red
ĠPa ige
Ġcha os
Ġrejo iced
Ġunsc rew
Ġbreadcrumb s
Ġunnecess ary
Ġoblig ed
U p
l ife
v an
w ow
Ġb ust
Ġhe ated
ĠT aylor
Ġn anny
ĠS kelly
Ġst ations
st ret
ĠB arney
ĠM ust
Ġsp ect
Ġcan es
ĠW hee
Ġmo les
ank y
Ġstr ut
Ġlong ed
ock s
She lly
Ġrel ation
zz ly
Ġpack et
Ġaf lo
Ġsurf er
Ġcrow s
ik a
Ġbroom stick
Ġtipt oes
Ġlun ged
Ġembarrass ment
Ġunwra p
Ġfist s
Ġwhirl ed
Ġtrim med
ĠEr nie
ĠBar b
Ġvacu um
Ġimagin ative
Ġec st
Ġaflo at
B C
C atch
E E
O ff
S ay
S on
u nts
Ġwas p
ad po
ĠLily Ã¢
ĠB elieve
ĠM ist
ra in
Ġsaw ed
ĠA BC
Ġch ugged
Ġch ances
ist le
Ġjo gs
Th rough
Ġbra g
Ġte ch
Ġgl ory
Ġra w
Ġra iling
Ġbed side
Ġstory book
Ġcre aking
Ġtable cloth
Ġclever ness
ĠSt ealing
Gra b
Ġunl ucky
ict ory
ĠMar co
Ġinf ection
Ġdemand s
Ġbill s
ĠIs ab
Ġinsp ect
ĠIm agine
Ġsquaw king
Ġstun ning
Ġwhizz ed
Ġaccess ories
Ġretrie ved
Ġprincip al
Ġecst atic
1 1
C ool
C areful
D el
K enny
L iza
R iley
r ors
Ġs ips
Ġo ink
ar med
Ġg ad
ĠS on
ĠHe l
Ġout stret
Ġcl im
Ġal b
ĠL ast
Ġch ugging
Ġbu bbled
ĠC ount
ĠP ig
Ġadventure r
ĠG u
ĠJane Ã¢
ĠFl appy
Ġsmo ot
Ġband aged
Ġser ves
Ġcabin ets
ĠBu bble
Ġtrump ets
ib i
Ġrhythm s
ĠPl us
Ġpriz ed
Ke vin
ĠGrand ad
Ġerupt ed
Bo bbie
hand ed
Ġ9 11
Ġexist ed
Ġrais ins
B inky
H olly
L uc
P ick
S andra
T ell
r un
Ġh int
Ġd emon
is app
ĠH anna
ld erly
ad dy
ĠM ild
Ġsaw ing
ĠW ink
ĠL ance
ĠD own
Ġdad Ã¢
ive ly
Ġsn ore
Ġsn atch
vent ure
Ġfast ened
Ġgl inting
Ġimp act
ĠP uff
Ġun pl
Ġun ison
Anna belle
ol k
Ġspr inted
ĠSt r
Ġsheep ish
Ġsniff ling
Ġpadd les
Ġsix ty
.' '
Ġdet ail
Ġbru ised
Ġelbow s
Ġtoss ing
ĠAngel a
Ġfond ly
Mick ey
Ġthousand s
Ġoutstret ched
! ,"
C ongratulations
O P
R ing
Z ero
f reeze
m i
t es
Ġt ack
Ġs ucked
Ġd izz
on k
ĠHe idi
Ġr ash
Ġr asp
Ġst umbling
ĠB ack
ĠM ister
ĠA da
ĠW he
ĠBut tons
Ġbl ind
ĠD awn
ĠD eer
Ġend less
ĠC ass
Åĵ Daddy
Ġgl ide
th ree
Ġmum s
Ġcut ters
Ġtast ier
ĠJohn Ã¢
Ġsmart s
Ġfing ert
St an
Be hind
ĠZ ipper
ĠBr ight
Ġwand s
ĠMar c
Ġattract ed
ĠCl ar
ĠCl are
Ġsprink ling
Ġstrugg les
ĠMo le
Ġgrandpare nt
Ġconqu er
Mon a
ssssssss ssssssss
Ġgle aming
Ġsup erp
ĠKind ness
ĠHipp o
ĠMust ache
A very
E r
F ound
F ido
H oot
t ails
Ġt ending
re r
Ġm ain
Ġp ang
Ġha lo
ĠB an
ĠB el
ĠB iscuit
ĠM ilk
Ġloo ped
Ġcl amber
Ġro sy
Ġfl akes
Ġch ann
Ġfo ss
ĠJo hnnie
be ying
ĠG ia
ĠG ertie
Ġcra shes
Ġcr umble
Ġmess ing
Ġmess ier
Ġfair ly
Ġpass age
ho e
Ġmotor b
Ġrecord ings
Ġcro aking
ĠMar g
Ġnotebook s
Ġvend ors
Ġinclud es
ĠGr adually
Ġhi ked
Ru fus
ĠStri pes
ĠKay lee
Ġwhir ring
Ġforeshadow ing
Ġfanc iest
Pipp a
Ġsim ilar
Ġris en
Ġwil ted
talk ie
Ġdemon str
A lly
E lle
N ear
a fe
b ang
p ing
r imp
Ġs ul
in i
Ġm ended
ĠT ip
id y
ĠH ot
ĠH onest
ĠB ro
ĠM int
Ġre ins
Ġbo oming
ĠBen jamin
ĠJ ade
Ġcl am
Ġscared y
ĠF anny
ĠMax ine
Ġrun ners
ĠP iggie
Ġclos est
sp ass
ĠDaisy Ã¢
Ġmost ly
Ġent ertain
Ġpar amed
Ġdi als
Me g
kn ob
Ġspeed s
Ġsummer time
!' '
Ġdrift ing
Ġ1 5
Ġsnail s
Ġinterest s
Ġblink s
ĠY et
ĠAny a
Els a
Ġnin ety
Ġbumble bee
Ġdazz ling
N ate
P ush
R ebecca
W illiam
d led
m ind
p ill
t les
Ġs ipping
Ġd il
Ġd ut
er as
or is
ĠH en
Ġy anked
Ġre v
if ted
ĠL acey
nn ess
Ġmommy Ã¢
Ġqu iver
Ġdon ate
Ġend ings
Åĵ Ah
Ġdoor knob
ĠG illy
Ġtal ons
ĠN an
Ġspot less
ens es
app iness
ĠO lly
Ġcomfort ably
Ġcalm s
Ġsal sa
ĠBe ary
ĠMum ma
Ġfig uring
Ġdish onest
Ġnorm ally
Ġter rit
Ġprun ing
Ġtwink ly
Ġachie ving
ĠMe i
ĠWednesday s
Pe ggy
Ġsav ored
Ġinju ry
Ġunst uck
ĠStret ch
Hel en
tw o
Ġalb um
A gain
B ow
C le
E n
H o
H ank
N ora
N ancy
T una
b et
h adow
t able
w h
Ġs ons
ed ience
Ġhe ed
ĠT ia
ĠS ugar
ĠB ugs
Ġlittle st
Ġthere Ã¢
Ġre act
Ġgo bl
ill s
ur r
ĠJ em
ĠW innie
ĠL ayla
ĠD en
Ġgra zing
Ġsor row
Ġrun way
Åĵ Bye
be at
Ġeyes hadow
Ġrepl ies
Ġdis m
Ġprin ces
Ġste ad
Ġyellow s
ĠAfter ward
Ġbath robes
Ġpig let
ale b
Ġspread s
Ġpri cked
ĠBl oom
Ġcrack ling
ĠMar ch
ĠJul iet
Ġfest iv
Ġscur ry
Ġluxu rious
Ġscra ps
ĠThanks giving
Ġshin iest
Ġcaw ed
Ġpopsic les
ĠBa iley
Ġpriv ate
hill ip
Ġpinec one
Ġclim ber
Ġdil ig
D own
S e
c ling
u h
Ġ .
Ġt adpo
Ġs ug
Ġc it
Ġsa ves
Ġha irst
Ġpl ump
itt ers
Ġlo lly
ĠA ri
if fere
Ġco aster
ĠD ream
Ġpe a
ĠEvery time
ĠC on
ĠG izmo
ĠN elly
Jo an
ĠTh ree
ĠFl op
ĠFl owers
let t
oin t
ork s
Ġpost s
ĠPr un
ĠGr ump
ĠDr ink
Fo x
ĠSweet ie
Bu bba
Ġtot al
Lou ise
ĠFly ing
Ġscre ec
uri osity
Ġfingert ips
A va
E d
E ric
G reet
I Ã¢
L ife
M ouse
P hil
P izza
U ntil
h orse
n old
p air
t ract
z oom
Ġt ul
Ġs umm
Ġd ates
Ġp es
en ess
ĠS ale
ĠH ouse
ĠB ell
ĠM erry
Ġre ven
Ġcl a
Ġco iled
Ġsw ell
Ġover night
ac ed
ĠN at
Ġcr um
ĠAs k
orm s
Ġsharp ened
Ġdi al
Ġjealous y
ĠU sing
Ġtravel er
ĠSm all
Ġchalk s
Ġstro king
Ġequ al
Ġeff ect
Ġwrigg le
now ing
Ġsnort s
Am ber
Ġopportun ities
ĠGl oria
Ġouch y
Ġcuc umber
ĠGold ie
ĠMic helle
Ġkern els
iffere nt
Ġreven ge
E ddie
I zzy
P andy
S H
W oo
W ant
i rew
m es
w ho
Ġ (
Ġ 7
Ġs ighing
or nness
ĠJ ed
Ġfl ipping
Ġch ant
ma ker
Ġrun g
Ġsun be
ĠC omet
llow ed
Ġcr anky
Ġarri ving
Ġcomp ost
Ġmin i
Ġstar ry
Ġfarm house
Ġmeet ings
ĠCh ip
Ġcap able
Ġsuggest ing
az el
Ġcam eras
Ġfre s
Ġpainter s
Ġlic enses
Fl opsy
Ol iver
ift een
Ġresour ces
Ġtang y
Ġwhoo shing
Ġspect ac
Ġterrit ory
Ġsug ary
D rink
G irl
f ying
j a
m ar
n ine
t re
x ie
Ġ Yay
in n
Ġd u
Ġd ue
Ġp ry
Ġin s
Ġr umm
ĠB ones
ĠB ibi
ra w
Ġsp itting
Ġfl aming
ĠE than
Ġtra ined
Ġchild hood
Ġreg ister
Ġmeasure ments
Ġgrown up
Ġcur ry
Ġgolf er
Ġsunset s
Ġble nded
ĠPip er
Ġsnat ches
Surpr ised
Ġstall s
Ġprod uce
ĠWigg les
Ġdescri bed
ĠChar les
Ġprefer red
Ġsund ae
Ġsevent y
acul ously
Ġspectac ular
B arry
F our
F uzzy
J imbo
S k
T erry
a ves
Ġf ate
Ġhe ater
ĠS illy
ir ds
st ream
Ġwe ave
Ġsh aving
ĠM oney
Ġre cy
Ġre solved
ĠA maz
ĠA gnes
Ġco ast
Ġpr anced
Ġsw er
Ġsl edding
ĠC ut
Åĵ They
ct ed
ĠR iding
Ġflo pped
Ġsnow ed
Ġpre y
ph ones
Ġcho ke
Ġsur ge
Ġcalm ness
Ġlay ed
Ġlock ing
ipp ee
Ġtoug her
Ġstubb ornness
Ġcrack le
Ġer ra
Ġsurf ed
Ġpit s
Ġsub tract
ĠMe ow
Ġoutdo or
ĠOw en
Ġeight y
Ġwarri ors
Car la
Ġbund led
Ġecho ing
Ġgrump iness
Ġass ured
ĠPast a
Ġvol unt
Ġdroop y
Ġsizz le
ĠGen ie
Ang el
Ġadop t
Ġculture s
Ġsomersaul ts
Ġscreec hed
? '.
C ara
K ay
d es
g ent
i us
Ã Ĥ
Ġ 8
Ġb on
Ġm uttered
Ġp est
ĠS yl
im a
ver se
Ġsh aken
Ġex ting
Ġal ike
ĠW alter
ĠL exi
ma ster
Ġexpl os
Ġad vant
ĠP ol
Ġun ra
Ġun iting
Jo hnnie
ĠTh ink
ater pill
Ġthank fully
Don Ã¢
ĠK arl
Ġsecret ly
ĠO p
Ġhope fully
Ġpar ades
Ġmir rors
Ġtoug hest
Ġthoughtful ness
Ġprep ar
Ġdisturb ance
Ġmath s
Ġped alling
Ġdisplay s
Ġunlock s
Ġskelet ons
ĠUn iversity
Ġregret ful
ĠGood night
Ġpout s
Ġgreet ing
boo s
Ġgri zzly
ĠSc ar
Ġsurv ived
Je an
Pl ay
Che ese
ĠRos y
Ġunz ipped
Ġassist ant
Ġtrad ition
Ġmitt s
Ġcit iz
Ġexting u
F ive
d les
s ix
w oo
Ġt ed
Ġa lp
in ning
Ġf ifteen
Ġd ong
on ight
Ġpl uck
se ven
Ġj uggled
ĠJ asper
Ġsc oring
Ġfe ature
ĠW ood
ĠW est
Ġbr ats
Ġcle ve
ĠC ol
ĠHer o
eet le
Ġmean ings
Jo se
Ġcr anes
Ġsho ve
Ġpi er
ĠK nowing
Ġow e
ĠO tter
oin ted
Ġgold fish
Ġcomb ination
Ġcact i
Ġshrimp s
Ġthreat ening
ĠBo bbi
Ġwadd ling
Ġsav oring
Ġhorri fied
ĠTra cy
Ġreflect ing
Ġgrasp ed
ĠHug o
ĠMill er
EE P
Ġcrum pled
A pril
L enny
R andy
f our
p ilot
w ear
Ġs ess
nd y
Ġd un
Ġg ig
ĠS oup
or i
st one
ĠB on
ĠM oe
Ġan ch
Ġout run
Ġsp ine
Ġevery time
ĠD iana
ĠF our
Ġclo ak
Åĵ He
Åĵ When
ĠP umpkin
Ġhead phones
Ġam use
ĠR olly
Ġru by
Ġcr itter
Ġbelie f
Ġside ways
Ġmust ard
ix ie
Ġ3 0
Ġret ri
ĠBl inky
Ġcaulifl owers
Ch arlotte
Ġrecommend ing
ari um
Ġbeat en
Ġunf or
ĠMart y
An other
Ġcollap se
sm ith
ĠFel icity
Ġfaith ful
ĠNe w
ĠHar riet
Ġjing le
Ġcigaret tes
Ġoo hed
Ġune asy
Ġclamber ed
Greet ings
Ġadvant age
G reg
H ours
g ive
h am
s ure
v or
Ġt iles
Ġc av
ĠT abby
Ġth aw
le as
Ġne g
Ġare as
ĠA bbi
get table
Ġco z
Ġexc use
ĠL illie
ĠD ri
Ġv ari
ant ic
ĠC uriosity
Ġstor ing
ĠP ir
oy al
Ġtra pping
Ġde ath
Ġpoin ter
Ġmother s
ol o
Ġstre ak
to ed
Ġround ed
Ġsu pper
Ġorgan iz
ĠZ e
Ġdrum mer
ha w
Ġsuit able
Ġcarp ets
Ġluck ier
Ġdear ly
Ġfet ches
Ġglee fully
Quick ly
Car ol
ĠBess y
Ġbas il
ĠPet ey
Ġsqueal ing
ĠEr in
Ġvol ume
ĠSa brina
ĠCro cod
ĠGu ard
Ġgobl in
Ġted dies
Ġunfor gettable
B ert
D ing
F armer
K ing
P o
T yler
Z oo
e ight
t a
t ail
re ck
Ġc ents
ir ation
st alk
ĠB ecca
ĠM aking
ĠM ason
Ġj ig
Ġfl ush
Ġdec re
Ġmo an
ĠC onnie
ĠC rystal
ĠP ot
Ġclos ets
co vered
Ġduck ie
Ġpond s
Ġfro l
Ġlight house
Ġtight en
ĠEm mie
Ġbee keeper
Ġpast ure
Ġstu bbed
cer tain
Ġdi aper
Ġsupp ose
Ġban ner
Ġer ased
Ġperm itting
ud ges
aff y
Ġsque aking
Ġzigzag ging
Ah h
Ġboo st
Ġrefu ses
Ġpuck er
Ġpriv acy
rrrrrrrrrrrrrrrr rrrrrrrrrrrrrrrr
Ġjigg led
Ġrect angle
ĠWr iting
Ġic ic
Ġtech n
hoe be
Ġalp ha
A R
G ret
J eremy
f ty
i ant
o k
t here
Ġt v
Ġt umble
re verse
id ered
ri ff
ĠB es
ĠB iggy
al king
ĠM ack
Ġlo af
Ġro les
own er
ag ged
Ġhome made
Ġgr ade
ĠSam uel
ĠF ar
ĠF un
Ġgre ed
Ġstr ay
ĠJo el
Ġgarden ers
Ġbra ke
Ġdan gling
Ġdra ped
Ġun b
ĠSp icy
ĠDo ve
ĠDo gs
Ġcontin ues
me ow
ere k
Ġmin ty
Do ggy
Ġcollect ions
Ġwild ly
St ep
Ġign ores
Ġleaf y
Ġgrand ad
Ġpersist ed
Ġsurf ers
ĠSm iling
Ġhesit antly
Ġthreat s
Pat rick
Ġmerma ids
Ġting ly
Ġflick er
Ġprod uct
ĠPick les
Ġunco ver
Ġtink ling
Ros a
Ġtwitch ing
Ash ley
Ġgad gets
Ġsheepish ly
Ġamuse ment
B oom
B ounce
f ill
f ect
z es
Ġ Ġ
Ġb id
Ġwa iled
Ġl at
on ce
Ġy ay
Ġli king
Ġwh ilst
ĠM al
art y
You ng
ĠL ions
Ġpo nder
ĠMax Ã¢
Ġsl ippers
Ġhand ker
Ġqu itting
Åĵ hello
Ġun c
Ġun certain
Ġwonder land
Ġnight light
Jo Jo
Ġworld s
sp ecially
less ly
Ġblack smith
Ġcoll ars
ho ot
Ġdes pair
Ġob edience
Ġpar lor
Ġwash cloth
Sp ring
Ġcompl iments
ĠAl icia
ĠCl uck
Ġbuzz es
ĠCo dy
Le ah
Ġslap s
Ġattack ing
ĠMo ley
Ġclick ing
Ġtodd led
Ġpound ed
Ġyumm ier
Fro ggy
Ġcoconut s
ĠOff icer
Ġdiv ided
Ġhandker chief
A P
B elle
G row
M ix
R el
b un
n s
p itched
Ġb ay
ou ble
Ġd iver
ĠS ebastian
Ġit ches
ĠHe Ã¢
am ent
al ities
ra ph
ĠW ork
Ġco ck
Ġv ows
ers on
ret ruck
ma il
ĠJack son
ĠC aterpill
Ġz one
Ġround s
Ġband aid
Sp ark
Ġwheel ed
Ġrid den
Ġteam mates
Gra cie
Ġsniff les
Ġbull ets
Ġrecogn izing
Ġinsist ent
Ch ick
ĠRo xy
Ġble nd
Ġreplace ment
Ġyouth s
Ġcough s
Ġunw ell
Ġaim s
Ġcons idered
ÅĵWho Ã¢
ĠWo nder
Ġscri bbles
Ġlim ped
ĠPet al
good bye
Ġunz ip
Sque aky
Ġdoub t
ĠInt rigued
Ġgig antic
C athy
U m
a be
g irl
p her
Ġ eter
it z
Ġd ice
at hing
an as
ĠH im
ĠH enny
Ġfor ces
ĠW anna
Ġtre et
ag ing
ĠL ula
ĠC ott
ĠC elery
Ġfi retruck
Ġgl ues
Ġunder wear
ĠP urr
ĠBob Ã¢
Ġru ins
Ġpart ied
sp ect
Ġvis ible
Ġfew er
ever se
ere st
Ġsea horse
Ġkey board
ĠEll i
St even
Every where
Ġrec ital
Ġtid ier
Ġwis est
oof y
Ġchest s
Ġmatch box
Ġbean stalk
Go d
Ġchalk board
Ġskull s
Ġdire ctly
Ġcontain ers
ĠBeth any
Fred die
ĠMon ica
ĠBee f
ĠGreen y
Ġjud ged
Ġsens ible
Ġchatter ing
Mart in
ĠPo le
Jan et
Ġhoot ed
ĠApp le
Ġhuff ed
Ġplum s
Ġtaco s
Ġannounce ment
Ġstrut ted
isapp ointed
Ġmotorb ike
Ġvari ety
Ġalpha bet
Ġeter n
B oy
B onnie
K ara
T oys
W ally
e ers
Ġthe rap
Ġb ared
Ġwa vy
Ġc urse
Ġd ise
Ġd ying
om i
ar is
at ching
ig o
ve nder
ĠB est
ĠM ond
Ġar cher
Ġla vender
ĠD i
Ġcom ment
Ġlong ingly
Ġquick est
Ġmean ie
ĠN athan
Ġmum Ã¢
Ġfrog gy
Ġwet ness
ĠK ara
Ġhide away
zz z
Ġheart beat
Ġswings et
Ġdist ress
Ġrep ay
Ġspoil t
fl ower
Ġrat tling
ĠFr ustrated
Ġmailbox es
ĠSh iny
Ġbreat hes
Ġkayak s
Ġble ated
ĠTw ist
Ġchuck le
ĠBo ssy
Ġ10 0
Ġstomp s
Ġhabit s
ĠAr thur
Pr incess
ĠEd ward
ĠApp les
Ġphotog rap
Ġbust ling
' !"
E lly
P ass
R ory
R epeat
S asha
Y ippee
c co
h ot
m on
y um
z o
Ġ 6
Ġb urp
Ġf izz
Ġl atch
en ch
Ġsa les
ĠS eth
an cing
ĠShe ll
Ġsh ifted
Ġne ared
ur ray
ĠA ly
ĠJ unior
ĠW ool
Ġfl itting
Ġfl icked
Ġgra ve
ĠAnna bel
Ġim it
ĠC e
ĠC elia
Th ough
Ġche m
Åĵ Tom
Ġeven ly
ĠG or
ĠSpot ty
ĠR ace
Ġstory t
ul ty
Ġgu iding
Ġpaint brushes
ĠFl ap
Ġperson ality
Ġpar cel
Ġprot est
Ġprotect ive
Ġpress ure
illi est
Ġtax is
Ġsteak s
Ġmen us
Ġfloat ies
ĠV o
Ġbend y
Ġpeel ing
ĠSmo key
Ġbold ly
Ġpostc ard
mind ed
Ġstead ily
Ġfestiv als
irew orks
Ġexplos ion
Ġretri eve
' ,"
B ess
G emma
J elly
L ion
M a
N AP
S low
r am
t est
Ġ $
Ġs id
Ġb ased
Ġo int
ar rot
ĠS im
ot ions
ir affe
Ġst ash
ve re
Ġwh inn
Ġnew est
ĠD ifferent
Ġad ver
ĠC hocolate
ĠC aleb
ip ed
ĠP ass
Ġapp earing
ĠJoe Ã¢
Ġbuy er
Ġpast e
Ġwild er
Ġlad ies
Ġshy ness
ĠLe arning
ĠBr ady
Ġeager ness
Ġorig ami
Ġspell ed
ĠTr ina
Ġdare s
ĠCo le
ĠV iv
Ġzigzag ged
Ġscra pes
Ġsib ling
Ġartist s
Ġuns afe
Ġmoo ing
Ġsav annah
rink les
ĠGl ass
ĠWin ter
Ġmajest y
ĠJelly fish
ĠLy la
Ġlimp ing
ĠSwim ming
ĠSurpr isingly
Ġscan ned
ĠStand ing
ĠABC s
Ġcitiz ens
Ġlat est
ĠMond ay
Ġwhinn ied
K athy
M erry
N ell
O ink
S oup
a omi
j i
m it
Ġ ome
Ġ ident
Ġs illiest
Ġto ot
Ġto urn
Ġh ula
Ġc ure
ĠHe el
Ġy ards
Ġr ins
Ġst ressed
Ġday Ã¢
Ġlo ss
Ġlo sers
ic o
Ġmu lt
ĠE ast
ĠE ng
Ġwater y
Åĵ Sorry
Åĵ These
Åĵ yes
Åĵ Alright
ob ble
Ġfin est
ĠP ixie
Thank fully
Ġmean er
ĠR ad
ĠDo do
Ġgreen s
Ġarri val
sp ort
Ġmother Ã¢
Ġbar bers
Ġem otions
Ġph ra
Ġmark ings
ĠO xygen
Ġsur ger
la ze
ĠSt acy
Ġpolice men
Ġbedroom s
Ġvalu ing
Ġtoast y
Ġpony tail
Ġbri ef
Ġfort une
Ġfort unate
Ġrecogn ised
Ġsilver ware
Ġprov ides
ab out
Ġni bbles
Che ers
ĠCla w
ĠCle o
ĠLa uren
Mon key
ĠGrand mother
ĠCr ane
Ġskate board
Ġopt ion
Butter fly
ĠShark s
Ġgn ome
Ġdizz iness
ĠMarg aret
Ġsess ion
Ġoint ment
A nt
G l
I NG
N O
P ark
S T
S al
g ia
g ies
er ie
Ġp ure
Ġg arl
id ers
ĠS ha
im ate
Ġin qu
Ġin tern
oo ke
ĠI nd
Ġshe riff
st ar
ĠA ren
Ġtre spass
ĠD ing
Ġpo sed
Ġtr ades
ort hy
Ġunt idy
Ġbra ids
Ġrem ark
ĠP ri
ĠP addy
ĠG uess
Ġbright ness
Ġboat man
ĠR ound
ĠSally Ã¢
ĠK n
ĠK ari
Ġspl attered
ĠTo oth
St ar
Ġcoo ing
Ġapolog izing
Ġappl ied
ĠJul ian
Ġsimple st
ĠJan a
ĠY ummy
ĠRock s
the y
Ġund erest
yd ney
Ġbound aries
ĠStep hen
Ġcluck ing
Mel issa
Ġhambur gers
Ġslurp ed
Ġdaydream ing
Ġprison er
Ġproduc ed
Ġpersu ade
Ġsmoot hed
Ġparamed ics
Ġdilig ently
Ġsurger y
A lf
C hocolate
D uck
J asmine
L u
P atch
W illie
b ag
b aby
g h
r op
w w
Ġf ished
Ġwe aving
ĠB ark
Ġne ater
ĠE specially
bb ies
Ġeat er
Ġneed ing
Ġsn arling
He idi
ĠC ell
ĠC ora
Ġgl orious
ĠP al
ĠG as
bo om
Ġdragon flies
ier ce
Ġob vious
ĠLe go
ĠZ ac
Ġfear less
Ġfeed s
osaur us
Ġdiffic ulty
rag ile
Ġter ror
Ġtor ch
ĠFr uit
ĠPe ach
Ġcactus es
Ġinsist s
ĠCo coa
Ġinsp iration
Ġaccomplishment s
Ġpuff y
Ġgap s
Ġthrill ing
Ġful fill
Ġwhizz ing
bel ief
Ġprofess ion
Te acher
ĠAd venture
Pen elope
ĠIsab ella
Ġunpl ugged
Ġchann el
Ġhairst yle
Ġome let
A A
B essie
C andy
C aw
K ai
M ister
P op
W isdom
r id
t ie
Ġb acon
ĠT y
ar ch
Ġg own
Ġg iddy
ĠS ister
ĠH ome
ir ley
am ole
Ġso bs
el ines
ent er
all ie
ĠA round
Ġsp out
Ġsome place
Ġla pped
ĠD ark
ĠD ays
Ġgr unted
Ġpo ll
ĠF ast
Ġsl iced
Ġbear Ã¢
ĠG reat
ac amole
Ġdis belief
ĠR ino
Ġcr op
Ġduck ies
sh ips
ee e
Ġlion ess
Ġfight ers
Ġpot ions
And rew
Ġcow girl
Ġwild life
St ir
Ġrec ently
iff y
Ġtick lish
Ġflag po
Ġtag s
Ġtag ged
Ġnail ed
Ġtap es
ĠSh rimp
Ġrestaurant s
Ġsent ences
Ġharsh ly
Ġharb our
ĠCo ffee
ik ki
Ġfabric s
Ġlap s
Ġmer rily
Ġgest ured
Ġencount er
Ġstumble s
Car rie
Ġwhimp ering
Ġflick ered
Ġwhir red
ĠScr uffy
Ġtran sport
Ġtack le
Ġtadpo les
tre ating
Ġrecy cling
ĠSyl via
Ġfeature s
Ġsid elines
Ġintern et
D oug
O ld
S l
c are
d own
f or
g um
i king
w orthy
in ic
re x
Ġm ow
id en
ĠS NAP
Ġit ching
ĠH appiness
ĠH azel
ĠB EEP
Ġfor mer
Ġk il
ĠM uffy
Ġcan n
um ents
Ġle ashes
ny ard
Ġho bbies
Ġpe w
ĠC ongratulations
Åĵ Dad
Åĵ Sometimes
ĠSo cky
ast ing
ĠSp eed
Ġde w
Ġsqu igg
ĠR hy
Ġgreen er
Ġslow s
Ġfight er
Ġtail or
Ġbar nyard
Ġgentle man
Ġca bb
Ġpath ways
St ri
Ġlay s
Ġsmooth ness
Ġsword fish
Ġpump ed
Ġcop ying
Ġavo iding
Ġsent ence
Ġmass ive
Jen n
Ġleak s
ĠRob ot
Ġhandful s
Ġcraft ed
Ġdandel ions
Ġspeck led
Els ie
Ġtend er
Ġcartwhe el
Ġsnoo ze
ĠCass ie
Ġpes ky
Ġcock pit
Ġtherap ist
Ġremark able
Ġflagpo le
C RA
M iles
M aisie
O scar
T onight
a nder
f ed
j usted
l ove
m atch
Ġs is
Ġh ars
Ġwa ry
Ġc ork
Ġc ases
ĠT iti
ĠS aid
or othy
ĠShe ila
ver ance
Ġr um
ĠI gn
st em
ĠB iff
Ġj er
ur f
Ġsp atul
Ġcl ient
Ġman ner
ĠE aster
Ġball et
Ġad justed
ĠP hoebe
ĠG low
ĠG inny
Ġsqu ashed
Ġcr itters
ĠK elsey
Ġsear ches
zz le
Ġgu acamole
Ġpers pect
Ġfree ing
Ġcollect s
Ġvill ages
Ġmed ium
Ġash ore
ĠCh ina
ĠDon na
ĠBl ood
Ġrat tled
Ġbull s
Ġoctopus es
Ġpun ched
ĠCl own
pe at
kelet on
ĠBun bun
Ġble nder
Ġraz ors
Ġrow boat
Ġrhy me
Sh ow
Ġflood ing
?' '
ĠEl isa
Ġwag ons
Ġdump s
Ġtweet ing
Ġtransf orm
Ġsprout ed
Ġket tle
Jon athan
ĠButter flies
ĠTre vor
Ġric hest
Sn ap
El iza
Ġreel ed
Ġplun ge
Ġunh armed
Ġanch ors
Ġcabb age
C ook
F ind
Q uit
Y ield
b ecause
Ġa ched
nd a
re peat
Ġf erris
Ġd ash
Ġn ick
ĠS ari
or ance
ĠH ard
Ġin ser
Ġbe ings
Ġpl ugs
se e
ĠM ail
ĠM anny
Ġsm ir
Ġgo ds
Ġcl inic
ĠW ar
ĠTimmy Ã¢
Ġpr ed
ro y
Ġint r
Ġsk ated
Mom ents
Åĵ it
Ġte ases
Ġbad ges
ĠG il
Ġnight time
Ġmum bled
Ġju ices
ĠK it
ĠWhat ever
Ġben ef
Ġpig tails
Ġent ert
ĠCh ad
Ġpaw ed
Ġtrust worthy
era ld
ĠBl ake
Ġshoot er
aw y
Ġbrilliant ly
ĠDan i
Ġgem stone
Ġhung rily
ĠSm iley
Ġadmire s
Ġhall ways
aulifl ower
ring e
Al most
Pe pper
Ġocc ur
Ġsy ringe
Ġconfl ic
Ġresponsib ly
Ġill ness
Ġroast ing
ĠButter fly
Ġjing led
Ġperse verance
Ġcartwhe els
ĠJes us
Ġblossom s
ĠPain ting
Ġunscrew ed
ĠScar lett
ĠCaterpill ar
Ġadver t
Ġentert ained
J illy
L ast
M s
M arry
O U
R ick
c oon
d ely
l iest
t een
Ġ ir
ed ro
in ated
Ġwas her
Ġg inger
ĠH igh
ĠH istory
et ti
ir ly
Ġwe aved
Ġsaw s
Ġbo l
Ġbr ist
ĠL il
ĠL ying
Ġsw ished
ro l
ĠD erek
Ġv ig
ged y
Ġpe aked
Ġfo il
Ġsn ored
ĠC al
Ġun he
ĠG aby
ĠG iant
Ġru dely
Ġgrass es
ĠDo lp
Ġcr ad
Ġduck y
Ġcool s
Ġcount ers
Ġpol icy
Ġpro gr
Ġfruit y
Ġsea side
Ġmad der
Ġpath way
St and
ĠSt ory
Ġvan ishing
iv id
Ġlow est
Ġengine er
ĠFr iday
ĠCl ucky
Ġspeak ers
Ġped dled
Ġreind eers
Ġsym p
Ġprop eller
Ġpoison ed
Fl o
Fl ora
Ġstitch ing
Ġentire ly
ĠCarl os
Ġtipt oe
Ġwadd le
pr int
Ġarr anging
Ġpuff ing
Ġtransf ormation
otch a
roll ed
Ġlim it
Ġapproach ing
Ġclip board
ĠCook ie
Ġdescri be
Ġcroak s
che ck
Wo ah
ĠClimb ing
Ġspeech less
beha ved
Ġgalax ies
Stan ley
Ġcleve rest
Ġetern ity
Ġphotograp her
Ġtourn ament
Ġbarbers hop
Ġspatul a
Ġinser ted
B all
D ylan
F el
F un
F ather
G otcha
J emma
P ay
m ock
w ee
Ġt us
Ġp oof
om ped
ing o
ĠS issy
ig inal
Ġbe aches
ĠM ind
Ġfe llow
Ġco ax
ĠL emon
ĠL ottie
ĠL oyal
Ġch ore
Ġover all
Åĵ Give
Åĵ Did
Ġpeople Ã¢
ĠP ine
ĠP uffy
Ġhead band
ĠN apping
man ces
Ġpro ven
ĠFl ip
ĠFl ower
Ġatt ent
Ġatt end
Ġbat tles
Ġround about
ĠSt at
Ġple ading
Ġpay ment
Ġfeed er
Ġmedic ines
Ġham mock
Ġshiver s
Ġorder ly
ĠWh istle
Ġobser vant
Ġsprink ler
hino ceros
ĠUn i
Ġmattress es
Ġbill boards
Ġconf etti
Ġfasc ination
Ġbeat s
ĠKe ith
ĠJeff rey
ĠJu an
ĠBo ots
Ġbeam s
Pe ace
Pe ppa
Ġaddress ed
ĠAr nold
ĠWoo lly
Ġpy jamas
Ġprofess or
Ġtriumph ant
Ġcraz iest
ĠMist y
oint ment
Gret a
ĠGor illa
Ġstoryt eller
Ġrins es
Ġbrist les
A NG
D ino
P ink
T ra
T iger
W il
b aa
i ful
l se
m ine
n or
s k
Ġa qu
Ġw ilt
Ġm ash
ar r
ar ious
id den
ĠS it
ĠH ood
ĠH ors
Ġshe pher
ĠB eetle
ĠB laze
un s
ent ed
Ġdo ze
all ory
ĠM icky
Ġre fe
ĠA c
ic he
ĠJ uly
Ġal as
ĠW ine
ĠW ild
ss a
pl oy
ĠD ara
Ġab s
Ġgra ze
bb ey
Ġshow ered
Ġpick le
ĠC op
Ġcon so
ious ly
Ġpu bl
Ġcr umbled
bo ve
Ġdark est
Ġel ves
Ġpat ched
Ġpink s
row s
Ġbelie ves
Ġpack s
ush room
Ġear ring
Sp ray
Ġdrum ming
ĠNo vel
Ġflut es
Ġafternoon s
Ġchimney s
Will ow
ĠCo al
uxu ry
ĠBo zo
cl oud
Mat ilda
shadow ing
Mon ths
ĠSl imy
Ġperfor mances
ĠPee king
Ne w
Ġradi os
Bra vo
ĠBel inda
Ġflaming o
Ġrefe ree
' '
B er
B an
B elieve
G ary
M ath
R everse
S ix
T hings
W as
f olk
m aybe
o vers
o dies
s omet
s ized
Ġt it
in osaur
Ġd awn
Ġp unch
il ia
ĠS at
Ġin ner
Ġe erie
ĠB umble
Ġsh rie
ht aking
Ġsp a
ĠL unch
Ġfl ushed
Ġsw arm
pl ing
Ġdog house
Ġpe ering
Ġhand ling
Ġsk illed
Ġpick y
ĠC ooking
Åĵ S
Åĵ Max
Åĵ Take
Ġeven ings
Ġey eb
Ġtra ce
Jo sie
ĠTh inking
iver s
Ġswim mers
Ġwood land
Ġjoy s
Ġpol it
Ġtreat ing
ang les
ĠAmy Ã¢
Ġfarmer Ã¢
Ġschool s
ho ld
ĠEmma Ã¢
ĠO y
Ġinc ident
Ġbubble gum
Ġple a
Ġcelebr ations
ĠBr ooke
ĠBl ocks
cept ion
az zy
Ġmel odies
ric ia
ĠPat ience
ĠSh irley
Ġsplit s
Ġbreat htaking
ĠTr ouble
ĠRo cco
Ġexerc ised
Ġhesit ate
Al bert
Ġsatis fying
Ġsi xt
ĠHa ving
Ġunf reeze
Ġclick s
ĠMel inda
ĠSqu are
Ġrip est
Ġexcept ion
ĠSk ye
Ġheaven s
Ġseatbelt s
Ġshoel ace
Ġmeaning ful
Ġplank s
Ġcooper ative
ĠRel ax
Ġvillain s
Ġrasp berry
ĠClar issa
Ġsul ked
Ġicic le
Ġtreet ops
Ġperspect ive
Ġconflic ts
A llie
M ara
P a
T re
W arning
e ak
i ya
l ie
w ord
z ed
z er
z ip
Ġwa ggy
Ġc ore
Ġd ren
ĠT am
ĠS af
ĠS uccess
ĠHe ather
Ġday care
Ġplay mate
Ġk i
ĠM ove
Ġre se
Ġre new
Ġre ception
Ġas se
Ġbo ssed
Ġsp arked
art en
Ġv arious
ap es
ĠF ur
ma king
Ġproud er
Ġover c
iz ards
ĠC asey
Åĵ Not
Åĵ thank
Åĵ Those
be es
Ġfamily Ã¢
ĠP hillip
Ġhas n
Ġma zes
Ġdis re
Ġrabbit Ã¢
ĠR az
ĠTh row
Ġba le
Ġdri bble
Ġmight iest
ee zy
Ġspl inter
umb ly
Ġcollect or
Ġcheer y
St upid
Ġhelpful ness
Ġremind ers
Ġstra p
ĠLe a
Ġsuggest ions
Ġang le
Ġfright en
na ppy
Ġthunder ing
Ġrug s
Ġcarp enter
Ġcheek y
ĠWill ow
Ġigloo s
Ġrecommend ations
ĠV icky
Jen nie
ĠCat s
ĠAn chor
ĠY ield
Ġconcer n
ĠEl i
Br other
ĠDuck s
Ġbea vers
Ġscri bble
Ġbloss omed
Ġtowns folk
Ġfail ure
ĠMir anda
ĠMir aculously
Pipp in
Rock y
Ġpy ram
ĠMag gy
ĠJes se
alf way
Ġdemonstr ated
Ġdism ay
Ġerra nds
Ġextingu isher
Chick ie
' !
C olin
G wen
M innie
P ol
P romise
T a
V iolet
e ather
p erson
r ated
t on
u ss
w in
Ġto ns
Ġp om
ĠT ap
Ġo ar
at ops
en sed
ĠS ec
on ica
ĠShe ep
ig uel
Ġup coming
my ard
ch a
ound s
ĠM er
ĠM or
ĠM ika
Ġsm ashing
ĠA head
Ġar c
Ġcl ang
ĠW orms
ĠW atching
Ġbr im
Ġcar ving
Ġch ug
Ġbl ouses
ĠD orothy
Ġv ain
Ġold s
Tom orrow
em ons
urp hy
Åĵ One
Åĵ Goodbye
ĠP ige
Ġclean est
Ġfar myard
Ġtra gedy
Ġafter ward
Ġapp ointment
Jo jo
Ġcre aky
Ġleft over
Ġarm our
Ġcho ked
Ġem ploy
cer atops
Ġspin ner
irt een
Ġneighbor Ã¢
Ġscar ier
ĠBe ars
ĠZ ane
Ġweak ly
Ġeld est
Ġlead ers
ĠMar la
Ġbull et
isk y
Ġpun ishing
Ġloop ing
Ġappreci ating
Ġambul ances
Ġgoal ie
Ġsteam y
Ġvillag er
ĠQuack y
Ġty ping
ĠMel anie
Ġtiss ues
Ġconvin cing
ĠDuck ie
lest e
ĠLa zy
Ġscow ling
Ġbas ics
Ġbaa ed
Ġtopp led
ĠHar old
Ġfluff ed
Ġhandy man
ĠBar ber
Ġwoo lly
Ġrev ved
ĠOp al
Ġphra se
Ġunderest imate
Ġshepher d
Ġdren ched
0 0
V al
W r
b ack
e lderly
h oo
i qu
i pt
l ot
t op
t ale
Ġ Yuck
Ġt ilt
Ġs ke
Ġs ensed
Ġw izards
Ġb ases
Ġd itch
Ġp oo
ĠT en
is itive
Ġsa m
ĠS keleton
Ġr ushes
Ġdo c
ĠM itch
Ġsp ool
ĠJ ada
Ġro le
ĠL as
Ġv ases
Ġdown stream
ish a
ĠC orn
Åĵ Time
Åĵ Great
Ġred dest
ĠSp rinkles
Ġfro st
Ġlight bul
Ġdin ners
Ġsho ved
Ġsnow s
ĠTo ast
ĠFl ick
oun ces
ale y
ĠLe on
Be a
Be es
Ġfil th
Sp icy
Ġed uc
Ġang les
Ġrose mary
ĠSn ake
ĠFr ance
ĠFr ances
Re lease
Ġshoe box
Ġmechanic s
Ġagree ing
do h
Sh ut
Sh all
Ġreply ing
ĠRich ard
ÅĵThere Ã¢
Ġswat ted
Aw w
ĠJump ing
ĠPop corn
Ġpinec ones
Squ irrel
Ne igh
Ġunp leas
Sw im
ĠDoll s
Ġspir al
ĠLast ly
ĠBro ccoli
ĠPrun es
Ġvolunt eer
Ġjig saw
Ġdise ase
Ġgarl ic
Ġinqu isitive
Ġprofession al
ĠStat ue
Ġaqu arium
Ġshrie ked
Ġrenew ed
C arefully
D inner
K en
M uch
M any
P uppy
R ita
W ater
Z oomy
c est
Ġs ooo
Ġc ack
Ġp ity
ĠT an
Ġn av
Ġn umb
Ġth irteen
ĠH ugs
Ġbe ady
st age
ent ions
ĠM os
Ġre eds
Ġsm udged
ĠA corn
ic als
if ic
Ġla unched
Ġch ief
ĠD are
Ġv irt
au ce
ump ed
Ġlong ing
Åĵ Lucy
Åĵ Ready
ĠSo ap
hn ess
ĠP uzz
ĠP edro
Ġdra ined
Ġcon stantly
Ġun even
ĠDad a
ĠG abe
We e
ĠR est
Ġcr unched
Ġdelic ately
Ġcast ing
Jack Ã¢
Ġpract ise
Ġlay ers
oph ones
Ġmot iv
Sp in
Ġcompet ed
Ġrece ipt
Ġspeed ed
aff od
Ġhelpless ly
Ġbet ray
ĠTr udy
Ġrequ ire
Ġport al
Ġglo ssy
Sh are
Ġflood s
Ġann ivers
Blue y
Ġramp s
Hmm m
ĠBa o
Sweet heart
ilar ious
Ġadop ted
Ġlaz ily
ĠFore st
Ġrelation ships
ĠLance lot
Ġheed ed
Ġchem icals
Ġbol ts
Ġannivers ary
! !
E R
F ish
F ifi
G as
K n
K elsey
M ir
M ild
M ail
M anny
N urse
N icky
S it
f r
p om
s n
Ġa ward
Ġh uh
Ġh ilarious
Ġf al
Ġf ain
Ġf les
Ġl ure
Ġo oh
ĠS nappy
ĠH igher
Ġher mit
ly de
ĠM ushroom
Ġfa bul
Ġch or
Ġch omped
ro ad
ĠF erris
ĠF ierce
ret t
Ġmo pping
Ġclo cks
Åĵ Yum
Åĵ but
ct ic
Ġey ed
oon s
ĠG uns
Ġbro ad
ĠR epeat
Ġper haps
Ġlight ening
ĠIn k
Ġslow ing
Ġleft overs
ĠLila h
ĠThere Ã¢
Ġbreak able
Ġpa uses
ĠAll ig
Ġtrain er
Ġsnack ing
Ġpass word
Ġmin ers
Do ctor
Ġimag ines
Ġent ers
ĠJimmy Ã¢
Ġsaf aris
Ġdi et
lex ible
Ġstra pped
ĠLe arn
ĠSome where
Ġmeant ime
Ġjew ell
Ġcam els
Ġmem orable
Ġpost ed
Ow l
Ġraven s
Ġobser ves
ĠTr unk
Ġquarrel s
Ġgrill ing
Ġveil s
Ġport s
Ġbak ers
aa ah
stick s
Ġnood le
Ġsy stem
Ġtuck ing
ĠUp on
Any thing
Ġaim ing
Ġsoot hed
Ġflick ering
Ġsouvenir s
Ġrack et
Ġmold y
Ġreflect ed
Wheee e
Ġsunbe am
ĠPot ato
ĠBes ides
Ġsales person
awy er
Ġtus ks
Ġconso le
Ġeduc ation
Ġunpleas ant
Ġfles h
Ġfabul ous
A pp
A ly
A rr
A udrey
B oun
E lephant
G reen
L ost
N ed
T ammy
V ictory
Y oga
v able
Ġw ed
Ġb oop
Ġf urt
Ġd affod
ĠT uffy
Ġg ur
ĠS ing
ĠS ack
ĠS eal
ĠS ydney
ri cket
Ġbo b
ĠA choo
Ġsp iciest
ight ed
ĠL ord
ĠE n
Ġgr illed
Ġpe gs
uc ted
He aring
ĠSo ft
Ġfr illy
Ġun ity
Ġun att
Ġbre w
Ġwatch ful
fere n
ĠN aomi
uff s
av in
ĠGra ham
Ġgentle men
Ġjourn als
Ġshap ing
Ġband ana
Ġreturn s
Ġhunt ed
ĠBrown y
ĠDan ger
Ġfrag rant
Ġresc u
ĠSn akes
Ġeras es
Ġlime ade
Ġchess board
Ġpur ses
Ġoper ator
Ġwaist s
Ġsting ing
Ġtravell er
Ah hh
Ġwrink les
Ġgri nd
ĠCra zy
Ġscen es
Ġantic s
Ġwhimp er
ĠSw an
ative ly
Ġdoz ing
ĠLa ila
Ġripp le
Ġdev oured
ĠTe ach
ĠSte ak
Ġswoop ing
OO M
Rain bow
Ġscree ching
Turn s
ĠStu bb
Ġadv ised
ĠStr ong
Er in
ĠBan anas
Ġdut y
Cle an
Ġbon fire
Ġponder ed
Ġimit ate
ĠEng lish
Ġunhe althy
Ġoverall s
Ġpubl ic
Ġnav ig
Ġvirt ue
Ġbetray ed
Ġfurt hest
? !".
D ra
F ore
G old
J am
M an
O AR
Y ep
g a
g ant
s uit
u le
Ġ ,
Ġt ipping
Ġh y
Ġh ired
Ġf erry
Ġm owing
ĠT affy
at ers
ĠS our
on ely
ĠH orse
et ch
Ġst a
Ġst ooped
Ġon board
Ġsm eared
Ġfe at
ĠW orry
ĠL ara
Ġwill ow
Ġpo d
Ġpo et
Ġsn out
Ġsn arl
Ġfi ves
Ġgl inted
be have
ĠP udd
ĠP aint
Ġdis p
ĠR hinoceros
ass ion
Jo dy
ĠIn ch
Ġfair ness
Ġsquir m
Ġpass er
Ġfairy tale
Ġneigh s
Ġsharp er
Ġsplas hy
ĠCh ildren
ĠSt reet
ĠBe aky
Ġpoor ly
Who ever
Sp arky
Ġdeliver ies
ĠSh ade
Ġax es
quito es
Ġregret ting
Ġjunk yard
Al an
Ġfash ions
Fr ustrated
ĠMatt ie
Car oline
ĠSk ipping
abra cadabra
erg arten
Ġdisagreement s
Ġinvol ve
Ġinno c
Ġdetect ives
Dr op
Ġresour ce
Ġoutsmart ed
Har riet
Ġclums ily
ĠGeor gia
Ġhyd rant
Ġsuperp owers
Near by
En ough
ĠJem ima
ĠCon nor
Jose ph
Alf ie
Ġprogr am
Ġske pt
Ġchor us
L ee
M ack
P et
R on
R ich
S ummer
U gh
m oo
n as
p aper
v ation
Ġt art
ou rage
Ġl itt
er ri
en ched
en zie
im et
Ġth or
ir us
Ġr ap
ĠB uffy
ĠB erry
un ia
Ġre as
ĠA bove
ĠE ag
ara h
Ġdog gies
Ġfind ings
Ġcare t
ĠF ake
Ġover coming
ty ard
ĠC am
ĠC omp
Åĵ let
Åĵ Today
ĠHer b
Ġgl int
Ġcol ony
Ġkeep ers
Ġwind mill
Ġapp ly
ĠR ing
Jo die
Ġmess en
ren ce
ash ion
Ġgrow th
Ġpa using
Ġcour tyard
Ġwhist ler
Ġsharp ening
Ġspin ach
ont ail
Ġsaf est
Ġban ners
ĠSt acey
Who se
Ġrid dles
Ġrelax ation
Ġaw ait
Ġfour teen
ject ed
ĠMy a
Ġdust ing
ĠBu ild
Ġcareless ness
Ġshut s
Ġquestion ing
ĠSh aron
ĠCl over
Ġmicr ophones
Ġbur sting
Ġrag ing
erc ise
ĠV ict
ĠJoy ce
Ġspaceship s
ĠAm ie
ĠLou isa
Ġpartic ip
Ġcent imet
Ġthroat s
Ġboom s
Ru dy
Surpr isingly
Ġmarve lled
Ġbouqu ets
Ġgallop ing
oss om
ĠBra ndy
Ġfunn ier
Ġscut tling
ĠSte am
Ġreassuring ly
Ġmarvel ous
Ġcommand s
Luc as
Se an
ĠDream s
ĠCrocod ile
CRA SH
Ġbenef it
Ġpolit eness
Ġoverc ame
Ġunatt ended
A Y
B ongo
P L
c red
d el
h ony
l antern
p op
r d
w i
y nt
he lp
Ġa a
Ġf ame
Ġl ack
ĠT ad
ĠT uck
en us
Ġn ook
ĠS omeday
Ġth ri
ĠThey Ã¢
Ġe el
Ġr akes
Ġk o
ic ole
ĠJ umper
Ġkn itted
um bo
Ġsc ents
Ġsee ming
ings hot
Ġbl aring
arn ed
Ġgr unt
Ġgr ouch
Ġkne ad
Ġsl ingshot
Ġsk id
Ġclo gged
Ġqu alities
Ġpret z
ĠMia Ã¢
aut iously
Th row
Åĵ Follow
be ar
ĠP ippy
th rough
ĠG host
ĠSp ud
Ġdis l
Ġstrong ly
ĠN ight
ĠN umber
Ġba les
Ġcr u
Ġparents Ã¢
Ġcold est
Ġdream land
Ġel ated
ĠK id
ĠK ip
eter red
Ġsec ured
ract ice
ĠGrandma Ã¢
ub s
Ġmilk sh
Ġclever ly
ĠSome how
ĠDon ny
Ġhospital ity
Ġner ves
Ġboard ing
aw r
Ġdepend ing
ray ing
ĠMar ian
ĠMar io
ĠMar go
Ġscatter s
ĠPe ppy
Ġquar ter
Ġbasketball s
Ġpor cup
Ġmarry ing
Ġyach ts
ĠRo d
ĠRo llie
Mmm mm
Ġbeg ins
Ġbes ides
Ġliqu ids
ĠMo dest
ĠJay a
Tw ist
Ġresponsib ilities
Mat ty
ĠPo ison
Ġplayd ough
ĠPin ching
ĠDra wing
Ġprank s
Pr ince
Ġanten nas
Bird ie
Cra bby
Ġtroll ey
Ġdiv ide
Ġproduc ts
Ġsnoo zing
Ġlaz iness
Ju an
Ġhyd rated
Ġfoss il
ĠDen nis
raw berry
Ġcav ity
Ġdecre ase
ĠVo lcano
ĠSha wn
Ġcowgirl s
ĠRhy thm
Ġoccur red
Ġvig or
ĠNovel s
ĠSat urn
Ġeyeb rows
Ġdisre spect
Ġlightbul b
D ream
E S
L ad
L emon
h ia
i eces
w ould
Ġf ert
Ġd ents
Ġm ould
Ġo beying
Ġg ut
Ġha unted
ĠS el
le af
ĠShe r
ĠShe Ã¢
ĠB and
Ġfor ms
el a
ĠJ ing
Ġme w
ĠW anda
Ġro aming
ĠL umber
Ġfl ipper
ro ve
ĠD isappointed
ĠD inosaur
Ġv irus
Ġtree Ã¢
ĠF ireworks
Ġsl im
Ġsl umped
au rice
Ġhand c
Ġmo pped
ak ers
Ġfo l
em s
ĠJo g
ĠC ont
ĠC auliflower
Åĵ Excuse
It s
ĠP erry
ĠP epe
ĠP arrot
Ġcon cl
Ġun imp
Ġfish ies
Ġrain water
Ġru den
Ġru lers
Ġbutter y
Ġmum mies
sh rink
Ġcold ness
Ġcho king
ĠMolly Ã¢
Ġwhe e
Ġcow ard
to gether
Ġrep res
Ġstra ined
Ġscar iest
ĠZ ebra
Ġclass mate
Ġtick ed
ĠBr ing
ĠBr idget
Ġdifficult ies
Ġstubborn ly
Ġdough nut
Ġflex ib
Ġstamp ing
Ġtray s
Ġtwink les
ĠRo ss
Ġstrength s
Ġstraight ened
Ġimprove ment
ĠRe al
Ġhurric anes
Ġstrang ely
Ex it
Ex cellent
Ġsting y
ĠGr ant
Ġpout ing
Ġcor als
ĠEl mo
Ġmer cy
Ġspoonful s
Ġposs ibly
ĠSc issors
sol ve
isc illa
Ġpuck ered
Ġtin iest
Ġsnug ly
Fro sty
Ġbas king
Matt hew
ĠBa ld
Sweet ie
Ġaccess ory
Ġassist ance
Ġvacu umed
Ang ie
Ġcooper ation
ĠNear by
Ġwitness ed
ĠCloud s
ĠCarrot s
ĠMix y
ssssssssssssssss ssssssssssssssss
Ġfoss ils
Ġcla im
Ġrumm aged
ĠAmaz ingly
Ġunra ve
ĠElli ot
Ġbrief case
Ġjewell ery
Ġcaret aker
Ġmessen ger
ynt hia
Ġgrouch y
Ġruden ess
A maz
B ooks
G ail
L ydia
l ong
w oof
Ġt attered
Ġf itted
Ġhe ap
om a
ĠT ur
ĠT iggy
Ġn on
Ġn orth
Ġsa cked
ĠH ilda
ot ic
Ġu gl
ĠB ry
ĠB ull
se at
Ġar ose
ĠBen ji
Ġno is
Ġtre k
ĠL olly
Ġch art
ĠE len
Ġv iolet
Ġv ivid
ist ic
ist ling
bb er
ĠF ive
Ġho pper
Ġtr ink
Tom Ã¢
Ġeach other
Åĵ Yeah
Åĵ Yummy
Åĵ what
Ġgl ance
Ġgl uing
ĠP aper
Ġye ah
ĠN eed
ĠN aps
ĠN ikki
Ġcook book
av is
app ily
Ġpi an
Ġpol ishes
ĠJen a
Max ine
Ġpre feren
Ġbelong ing
ĠO il
unt er
Ġspin ny
Ġwild est
Ġgener ations
Ġhonest ly
Ġadventur ing
Ġmap le
Ġjewel er
Ġapolog ise
ĠDan ie
Ġcompetit ions
kn owing
gu in
ĠFr anny
Ġearth worm
ric ate
Ġclub house
Ġjudge ment
Ġpit ched
Ġsub st
Ġinf ected
Ġcaptain s
Ġlandsc apes
Cl are
Ġsteep er
ĠMart a
Ġhi king
ĠSc amp
ĠListen ing
Br ad
Ġtrot ting
Ġgrandd ad
Car ly
Ġger m
Ġquarre lled
Ġsoot he
Ġill um
Ġstrum ming
Ġcaw ing
ĠDe an
ĠDe af
Ġscow l
Ġharvest ed
Ġshimmer y
Ġcy cle
Ġviol ins
Ġrelation ship
ĠCount ing
Ġtul ips
ĠDri ver
Ġmult ip
Ġsquigg ly
Jenn ifer
ĠDolp hins
ĠHors y
Ġsixt een
Ġrese arch
ĠPige on
Ġemploy ee
fr uit
Ġporcup ine
Ġflexib ility
! ?
A aaah
C K
C aptain
F ur
G eor
H igher
J ade
K yle
M ind
M aking
M oe
V o
W alter
Z ap
b oy
f ives
p ow
t asting
Ġm mm
ĠT iff
ĠT rying
il iz
Ġn a
ll er
oo ch
ri el
ad ise
ĠB al
ĠM allory
Ġse vere
ĠW itch
Ġcar go
Ġsw ish
uck le
Ġbl u
Ġgr ime
ĠF air
Ġint ricate
Ġmo ss
Ġsun hat
ĠJo gging
ĠC ir
th a
ĠG ently
ĠG iraffe
ĠSp iders
ĠN O
Ġstore owner
Ġdr unk
Ġhat ing
Ġrest s
sh a
sh irts
Ġhair brush
Ġdri bbled
Ġrel uct
ĠK night
Ġacc ur
Do ll
arp er
Ġpar ach
Ġpar adise
Ġhon our
ĠGo lf
ĠSt ars
oop s
oop ing
Sp eedy
Ġnumber ing
Ġpil ing
Ġtoast ed
Ġfrag rance
Ġcamp ers
Ġten nis
ĠSh ine
ĠWh ale
Ch oose
Ġbaseball s
Ġclassroom s
ĠV ictory
Ġconf ron
Ġcrumb ly
Ġexha ust
Ġlamb s
?' "
Pe ep
Ġblast ed
Ġoffic ial
Ġsav our
Ġbeeh ives
Ġexperiment ing
Ġconnect s
Ġcourageous ly
ĠLu is
cell ed
Ġgrump ier
Ġsuck ing
ooh oo
Ġfanc ier
Ġperse vered
ĠSid ney
organ ized
Ġins ides
Sk ip
Ġprepar ation
Ġkil os
somet imes
Ġtit le
Ġreception ist
Ġpasser by
Ġvigor ously
Ġpreferen ces
knowing ly
! ?"
A ha
B ir
C ir
G ray
G ently
H ide
K aitlyn
R est
S ounds
Z ee
l iness
m ower
s ion
w is
y lves
Ġ ess
Ġt amb
Ġs ce
Ġb iking
it ions
Ġl ou
Ġl ane
Ġm oose
ĠT ink
at het
Ġn udges
ĠS ail
ĠS urrender
ut o
ut or
Ġr aged
Ġbe llowed
ĠI ron
ĠB oris
ĠM arge
Ġsm udge
Ġbo ing
ĠA ddy
ic an
ic ier
Ġfriends Ã¢
Ġback seat
ĠW indy
Ġbr ow
Ġran ge
Ġran cher
ĠL es
ĠL izard
Ġch omp
Ġint ense
by n
Ġkind ergarten
Ġfast en
Åĵ we
ast le
Ġred s
ĠP ower
Ġfr ills
Ġun knowingly
Ġclimb ers
ĠSp inning
ĠR at
Ġlea ked
Ġtri ceratops
Ġcr an
Ġcr ink
ster o
Ġlight est
Ġdri ps
Ġdelicious ness
Ġgent ler
ĠK angaroo
eter ia
Ġpre c
Ġtower ing
ord on
ĠMary Ã¢
Ġring master
ĠCh ubby
Ġign orance
Ġpool s
Ġstra nded
Ġbored om
Ġfavour ites
Ġfoolish ly
Ġcro iss
ĠRose mary
Ġfre es
Ġeng ul
Ġcur ling
Ġgraceful ness
ĠFr itz
Ġsuper vision
Ġmodest ly
Ġraft ing
Ġgym n
Ġlawn mower
Ġbun s
Ġcontro ls
ĠMat ches
Cl uck
Mar ch
Ġachieve ments
Ġast ound
Ġrefle ctions
ĠMo ira
Ġweekend s
Miss y
the less
Ġsill ier
Ġdiso beying
Ġwealth ier
Ġhabit at
Ġ5 0
ĠPet unia
ĠWolf ie
Ġjing ling
ĠDot ty
Ġfif th
Ġcaf eteria
Ġremo ves
Ġobl ige
Ġsauc er
Ġsauc es
ĠMin ty
Ġsumm it
Ġpest s
ĠCott ontail
ĠCe leste
Nell ie
Ġadvert ise
Ġfain ted
Boun cy
Ġresource ful
Ġreas ons
Lad ies
Ġconfron ted
ylves ter
Ġtamb our
Ġsce p
A T
C ount
C hew
H istory
I T
L ight
M oon
M ac
O p
R awr
Z ack
a iley
b irds
f ight
i work
n el
o ise
u u
v is
y uck
y ield
Â ł
Ġ vers
Ġto ken
Ġwa ft
Ġf idget
it or
Ġd read
ĠT oy
ĠT ubby
at a
at he
ĠS and
Ġe v
oo oo
Ġst ock
ĠB athing
ĠA ce
ĠA llowed
Ġcl ink
ĠW ind
Ġco y
Ġpr oof
ĠL in
ĠE van
ĠD illy
ĠF ix
Ġhand iwork
Ġqu ench
Ġunt ouched
aut iful
ĠC lyde
Åĵ F
Åĵ Bob
Åĵ Molly
Åĵ Little
Ġte en
Ġgl are
ct ing
ĠG reed
ila h
Ġcut er
Ġdark en
Ġslow est
Ġelse where
Ġbuild s
Ġwall ets
Ġpat ter
Ġcomp art
ĠGra pe
Ġpa wn
Ġcho ppy
Ġheal er
Ġbrown ies
Ġspoon ed
Ġfeather y
Molly Ã¢
Ġlad le
Ġlast s
ĠSt art
Ġstra nds
ĠZ oo
fl ake
ĠMar vin
Ġjug s
ĠSh op
Ġtrumpet ed
Ġreco ver
Ġshort ly
Ch ar
ĠRo ll
Ġperfu mes
Ġcrow ds
ĠRe ach
ĠIs abel
Mar ley
Ġleap s
ĠMo llie
Ġdef ended
Ġcor rid
Ġloc ation
ĠSw ans
Rob o
Ġswallow s
ĠButter cup
ĠLuc a
ĠHar vey
Ġwig s
Ġoverfl ow
Â© .
Butter flies
ĠSwim my
uccess ful
Ġphotog raph
Ġsele ction
Ġsele cted
Ġclums iness
ĠRon ny
Ġdonut s
Through out
ĠHonest y
Ġtul ip
Ġcla imed
ĠPol ice
Ġarcher y
Gl ad
ST OP
ĠSaf ety
ĠRaz or
Ġscep ter
! !"
1 0
C ould
D aughter
M os
P ing
R uff
S hoot
T ree
W oohoo
` `
b ling
n et
s al
v oc
Ġ ut
Ġa uth
Ġa stero
Ġf ried
Ġf ero
Ġp ars
ĠT own
Ġn udge
le c
ĠH ay
Ġu lt
Ġ" '
Ġst am
ĠB umpy
Ġfor ked
Ġsm ack
ĠA bbey
Ġback up
op ed
op en
ĠL uxury
ĠL emons
Ġsw ore
ĠF rench
Ġint entions
Ġsun ning
ort ing
Åĵ Tommy
No ah
ĠP ush
Ġdra ins
Ġun be
ĠG erald
Ġdis gu
Ġrain storm
aught ers
Ġcr ate
Ġcr anny
Ġdraw br
Ġrest ful
Ġste als
Ġflower bed
Ġcool ing
Ġice cream
ĠTommy Ã¢
Ġmar cher
Ġsign ature
ere sa
ush i
col m
let e
Ġpract ices
Ġshr ugging
ĠCh ippy
ĠSt arry
ĠOn ion
Ġtent atively
light s
ĠBl ossom
Ġrid ers
Ġpray s
Ġfat ter
ict able
Ġcheap est
Ġmis beha
Ġtruth ful
Ġer asing
Ġgolf ers
Ġreef s
Ġcomplain ts
Ġiron ed
Ġinvestig ated
Ġinstr ucted
ĠRe g
Ġprice less
Mar cus
Ġinsp ection
cl ick
Ġfeast ed
Ġexpress ing
Ġencourag es
ĠChe ster
Any a
yl ie
Ġinvent ed
Ġthump ing
Ġbomb s
Ġpleas antly
po st
ĠChick en
ĠSe a
ĠMa ia
Ġescap es
Ġenerg ised
Ġmur m
ĠBlack ie
Ġdroop ing
De bbie
Ġgalax y
Er nie
wh oosh
ĠPir ate
Ġcann on
Ġjer sey
Ġabs or
ĠLas er
Ġaa hed
Ġreluct ant
C r
C ow
D ead
I G
L ady
M int
M uffin
O ther
S a
S id
T oni
Y up
c led
d ong
i ven
i ety
k ward
p re
p ol
u bb
Ġa ye
Ġs outh
Ġs ushi
Ġto ck
Ġh unts
Ġh umbly
Ġl ink
Ġc ert
Ġp el
Ġo val
Ġn or
Ġsa pling
ĠThe o
ĠS PL
im id
ĠH ad
ri but
Ġsh aved
al ie
ĠM Y
ĠM atch
ĠM aurice
Ġbo ar
ĠTim Ã¢
ĠA ustr
Ġcan celled
ic i
Ġbr at
Ġcar rier
