{"<s>":0,"<pad>":1,"</s>":2,"<unk>":3,"<mask>":4,"!":5,"\"":6,"#":7,"$":8,"%":9,"&":10,"'":11,"(":12,")":13,"*":14,"+":15,",":16,"-":17,".":18,"/":19,"0":20,"1":21,"2":22,"3":23,"4":24,"5":25,"6":26,"7":27,"8":28,"9":29,":":30,";":31,"<":32,"=":33,">":34,"?":35,"@":36,"A":37,"B":38,"C":39,"D":40,"E":41,"F":42,"G":43,"H":44,"I":45,"J":46,"K":47,"L":48,"M":49,"N":50,"O":51,"P":52,"Q":53,"R":54,"S":55,"T":56,"U":57,"V":58,"W":59,"X":60,"Y":61,"Z":62,"[":63,"\\":64,"]":65,"^":66,"_":67,"`":68,"a":69,"b":70,"c":71,"d":72,"e":73,"f":74,"g":75,"h":76,"i":77,"j":78,"k":79,"l":80,"m":81,"n":82,"o":83,"p":84,"q":85,"r":86,"s":87,"t":88,"u":89,"v":90,"w":91,"x":92,"y":93,"z":94,"{":95,"|":96,"}":97,"~":98,"¡":99,"¢":100,"£":101,"¤":102,"¥":103,"¦":104,"§":105,"¨":106,"©":107,"ª":108,"«":109,"¬":110,"®":111,"¯":112,"°":113,"±":114,"²":115,"³":116,"´":117,"µ":118,"¶":119,"·":120,"¸":121,"¹":122,"º":123,"»":124,"¼":125,"½":126,"¾":127,"¿":128,"À":129,"Á":130,"Â":131,"Ã":132,"Ä":133,"Å":134,"Æ":135,"Ç":136,"È":137,"É":138,"Ê":139,"Ë":140,"Ì":141,"Í":142,"Î":143,"Ï":144,"Ð":145,"Ñ":146,"Ò":147,"Ó":148,"Ô":149,"Õ":150,"Ö":151,"×":152,"Ø":153,"Ù":154,"Ú":155,"Û":156,"Ü":157,"Ý":158,"Þ":159,"ß":160,"à":161,"á":162,"â":163,"ã":164,"ä":165,"å":166,"æ":167,"ç":168,"è":169,"é":170,"ê":171,"ë":172,"ì":173,"í":174,"î":175,"ï":176,"ð":177,"ñ":178,"ò":179,"ó":180,"ô":181,"õ":182,"ö":183,"÷":184,"ø":185,"ù":186,"ú":187,"û":188,"ü":189,"ý":190,"þ":191,"ÿ":192,"Ā":193,"ā":194,"Ă":195,"ă":196,"Ą":197,"ą":198,"Ć":199,"ć":200,"Ĉ":201,"ĉ":202,"Ċ":203,"ċ":204,"Č":205,"č":206,"Ď":207,"ď":208,"Đ":209,"đ":210,"Ē":211,"ē":212,"Ĕ":213,"ĕ":214,"Ė":215,"ė":216,"Ę":217,"ę":218,"Ě":219,"ě":220,"Ĝ":221,"ĝ":222,"Ğ":223,"ğ":224,"Ġ":225,"ġ":226,"Ģ":227,"ģ":228,"Ĥ":229,"ĥ":230,"Ħ":231,"ħ":232,"Ĩ":233,"ĩ":234,"Ī":235,"ī":236,"Ĭ":237,"ĭ":238,"Į":239,"į":240,"İ":241,"ı":242,"Ĳ":243,"ĳ":244,"Ĵ":245,"ĵ":246,"Ķ":247,"ķ":248,"ĸ":249,"Ĺ":250,"ĺ":251,"Ļ":252,"ļ":253,"Ľ":254,"ľ":255,"Ŀ":256,"ŀ":257,"Ł":258,"ł":259,"Ń":260,"he":261,"Ġt":262,"Ġa":263,"Ġs":264,"Ġw":265,"nd":266,"Ġthe":267,"ed":268,"Ġand":269,"Ġto":270,"Ġb":271,"in":272,"Ġh":273,"Ġwa":274,"re":275,"ou":276,"Ġf":277,"it":278,"Ġl":279,"Ġc":280,"Ġd":281,"er":282,"Ġhe":283,"Ġm":284,"Ġp":285,"Ġwas":286,"om":287,"ĠT":288,"Ġo":289,"ay":290,"ar":291,"is":292,"ing":293,"il":294,"Ġg":295,"id":296,"at":297,"en":298,"Ġn":299,"Ġsa":300,"Ġha":301,"ĠThe":302,"ĠS":303,"an":304,"im":305,"or":306,"on":307,"Ġit":308,"Ġth":309,"ll":310,"le":311,"ĠH":312,"ot":313,"Ġher":314,"et":315,"ir":316,"ĠShe":317,"es":318,"ĠHe":319,"Ġin":320,"ver":321,"ut":322,"ow":323,"ĠThey":324,"ck":325,"Ġe":326,"Ġy":327,"Ġu":328,"ld":329,"oo":330,"Ġsaid":331,"ily":332,"ig":333,"Ġr":334,"Ġ\"":335,"Ġbe":336,"am":337,"ĠI":338,"Ġst":339,"ke":340,"ce":341,"ve":342,"Ġshe":343,"pp":344,"ith":345,"Ġwith":346,"Lily":347,"On":348,"Ġon":349,"Ġyou":350,"Ġof":351,"ked":352,"ri":353,"nt":354,"Ġpl":355,"Ġhis":356,"Ġso":357,"ad":358,"very":359,"Ġday":360,"Ġthat":361,"Ġup":362,"Ġplay":363,"Ġhad":364,"st":365,"Ġthey":366,"ĠLily":367,"Ġwe":368,"Ġmom":369,"ĠB":370,"Ġfor":371,"el":372,"un":373,"ould":374,"'s":375,"The":376,"my":377,"Ġli":378,"ch":379,"Ġhapp":380,"Ġwant":381,"ent":382,"Ġsh":383,"itt":384,"out":385,"her":386,"Ġnot":387,"Ġdo":388,"se":389,"ly":390,"ome":391,"Ġvery":392,"ound":393,"end":394,"all":395,"Ġwh":396,"ime":397,"Ġk":398,"ittle":399,"Ġtime":400,"al":401,"Ġlittle":402,"ĠM":403,"Ġne":404,"ht":405,"Ġthere":406,"ĠĊ":407,"Ġis":408,"Ġhappy":409,"Ġre":410,"Ġbig":411,"Ġsm":412,"ĠIt":413,"Ġbut":414,"Ġan":415,"ra":416,"Ġsaw":417,"ry":418,".\"":419,"riend":420,"Ġfriend":421,"Ġas":422,"ack":423,"One":424,"ide":425,"ake":426,"'t":427,"ug":428,"!\"":429,"Ġloo":430,"Ġwere":431,"ter":432,"ved":433,"ore":434,"Ġlo":435,"Once":436,"ec":437,"Ġtoo":438,"Ġhim":439,"Ġbo":440,"Ġgo":441,"Ġse":442,"Ġare":443,"Ġj":444,"irl":445,"ard":446,"Ġwanted":447,"ill":448,"ĠTim":449,"Ġthem":450,"Ġgirl":451,"Ġupon":452,"Ġout":453,"Ġat":454,"Ġtheir":455,"ur":456,"ind":457,"fu":458,"way":459,"ĠA":460,"Ġdid":461,"Ġsp":462,"Ġsmil":463,"Ġcould":464,"hen":465,"Ġhave":466,"ain":467,"art":468,"hed":469,"Ġex":470,"rom":471,"Ġar":472,"Ġcan":473,"Ġwent":474,"ic":475,"ĠBen":476,"lp":477,"ful":478,"ĠJ":479,"ood":480,"?\"":481,"Ġfriends":482,"hing":483,"ight":484,"Ġnam":485,"Ġkn":486,"Ġall":487,"Ġhelp":488,"Ġsay":489,"um":490,"one":491,"ark":492,"Ġback":493,"You":494,"ĠTom":495,"Ġcl":496,"Ġfun":497,"are":498,"Ġno":499,"Ġle":500,"op":501,"Ġsc":502,"Ġal":503,"Ġsmiled":504,"Ġnamed":505,"oug":506,"Ġman":507,"elt":508,"Ġloved":509,"side":510,"ick":511,"ĠOne":512,"Ġtoy":513,"Ġlike":514,"Ġasked":515,"Ġfelt":516,"Ġfe":517,"Ġlooked":518,"Ġsee":519,"Ġme":520,"Ġsome":521,"Ġaround":522,"ame":523,"omet":524,"ĠW":525,"Ġro":526,"Ġbr":527,"ure":528,"Ġbir":529,"ice":530,"ĠTimmy":531,"get":532,"Ġwould":533,"Ġboy":534,"Ġstart":535,"ong":536,"ss":537,"Ġbird":538,"Ġsomet":539,"Ġfa":540,"Ã¢":541,"âĤ":542,"âĤ¬":543,"dd":544,"ings":545,"Ġag":546,"ade":547,"Ġmake":548,"Ġwor":549,"Ġwhat":550,",\"":551,"king":552,"ĠYou":553,"ĠBut":554,"Ġsays":555,"Ġran":556,"own":557,"ie":558,"Ġaway":559,"Ġtre":560,"gether":561,"ared":562,"ag":563,"Ġstarted":564,"oud":565,"if":566,"Ġmade":567,"Ġcar":568,"Ġsomething":569,"Ġtogether":570,"ther":571,"Ġpark":572,"Ġco":573,"ited":574,"Ġsad":575,"Ġother":576,"Ġnew":577,"Ġfrom":578,"Ġput":579,"ell":580,"Ġexc":581,"Ġla":582,"Ġpr":583,"Ġhug":584,"ĠL":585,"ble":586,"ook":587,"Ġagain":588,"ach":589,"Ġmu":590,"Ġgood":591,"Ġwhen":592,"Ġhome":593,"ep":594,"Ġwho":595,"ried":596,"Ġfl":597,"est":598,"hat":599,"Ġthen":600,"Ġfound":601,"Ġch":602,"pped":603,"Ġdec":604,"as":605,"Ġwal":606,"Ġget":607,"qu":608,"Ġplaying":609,"nn":610,"ought":611,"Ġsw":612,"ĠE":613,"pl":614,"ally":615,"ous":616,"Ġthings":617,"Ġliked":618,"uck":619,"Ġexcited":620,"Ġgot":621,"ro":622,"Ġbl":623,"ided":624,"ara":625,"ave":626,"Ġdecided":627,"Ġevery":628,"Ġyour":629,"ĠD":630,"Ġcame":631,"ĠMom":632,"Ġdog":633,"ax":634,"Ġscared":635,"Ġv":636,"ust":637,"Ġdown":638,"Ġone":639,"ouse":640,"Ġfind":641,"Ġcare":642,"nna":643,"ist":644,"ny":645,"ap":646,"Ġthan":647,"Ġbec":648,"They":649,"Ġfeel":650,"ue":651,"Ġdad":652,"Ġmy":653,"udd":654,"Ġab":655,"Ġwill":656,"Ġlook":657,"arn":658,"our":659,"Ġke":660,"Ġgra":661,"us":662,"Ġgr":663,"nder":664,"ess":665,"ways":666,"Ġpo":667,"fe":668,"Ġdidn":669,"Ġtook":670,"Ġabout":671,"Ġalways":672,"ers":673,"Ġtoys":674,"ant":675,"bb":676,"Ġlot":677,"Ġkne":678,"ĠSam":679,"Ġball":680,"ise":681,"Ġmommy":682,"Ġtree":683,"Ġthought":684,"Ġoutside":685,"ĠF":686,"ite":687,"Ġmore":688,"ened":689,"Ġta":690,"ched":691,"Ġlearn":692,"eci":693,"Ġho":694,"ret":695,"Ġold":696,"Ġint":697,"ged":698,"Ġknow":699,"Ġsor":700,"Ġcat":701,"Ġlaug":702,"Ġtake":703,"ive":704,"ecial":705,"Ġspecial":706,"ia":707,"Ġknew":708,"ĠMax":709,"udden":710,"Ġany":711,"Ġpe":712,"fter":713,"Ġhow":714,"uddenly":715,"Ġsorry":716,"ink":717,"ma":718,"Ġshow":719,"But":720,"Ġtr":721,"Ġrun":722,"ish":723,"Ġtw":724,"Ġsl":725,"Ġmuch":726,"and":727,"au":728,"Ġhand":729,"Ġhouse":730,"Ġor":731,"Ġop":732,"ven":733,"Ġsk":734,"Ġmo":735,"Ġclo":736,"Ġsun":737,"Ġtried":738,"Ġinto":739,"Tom":740,"Ġwater":741,"Ġinside":742,"ump":743,"Ġtold":744,"ank":745,"ate":746,"ĠSara":747,"Ġthis":748,"Ġen":749,"Ġgave":750,"Ġproud":751,"Ġqu":752,"Ġheard":753,"Ġif":754,"Ġnever":755,"Ġeach":756,"Ġover":757,"Ġcouldn":758,"ace":759,"ĠWe":760,"ty":761,"ĠAnna":762,"Ġroom":763,"by":764,"dy":765,"Ġeat":766,"ĠEvery":767,"other":768,"Ġpret":769,"ion":770,"Ġpick":771,"Ġexpl":772,"ause":773,"Ġplayed":774,"Mom":775,"ak":776,"ge":777,"etter":778,"Ġgre":779,"Ġhugged":780,"Ġjust":781,"here":782,"Ġcom":783,"Ġbox":784,"Ġoff":785,"Ġwat":786,"oth":787,"Ġnice":788,"Ġneed":789,"Ġmany":790,"'m":791,"Ġstr":792,"Ġbecause":793,"ile":794,"Ġsmall":795,"gry":796,"Ġfo":797,"iz":798,"Ġbu":799,"Ġjo":800,"ving":801,"Ġlong":802,"uc":803,"imal":804,"Ġanimal":805,"Ġbear":806,"ine":807,"Ġsn":808,"Ġtry":809,"ort":810,"ough":811,"Ġunt":812,"urt":813,"ild":814,"sel":815,"Ġlearned":816,"sed":817,"Ġuntil":818,"ĠJack":819,"Ġlove":820,"Ġkind":821,"Ġbetter":822,"ft":823,"Ġflow":824,"Ġim":825,"ĠMia":826,"Ġcall":827,"Ġdon":828,"He":829,"Ġbest":830,"ars":831,"urn":832,"ull":833,"em":834,"Ġend":835,"ady":836,"urp":837,"Ġcle":838,"Ġad":839,"Yes":840,"vent":841,"aut":842,"ves":843,"ĠAnd":844,"ream":845,"ĠJo":846,"Ġcareful":847,"ĠC":848,"Ġfast":849,"arden":850,"Ġgarden":851,"Ġbeaut":852,"ber":853,"Th":854,"Ġfi":855,"Ġche":856,"Ġthanked":857,"Ġbra":858,"pt":859,"Ġsky":860,"Åĵ":861,"Ġeven":862,"ies":863,"Ġjump":864,"ĠSo":865,"lly":866,"Ġlaughed":867,"ase":868,"Ġloud":869,"It":870,"Ġby":871,"Ġte":872,"self":873,"ĠHer":874,"Ġgl":875,"Ġlist":876,"iny":877,"wn":878,"lew":879,"Ġcome":880,"Ġbeauti":881,"Ġhard":882,"Ġbeautiful":883,"Ġway":884,"Ġhurt":885,"Ġanimals":886,"Ġlots":887,"Ġwo":888,"Ġstill":889,"Ġfam":890,"Ġra":891,"Ġunder":892,"ĠThen":893,"Ġstay":894,"Ġlet":895,"ct":896,"ĠÃ¢":897,"ect":898,"ning":899,"be":900,"hes":901,"Ġcu":902,"Ġboth":903,"Ġsafe":904,"ĠFrom":905,"ool":906,"Ġbad":907,"ĠHis":908,"Ġcol":909,"ople":910,"ock":911,"Ġrem":912,"Ġtwo":913,"ree":914,"kay":915,"Ġbook":916,"Ġimp":917,"Ġlived":918,"ast":919,"Ġits":920,"Ġangry":921,"Tim":922,"ane":923,"Ġshould":924,"No":925,"ucy":926,"ress":927,"Ġbrave":928,"urpr":929,"ished":930,"Ġwalked":931,"Ġpeople":932,"Ġred":933,"Ġflew":934,"igh":935,"ob":936,"Ġsurpr":937,"Ġfamily":938,"When":939,"Ġcalled":940,"ip":941,"Ġsoon":942,"Ġstor":943,"Ġfin":944,"Let":945,"Ġshare":946,"fore":947,"Ġkept":948,"Ġdan":949,"led":950,"Ġfly":951,"xt":952,"Ġfore":953,"dded":954,"Ġpic":955,"ised":956,"hn":957,"Ġdoor":958,"ĠP":959,"Ġclean":960,"Ġgoing":961,"Ġrock":962,"Ġpretty":963,"Ben":964,"ĠWhen":965,"âĤ¬â":966,"Ġnow":967,"Ġkeep":968,"Ġnoise":969,"Ġdra":970,"Ġshiny":971,"Ġdoll":972,"Ġopened":973,"ummy":974,"Ġwind":975,"ary":976,"Ġcry":977,"Ġadvent":978,"age":979,"Ġbefore":980,"Ġreal":981,"Ġide":982,"Ġsto":983,"Ġcon":984,"so":985,"Ġturn":986,"illy":987,"Ġexplore":988,"Ġground":989,"les":990,"ied":991,"Ġalso":992,"What":993,"Ġfr":994,"Ġey":995,"Ġfar":996,"Ġidea":997,"Ġcolor":998,"Ġnodded":999,"That":1000,"oon":1001,"Ħ¢":1002,"âĤ¬âĦ¢":1003,"Ġhas":1004,"Ġwar":1005,"oy":1006,"th":1007,"imb":1008,"Ġun":1009,"Ġfeeling":1010,"Ġnext":1011,"Ġpicked":1012,"ture":1013,"uch":1014,"kes":1015,"thing":1016,"Ġclimb":1017,"ĠLucy":1018,"Ġma":1019,"Ġwalking":1020,"ĠDad":1021,"Ġsmile":1022,"aybe":1023,"Ġwhile":1024,"Ġthr":1025,"Ġbed":1026,"eet":1027,"ger":1028,"Ġadventure":1029,"Thank":1030,"Ġbeing":1031,"Ġgive":1032,"Ġtruck":1033,"ĠG":1034,"iced":1035,"Ġclos":1036,"Ġpicture":1037,"Ġthink":1038,"ious":1039,"Ġdif":1040,"ted":1041,"Ġfood":1042,"Ġwr":1043,"joy":1044,"Ġtow":1045,"Ġlisten":1046,"ff":1047,"ac":1048,"Ġeyes":1049,"ught":1050,"Ġbre":1051,"Ġdel":1052,"Ġstopped":1053,"Ġbro":1054,"Ġtra":1055,"Ġlooking":1056,"Ġafter":1057,"ting":1058,"ĠSp":1059,"Ġwait":1060,"Ġown":1061,"Ġvo":1062,"Ġshout":1063,"Ġwalk":1064,"Ġrepl":1065,"ember":1066,"Ġhead":1067,"Ġflowers":1068,"Ġgreat":1069,"Ġblue":1070,"Ġwonder":1071,"Ġhands":1072,"ĠSuddenly":1073,"Ġenjoy":1074,"Ġever":1075,"She":1076,"Suddenly":1077,"irst":1078,"ized":1079,"Ġnear":1080,"Ġimport":1081,"Ġnoticed":1082,"Ġdis":1083,"bbit":1084,"Ġslide":1085,"Ġfish":1086,"Ġquick":1087,"Ġapp":1088,"Ġforest":1089,"able":1090,"Ġus":1091,"llow":1092,"Ġremember":1093,"Ġde":1094,"Ġmean":1095,"Ġsound":1096,"lease":1097,"maz":1098,"Ġwatch":1099,"Ġrain":1100,"Ġamaz":1101,"Ġimportant":1102,"Ġask":1103,"Ġokay":1104,"Ġwork":1105,"bbed":1106,"Ġshowed":1107,"Ġtal":1108,"bye":1109,"gan":1110,"fere":1111,"We":1112,"Ġreplied":1113,"Ġstick":1114,"Ġrabbit":1115,"Ġdiffere":1116,"Ġac":1117,"Ġbright":1118,"Ġright":1119,"day":1120,"Ġfollow":1121,"Ġeveryone":1122,"Ġboat":1123,"Ġstrong":1124,"Anna":1125,"Ġuse":1126,"Ġsqu":1127,"Ġwatched":1128,"Ġour":1129,"Ġwhere":1130,"ĠSpot":1131,"Ġye":1132,"ath":1133,"ered":1134,"Ġquickly":1135,"Ġmor":1136,"Ġyell":1137,"Ġbeen":1138,"Ġvoice":1139,"So":1140,"Ġdoes":1141,"ĠBob":1142,"Ġchild":1143,"ng":1144,"Ġdifferent":1145,"Ġcuri":1146,"Ġface":1147,"Ġhop":1148,"Look":1149,"ĠMommy":1150,"ange":1151,"ĠN":1152,"Ġsure":1153,"ĠSue":1154,"Ġam":1155,"Ġbecame":1156,"aught":1157,"Sara":1158,"Ġdress":1159,"Ġgoodbye":1160,"Ġplace":1161,"Ġcloser":1162,"Ġstore":1163,"ila":1164,"Ġmag":1165,"Ġhigh":1166,"Ġwarm":1167,"ĠR":1168,"Ġforg":1169,"Ġcurious":1170,"Ġtell":1171,"ndma":1172,"Ġcook":1173,"unny":1174,"Ġcake":1175,"Ġblock":1176,"Ġbel":1177,"more":1178,"co":1179,"leep":1180,"Ġanymore":1181,"ass":1182,"Ġopen":1183,"Ġnight":1184,"Jo":1185,"ount":1186,"Ġfav":1187,"Ġhere":1188,"Ġpull":1189,"itc":1190,"Ġfirst":1191,"Ġthree":1192,"Ġz":1193,"ached":1194,"ĠTh":1195,"ired":1196,"Ġpain":1197,"iss":1198,"Ġpu":1199,"Ġbus":1200,"imes":1201,"Her":1202,"Ġgrabbed":1203,"Ġlea":1204,"orn":1205,"Ġru":1206,"Can":1207,"Ġsweet":1208,"Ġfell":1209,"Ġkid":1210,"Ġonly":1211,"Ġbutter":1212,"Ġbirds":1213,"isy":1214,"Ġmon":1215,"Ġsees":1216,"itchen":1217,"Ġkitchen":1218,"Ġjumped":1219,"Ġfire":1220,"Ġcont":1221,"Ġbit":1222,"Ġsand":1223,"Ġba":1224,"Ġflo":1225,"Ġstop":1226,"Ġhelped":1227,"Ġglad":1228,"Ġhappened":1229,"Ġgrass":1230,"Ġper":1231,"Ġsing":1232,"Ġshouted":1233,"Ġcra":1234,"Ġdr":1235,"Ġtri":1236,"ĠSarah":1237,"ĠDo":1238,"nts":1239,"Ġcr":1240,"ĠLet":1241,"Ġbeh":1242,"Ġbrother":1243,"Ġreached":1244,"Ġstory":1245,"ppy":1246,"After":1247,"air":1248,"Ġrealized":1249,"ins":1250,"Ġbunny":1251,"Ġlady":1252,"ĠJane":1253,"Ġyummy":1254,"ĠAs":1255,"Ġmess":1256,"Ġhaving":1257,"Ġsoft":1258,"Ġunderst":1259,"Ġgame":1260,"Ġless":1261,"akes":1262,"Ġate":1263,"Ġcre":1264,"'re":1265,"Ġpretend":1266,"ĠEveryone":1267,"Ġdraw":1268,"Ġprin":1269,"Ġhat":1270,"Ġmum":1271,"Ġpare":1272,"Ġrest":1273,"Ġfavor":1274,"Ġthrough":1275,"Ġready":1276,"Ġpap":1277,"zy":1278,"Ġfavorite":1279,"Ġthing":1280,"where":1281,"ken":1282,"Ġlooks":1283,"ĠThat":1284,"Ġreally":1285,"ĠCan":1286,"Ġmagic":1287,"Ġduck":1288,"Ġmaking":1289,"Ġcut":1290,"ater":1291,"Ġworld":1292,"Ġhimself":1293,"ather":1294,"Ġbegan":1295,"Ġdone":1296,"fully":1297,"Ġcoming":1298,"Mommy":1299,"ĠJoe":1300,"Ġkids":1301,"Ġcars":1302,"Ġpond":1303,"Ġprom":1304,"Ġwaved":1305,"Ġtired":1306,"Ġtouch":1307,"Ġwhy":1308,"Ġfro":1309,"bo":1310,"ster":1311,"Ġbutterf":1312,"Wow":1313,"Ġfix":1314,"Ġste":1315,"Ġflower":1316,"Ġpart":1317,"Ġworry":1318,"Ġfill":1319,"Ġname":1320,"Ġfunny":1321,"Ġcatch":1322,"Ġcried":1323,"Ġmouse":1324,"sh":1325,"Ġused":1326,"Ġdelic":1327,"Ġpus":1328,"Ġseen":1329,"Ġblocks":1330,"Ġhair":1331,"Ġparents":1332,"ign":1333,"ient":1334,"Ġanother":1335,"rel":1336,"uff":1337,"Ġhold":1338,"oney":1339,"eddy":1340,"Ġcool":1341,"aisy":1342,"Ġgreen":1343,"olly":1344,"Ġtop":1345,"Ġtast":1346,"Ġlight":1347,"Ġhopped":1348,"iver":1349,"mer":1350,"hy":1351,"Ġdoing":1352,"Ġlesson":1353,"Ġthank":1354,"Ġsurprise":1355,"ĠJohn":1356,"Ġlikes":1357,"ation":1358,"\".":1359,"ards":1360,"Ġswim":1361,"Ġgi":1362,"Ġpaper":1363,"Ġfloor":1364,"Ġwished":1365,"As":1366,"Ġdri":1367,"Ġwindow":1368,"Don":1369,"Sam":1370,"Ġsmell":1371,"Timmy":1372,"Ġbag":1373,"Ġbehind":1374,"Ġdark":1375,"Ġwood":1376,"Ġfull":1377,"Ġtrees":1378,"Ġdro":1379,"Ġrunning":1380,"Ġread":1381,"ike":1382,"Ġworked":1383,"Ġspot":1384,"Ġ-":1385,"Ġdin":1386,"Ġbow":1387,"andy":1388,"Ġyellow":1389,"ren":1390,"ul":1391,"Ġsho":1392,"Ġyears":1393,"ued":1394,"Ġsleep":1395,"Ġsat":1396,"Ġhole":1397,"aring":1398,"Ġlaugh":1399,"Ġhappily":1400,"ely":1401,"Ġfrog":1402,"Ġsurprised":1403,"ĠIn":1404,"Ġset":1405,"Ġswing":1406,"John":1407,"rew":1408,"Ġslow":1409,"Ġremembered":1410,"Ġcarefully":1411,"Ġheld":1412,"Ġlost":1413,"Ġcold":1414,"Hell":1415,"Hello":1416,"Ġbutterfly":1417,"Ġbuy":1418,"Ġice":1419,"uit":1420,"ons":1421,"Ġneeded":1422,"Ġmove":1423,"Ġleft":1424,"Ġhear":1425,"Ġanything":1426,"Ġperf":1427,"Ġenjoyed":1428,"Ġwrong":1429,"Ġfollowed":1430,"Ġfair":1431,"reed":1432,"Ġtall":1433,"Ġdream":1434,"Ġhun":1435,"Ġel":1436,"Ġarri":1437,"Ġchildren":1438,"cess":1439,"Ġtable":1440,"inally":1441,"Ġair":1442,"Ġbooks":1443,"ens":1444,"Ġfriendly":1445,"Ġdir":1446,"Ġunderstand":1447,"Ġhill":1448,"Ġfinished":1449,"ross":1450,"Ġplease":1451,"Ġsnow":1452,"Ġhot":1453,"Ġherself":1454,"Ġdelicious":1455,"Ġclose":1456,"ined":1457,"Ġhid":1458,"Ġcontin":1459,"ds":1460,"Ġmight":1461,"ĠAfter":1462,"Ġarm":1463,"sp":1464,"Ġelse":1465,"Ġbug":1466,"Ġforgot":1467,"Ġarrived":1468,"Ġcast":1469,"Ġcolors":1470,"lf":1471,"ield":1472,"ĠLila":1473,"Ġbroken":1474,"Ġgent":1475,"Ġrel":1476,"Ġbaby":1477,"Ġtight":1478,"Ġwonderful":1479,"ĠDaisy":1480,"Ġbuild":1481,"Ġmat":1482,"Ġable":1483,"Ġsong":1484,"Then":1485,"Ġgone":1486,"av":1487,"asure":1488,"Ġwants":1489,"ĠNow":1490,"Ġfilled":1491,"Ġsquir":1492,"ĠBenny":1493,"ner":1494,"Ġwall":1495,"ĠSally":1496,"Ġcreat":1497,"Ġpat":1498,"OK":1499,"room":1500,"Ġsomeone":1501,"Ġagreed":1502,"Ġyes":1503,"ich":1504,"Ġleaves":1505,"Ġcount":1506,"Ġpink":1507,"Ġsquirrel":1508,"Ġcontinued":1509,"ask":1510,"Jack":1511,"ĠThere":1512,"ama":1513,"ee":1514,"'ll":1515,"ey":1516,"ĠEm":1517,"Ġvis":1518,"Ġlion":1519,"Ġenough":1520,"Ġbreak":1521,"From":1522,"ĠTommy":1523,"Ġstayed":1524,"Ġgetting":1525,"Ġpoin":1526,"Ġmorning":1527,"Ġmoment":1528,"ĠMaybe":1529,"Ġfinally":1530,"app":1531,"ash":1532,"Ġfall":1533,"Ġgrandma":1534,"Ġcookies":1535,"ries":1536,"Ġju":1537,"Ġhungry":1538,"Ġscary":1539,"ance":1540,"gon":1541,"Ġturned":1542,"Ġfight":1543,"Ġsometimes":1544,"Ġpi":1545,"row":1546,"Ġmakes":1547,"Ġbeach":1548,"Ġwet":1549,"ĠThis":1550,"Ġtrying":1551,"ced":1552,"ĠK":1553,"icy":1554,"Ġamazing":1555,"Ġsmiles":1556,"Ġfew":1557,"ĠWhat":1558,"red":1559,"Ġothers":1560,"Ġclimbed":1561,"Ġmother":1562,"Ġdinner":1563,"oom":1564,"apped":1565,"Ġcomp":1566,"Ġlistened":1567,"Ġtalk":1568,"This":1569,"key":1570,"Ġpictures":1571,"Ġcastle":1572,"Ġcream":1573,"Ġmet":1574,"At":1575,"Ġperfect":1576,"rot":1577,"Ġmus":1578,"Ġclot":1579,"Ġwhite":1580,"Ġfur":1581,"Ġdaddy":1582,"oring":1583,"His":1584,"Ġclothes":1585,"lc":1586,"Ġtail":1587,"amp":1588,"oup":1589,"Ġballoon":1590,"Ġpuppy":1591,"Ġmar":1592,"ctor":1593,"Ġpet":1594,"ĠGra":1595,"Ġjoy":1596,"Ġalone":1597,"Ġpol":1598,"Ġasks":1599,"ence":1600,"Oh":1601,"man":1602,"ĠBilly":1603,"Ġsail":1604,"Ġwasn":1605,"Ġbrought":1606,"Ġspl":1607,"Ġspark":1608,"Ġwoods":1609,"Ġeverything":1610,"ated":1611,"Ġdeep":1612,"Ġstrange":1613,"der":1614,"ister":1615,"ĠTo":1616,"Ġpulled":1617,"Ġsit":1618,"Ġride":1619,"Ġdanger":1620,"Ġsear":1621,"uffy":1622,"Ġplan":1623,"Ġgrow":1624,"Ġroll":1625,"ling":1626,"ott":1627,"Ġwon":1628,"eter":1629,"Ġwaited":1630,"ĠJen":1631,"Ġhide":1632,"Ġvisit":1633,"ucky":1634,"Ġpie":1635,"Ġfox":1636,"Ġamazed":1637,"ower":1638,"med":1639,"Ġleave":1640,"me":1641,"Ġtreat":1642,"zz":1643,"os":1644,"ang":1645,"Ġmusic":1646,"Ġteddy":1647,"ever":1648,"ĠAmy":1649,"Ġtowards":1650,"Ġruns":1651,"Ġsilly":1652,"ape":1653,"Ġthinks":1654,"Ġland":1655,"Ġliving":1656,"Ġcloud":1657,"Max":1658,"Ġflying":1659,"Maybe":1660,"Ġpen":1661,"Ġpre":1662,"Ġfield":1663,"Ġshared":1664,"ames":1665,"igg":1666,"ained":1667,"ises":1668,"Ġpromised":1669,"Okay":1670,"ugg":1671,"ope":1672,"Ġqui":1673,"Ġowner":1674,"gs":1675,"ol":1676,"Ġgu":1677,"Ġjob":1678,"Ġpaint":1679,"Ġrace":1680,"thy":1681,"Ġbelie":1682,"cket":1683,"Ġpa":1684,"Ġside":1685,"Ġmoney":1686,"Ġmoral":1687,"Ġlake":1688,"Ġparty":1689,"Ġsec":1690,"ually":1691,"orm":1692,"Ġquiet":1693,"cle":1694,"Ġsister":1695,"Ġwear":1696,"avy":1697,"eces":1698,"Ġmust":1699,"Ġpieces":1700,"Ġworried":1701,"ĠJim":1702,"Ġfaster":1703,"Ġbran":1704,"Ġcup":1705,"Ġslowly":1706,"sw":1707,"up":1708,"unch":1709,"Ġcolorful":1710,"ix":1711,"Ġansw":1712,"ased":1713,"Ġow":1714,"Ġbroke":1715,"Ġgif":1716,"Ġgrate":1717,"Ġwelc":1718,"Ġbike":1719,"Ġdance":1720,"Ġbott":1721,"Ġcandy":1722,"ze":1723,"Ġbigger":1724,"Ġreach":1725,"Ġblank":1726,"Ġgrateful":1727,"ph":1728,"Ġele":1729,"Ġsuch":1730,"Ġplant":1731,"fort":1732,"Ġsmart":1733,"ĠAll":1734,"Ġpro":1735,"less":1736,"Ġpot":1737,"Ġcho":1738,"Ġtrain":1739,"Ġtreasure":1740,"Ġblanket":1741,"Ġsnack":1742,"ire":1743,"Ġscream":1744,"Ġdangerous":1745,"Ġmagical":1746,"Ġmonster":1747,"Ġblack":1748,"Ġwin":1749,"Ġbar":1750,"Ġriver":1751,"outh":1752,"Ġdragon":1753,"Ġve":1754,"Ġnap":1755,"Ġtower":1756,"Ġjoin":1757,"Ġmouth":1758,"Sure":1759,"Ġprincess":1760,"ear":1761,"cked":1762,"Ġeverywhere":1763,"Ġem":1764,"Ġdolls":1765,"Ġhelping":1766,"Ġje":1767,"Ġmost":1768,"ipped":1769,"Ġmonkey":1770,"Ġacross":1771,"Ġdisapp":1772,"Ġtwins":1773,"ming":1774,"Ġthrew":1775,"Ġfarmer":1776,"Ġsign":1777,"set":1778,"Ġdoctor":1779,"de":1780,"Ġstepped":1781,"Ġsame":1782,"Ġdirty":1783,"ored":1784,"Ġheavy":1785,"Ġbee":1786,"Why":1787,"Ġcrying":1788,"Ġfruit":1789,"Ġbite":1790,"eared":1791,"Hi":1792,"ĠDaddy":1793,"Ġcarrot":1794,"Ġwords":1795,"Ġbowl":1796,"Mia":1797,"Ġhoped":1798,"Ġheal":1799,"Ġstre":1800,"bble":1801,"Ġheart":1802,"Ġclosed":1803,"ere":1804,"Ġpass":1805,"Ġspr":1806,"Ġhig":1807,"ĠFl":1808,"Ġbelieve":1809,"Ġwouldn":1810,"Ġbath":1811,"ĠMr":1812,"ident":1813,"Ġstuck":1814,"Ġteac":1815,"Ġacc":1816,"Ġtown":1817,"asket":1818,"Ġbasket":1819,"ĠJill":1820,"Ġcour":1821,"chool":1822,"Ġfeels":1823,"Ġbutt":1824,"ĠMolly":1825,"Ġbuck":1826,"Ġcray":1827,"Ġatt":1828,"Ġmix":1829,"Ġbrown":1830,"Ġcoll":1831,"iting":1832,"Ġsuddenly":1833,"Ġfairy":1834,"Ġschool":1835,"Ġchair":1836,"Ġeating":1837,"Ġcourse":1838,"Ġpushed":1839,"Ġgentle":1840,"Ġclapped":1841,"ord":1842,"ventually":1843,"Ġmin":1844,"Ġpack":1845,"Ġhit":1846,"pping":1847,"Ġpers":1848,"Ġneigh":1849,"issed":1850,"ts":1851,"Ġwithout":1852,"Ġstand":1853,"Ġneighb":1854,"Ġpocket":1855,"ors":1856,"Ġhigher":1857,"Ġwelcome":1858,"Ġteacher":1859,"Ġdrove":1860,"Ġswings":1861,"orrow":1862,"Ġyard":1863,"Ġsmo":1864,"ier":1865,"Ġtoday":1866,"Ġnoises":1867,"Ġforget":1868,"Ġcheered":1869,"ourn":1870,"Ġgames":1871,"ho":1872,"Ġben":1873,"Ġwings":1874,"Ġjourn":1875,"br":1876,"Ġneck":1877,"Ġturns":1878,"Ġpiece":1879,"umb":1880,"ract":1881,"Lila":1882,"Ġlonger":1883,"Ġdry":1884,"Ġfree":1885,"Ġsang":1886,"vel":1887,"Finally":1888,"ead":1889,"Ġhugs":1890,"Ġexplained":1891,"ible":1892,"oun":1893,"Ġinst":1894,"Ġcorn":1895,"phant":1896,"cy":1897,"Ġhappen":1898,"Ġaccident":1899,"Ġalong":1900,"Ġthrow":1901,"Ġlate":1902,"Ġshoes":1903,"Ġmiss":1904,"Ġwell":1905,"ches":1906,"Ġyoung":1907,"Ġlon":1908,"Ġtrou":1909,"ment":1910,"itting":1911,"Ġsea":1912,"Ġsecret":1913,"Ġstories":1914,"ĠMary":1915,"Ġshap":1916,"Ġelephant":1917,"Ġwish":1918,"Ġpurp":1919,"Ġsinging":1920,"Ġlonely":1921,"Ġadventures":1922,"Ġshook":1923,"Ġfence":1924,"Ġmoved":1925,"Ġstars":1926,"ek":1927,"Ġlunch":1928,"Ġdist":1929,"Ġupset":1930,"Ġapple":1931,"Ġstar":1932,"Ġbelong":1933,"bby":1934,"Ġph":1935,"aughty":1936,"Ġmine":1937,"Ġnaughty":1938,"Ġkey":1939,"Ġplac":1940,"Ġrocks":1941,"Ġtom":1942,"Ġnearby":1943,"Ġcaught":1944,"Do":1945,"fused":1946,"Ġstreet":1947,"Ġwhe":1948,"ĠGrandma":1949,"Ġshop":1950,"ountain":1951,"Ġexploring":1952,"Ġdropped":1953,"Ġpurple":1954,"yard":1955,"ocked":1956,"Ġexp":1957,"Ġwise":1958,"Ġjar":1959,"Ġbring":1960,"Ġbackyard":1961,"bow":1962,"Ġtaking":1963,"llo":1964,"Ġorange":1965,"ail":1966,"Ġswam":1967,"Ġsoup":1968,"ub":1969,"Ġshapes":1970,"ces":1971,"ward":1972,"Ġseemed":1973,"aughter":1974,"Ġinv":1975,"Ġowl":1976,"Ġfarm":1977,"Ġdrink":1978,"Ġes":1979,"Ġresp":1980,"Ġbucket":1981,"Ġpast":1982,"Ġyear":1983,"Ġca":1984,"Ġrelie":1985,"Ġmail":1986,"ush":1987,"ions":1988,"ĠEmma":1989,"Ġstu":1990,"Ġbench":1991,"ĠThank":1992,"Ġaf":1993,"Ġbat":1994,"Ġbusy":1995,"adow":1996,"ung":1997,"Ġdes":1998,"Ġtakes":1999,"Ġmad":2000,"Ġnothing":2001,"Ġthough":2002,"Ġ3":2003,"Ġnose":2004,"Ġjuice":2005,"And":2006,"Ġsounds":2007,"Ġwoke":2008,"sy":2009,"ity":2010,"Ġarms":2011,"Ġcomes":2012,"Ġtiny":2013,"ese":2014,"fish":2015,"Ġdaughter":2016,"Ġwondered":2017,"Ġcou":2018,"cing":2019,"cks":2020,"Ġrainbow":2021,"Ġmark":2022,"Ġholding":2023,"Ġnest":2024,"ĠO":2025,"Ġcow":2026,"col":2027,"Ġfit":2028,"thday":2029,"Ġsitting":2030,"to":2031,"Ġbranch":2032,"ining":2033,"Ġcir":2034,"Ġboun":2035,"Ġpig":2036,"read":2037,"ose":2038,"Ġsick":2039,"ĠFluffy":2040,"raid":2041,"ĠInside":2042,"Ġob":2043,"Ġafraid":2044,"weet":2045,"Ġcoat":2046,"Ġpatient":2047,"Ġround":2048,"Ġkite":2049,"pper":2050,"Ġgift":2051,"Ġdriver":2052,"Ġmil":2053,"Ġcute":2054,"vered":2055,"Ġforever":2056,"Ġtou":2057,"Ġtouched":2058,"Ġpeace":2059,"Ġrelieved":2060,"Ġlift":2061,"Ġpromise":2062,"ours":2063,"idge":2064,"Ġbread":2065,"Ġking":2066,"Ġspoon":2067,"Ġhuge":2068,"Ġletter":2069,"ĠCome":2070,"Ġhello":2071,"Ġcarry":2072,"Ġgrab":2073,"Of":2074,"sting":2075,"Ġfing":2076,"Ġbirthday":2077,"Ġband":2078,"eth":2079,"og":2080,"Ġact":2081,"ittens":2082,"Ġcheese":2083,"ĠFinally":2084,"Ġpower":2085,"ĠMama":2086,"Ġintere":2087,"let":2088,"Ġexciting":2089,"cer":2090,"Ġdays":2091,"Hey":2092,"Ġswimming":2093,"Ġshell":2094,"Ġwhist":2095,"unt":2096,"Ġonto":2097,"sc":2098,"Ġgigg":2099,"board":2100,"Ġjourney":2101,"Ġlaughing":2102,"Ġcraw":2103,"Ġcreature":2104,"Ġwra":2105,"Ġsunny":2106,"Ġlife":2107,"Ġkick":2108,"Ġmist":2109,"Ġdisco":2110,"shine":2111,"Ġcomfort":2112,"Ġwom":2113,"arp":2114,"Ġret":2115,"Ġwoman":2116,"Ġhope":2117,"ped":2118,"itch":2119,"gged":2120,"Ġbush":2121,"Ġgives":2122,"Ġinstead":2123,"Ġmilk":2124,"Ġcozy":2125,"Ġputs":2126,"alm":2127,"Ġbottle":2128,"Ġinc":2129,"gg":2130,"Ġsharp":2131,"Ġpointed":2132,"Ġimag":2133,"Ġspin":2134,"ten":2135,"Tommy":2136,"ĠSoon":2137,"Ġlucky":2138,"Ġsunshine":2139,"Ġear":2140,"ness":2141,"Ġcave":2142,"Ġreturn":2143,"Ġwatching":2144,"Ġcollect":2145,"Ġducks":2146,"ĠSammy":2147,"Ġpudd":2148,"Ġaccidentally":2149,"Ġhor":2150,"Ġeas":2151,"Ġlater":2152,"Ġsmiling":2153,"Ġsuc":2154,"ball":2155,"Ġhoney":2156,"Ġroad":2157,"Ġanyone":2158,"Ġfan":2159,"Ġspo":2160,"Ġent":2161,"blem":2162,"Ġproblem":2163,"Later":2164,"ndp":2165,"Ġbought":2166,"els":2167,"Ġtalked":2168,"Bob":2169,"itten":2170,"ize":2171,"Ġgather":2172,"round":2173,"Ġsearched":2174,"Ġapples":2175,"Ġperson":2176,"Good":2177,"Ġsandw":2178,"Ġhealthy":2179,"Ġce":2180,"Ġmeet":2181,"irt":2182,"Ġtrouble":2183,"Ġloves":2184,"Ġcrayons":2185,"Ġrope":2186,"Ġinteresting":2187,"Ġpop":2188,"Ġclouds":2189,"ont":2190,"Ġtasty":2191,"Ġsu":2192,"Ġkiss":2193,"Ġbutton":2194,"Ġclever":2195,"Ġplane":2196,"amed":2197,"Ġsmelled":2198,"Ġadm":2199,"ove":2200,"Ġpile":2201,"Ġwide":2202,"Ġmach":2203,"eb":2204,"ĠTweet":2205,"Ġmatter":2206,"Ġzoom":2207,"Lucy":2208,"ÅĵI":2209,"Ġpres":2210,"Ġshining":2211,"owed":2212,"Ġpar":2213,"Ġfront":2214,"Ġorgan":2215,"Ġprot":2216,"ĠWith":2217,"Ġfeather":2218,"Ġeag":2219,"aur":2220,"Ġpath":2221,"Ġvill":2222,"ĠJimmy":2223,"Ġstorm":2224,"Ġspotted":2225,"Ġrespect":2226,"Ġscreamed":2227,"Ġprotect":2228,"Ġmud":2229,"ĠEll":2230,"Ġpract":2231,"ndpa":2232,"Ġzoo":2233,"Come":2234,"Ġpuzz":2235,"Ġsaf":2236,"Ġap":2237,"Ġspid":2238,"erly":2239,"Ġval":2240,"Ġsnake":2241,"isa":2242,"Ġmyster":2243,"Ġasleep":2244,"Ġlovely":2245,"epend":2246,"Ġbark":2247,"Ġquest":2248,"Ġwild":2249,"Ġneighbor":2250,"Ġappeared":2251,"Ġanswer":2252,"Ġseat":2253,"ale":2254,"Ġhorse":2255,"Ġsnowman":2256,"Ġpresent":2257,"Ġdanced":2258,"Ġcard":2259,"Ġteach":2260,"Ġhon":2261,"oose":2262,"Ġwhich":2263,"Ġminut":2264,"Ġpill":2265,"Ġsur":2266,"ĠSomet":2267,"Ġcheer":2268,"Ġthin":2269,"ert":2270,"Jim":2271,"Ġgoes":2272,"ond":2273,"een":2274,"ex":2275,"Just":2276,"Ġwhole":2277,"Ġtries":2278,"St":2279,"Ġgently":2280,"Ġforgive":2281,"Ġwearing":2282,"Ġmed":2283,"ching":2284,"ular":2285,"Ġconfused":2286,"Ġdi":2287,"Molly":2288,"Ġphone":2289,"Ġcorner":2290,"Ġplaces":2291,"Ġimpress":2292,"Ġgiant":2293,"Every":2294,"Ġrolled":2295,"Ġteeth":2296,"Ġdirt":2297,"Ġtrip":2298,"Ġmind":2299,"Mum":2300,"Ġrude":2301,"Ġshr":2302,"cean":2303,"Ġslid":2304,"Ġocean":2305,"Ġlive":2306,"ĠGo":2307,"Ġspent":2308,"itty":2309,"izz":2310,"Ġpretended":2311,"Ġdrive":2312,"Ġworm":2313,"ĠEmily":2314,"Ġash":2315,"ssed":2316,"Ġtasted":2317,"ĠHow":2318,"Ġsupp":2319,"In":2320,"Ġsplas":2321,"Ġcalm":2322,"Ġcookie":2323,"la":2324,"Ġlad":2325,"Ġfaces":2326,"Ġser":2327,"Ġoven":2328,"Ġpour":2329,"nic":2330,"Ġdelight":2331,"Ġlay":2332,"ĠMittens":2333,"Ġcoin":2334,"Ġlast":2335,"Ġpicnic":2336,"Ġwave":2337,"Ġfurry":2338,"Ġpan":2339,"Ġfeet":2340,"Ġrec":2341,"ato":2342,"Ġmachine":2343,"Ġring":2344,"Ġchick":2345,"ones":2346,"unk":2347,"Ġhelpful":2348,"Ġwip":2349,"Ġeventually":2350,"Ġban":2351,"Ġpush":2352,"Ġemb":2353,"Ġremind":2354,"Ġbubble":2355,"ĠCh":2356,"umber":2357,"Ġladder":2358,"Ġtomorrow":2359,"Ġsack":2360,"Ġcart":2361,"Ġign":2362,"Ġsal":2363,"Ġrep":2364,"Ġbell":2365,"Ġcouch":2366,"Ġtun":2367,"Ġtid":2368,"Ġneckl":2369,"Ġspread":2370,"Ġblew":2371,"Ġspider":2372,"Ġbuilding":2373,"ator":2374,"Ġstret":2375,"Ġbugs":2376,"arge":2377,"Ġtool":2378,"Ġsmooth":2379,"Ġtalking":2380,"Ġchocol":2381,"Ġrob":2382,"Ġfoot":2383,"Ġsel":2384,"Ġshy":2385,"Ġhiding":2386,"hile":2387,"Ġmountain":2388,"Ġknee":2389,"ighed":2390,"Ġfold":2391,"als":2392,"mo":2393,"arra":2394,"Ġchased":2395,"Ġfighting":2396,"ife":2397,"Ġsongs":2398,"not":2399,"Soon":2400,"Ġembarra":2401,"Ġwore":2402,"Ġleaf":2403,"Ġpool":2404,"Ġwrite":2405,"Ġpuddle":2406,"Ġvillage":2407,"Ġwaiting":2408,"Ġcannot":2409,"Ġwhenever":2410,"Ġant":2411,"Ġfinish":2412,"Ġstep":2413,"My":2414,"Ġcloth":2415,"Ġtreats":2416,"Ġhum":2417,"lex":2418,"ĠJenny":2419,"Ġcross":2420,"Ġpaw":2421,"Ġmaybe":2422,"Ġselfish":2423,"Ġrobot":2424,"Ġbanan":2425,"ĠSometimes":2426,"oph":2427,"Ġchocolate":2428,"Ġcoo":2429,"Ġtaste":2430,"box":2431,"ult":2432,"ĠJust":2433,"Ġbarked":2434,"Ġstring":2435,"Ġspe":2436,"ĠEverywhere":2437,"Ġlarge":2438,"Ġnet":2439,"ĠSt":2440,"Please":2441,"Ġpeaceful":2442,"Ġtidy":2443,"Ġstra":2444,"Mama":2445,"Ġsol":2446,"Ġcolour":2447,"umpy":2448,"Ġwash":2449,"Ġgen":2450,"elly":2451,"Ġnecklace":2452,"Ġple":2453,"Ġfixed":2454,"Ġshelf":2455,"lice":2456,"old":2457,"Ġstone":2458,"ĠPlease":2459,"hnn":2460,"Ġscar":2461,"Ġspray":2462,"lebr":2463,"Ġ'":2464,"arm":2465,"Ġstir":2466,"Dad":2467,"ĠLe":2468,"Ġcelebr":2469,"orry":2470,"ĠJake":2471,"oin":2472,"ĠTV":2473,"iger":2474,"ungle":2475,"ird":2476,"Ġmissed":2477,"Now":2478,"Ġdeter":2479,"Ġcrab":2480,"Ġhears":2481,"Ġcreative":2482,"ĠTheir":2483,"Ġembarrassed":2484,"Ġtrust":2485,"Ġjungle":2486,"Ġforward":2487,"airs":2488,"Ġwhis":2489,"Ġdeterm":2490,"Ġjumping":2491,"hnny":2492,"Ġsticks":2493,"ĠSome":2494,"urse":2495,"Ġcarrots":2496,"Ġsharing":2497,"Ġhel":2498,"Ġlanded":2499,"Ġwhistle":2500,"Ġplate":2501,"most":2502,"Ġshirt":2503,"Ġdisappoin":2504,"Ġtells":2505,"Ġknocked":2506,"Ġtea":2507,"ned":2508,"ets":2509,"ian":2510,"ĠAnn":2511,"Ġmoon":2512,"Ġlegs":2513,"Ġdecor":2514,"Ġalmost":2515,"ĠDon":2516,"Ġsour":2517,"Ġemp":2518,"Ġashamed":2519,"getable":2520,"dge":2521,"Ġempty":2522,"Ġgrew":2523,"ground":2524,"Ġvegetable":2525,"Ġgray":2526,"Ġsheep":2527,"ĠLisa":2528,"Ġgener":2529,"Ġbreath":2530,"ying":2531,"Ġsplash":2532,"Sarah":2533,"Ġmeant":2534,"Be":2535,"Ġtightly":2536,"Ġpolice":2537,"aking":2538,"Ġsave":2539,"Ġmeadow":2540,"erp":2541,"Ġbal":2542,"Ġgas":2543,"Ġstood":2544,"Ġwhisp":2545,"ĠWhy":2546,"Ġyelled":2547,"dle":2548,"Ġjew":2549,"Ġunderstood":2550,"To":2551,"Ġnods":2552,"ĠOn":2553,"Ġhonest":2554,"Ġthese":2555,"ital":2556,"Ġber":2557,"Ġdisappointed":2558,"Ġpay":2559,"Ġcarried":2560,"Ġsnacks":2561,"arl":2562,"Ġsuccess":2563,"den":2564,"Ġpillow":2565,"Ġhosp":2566,"Ġkitten":2567,"Ġhours":2568,"Ġseek":2569,"ustr":2570,"Ġhospital":2571,"Ġgold":2572,"Ġgun":2573,"Ġsparkly":2574,"Ġship":2575,"ĠTeddy":2576,"Ġbored":2577,"Stop":2578,"Ġline":2579,"Ġnut":2580,"ork":2581,"Ġpizz":2582,"vous":2583,"Ġlem":2584,"Ġpowerful":2585,"Ġspicy":2586,"Where":2587,"obby":2588,"kin":2589,"Ġshore":2590,"Ġplants":2591,"ano":2592,"ĠEven":2593,"Ġbedroom":2594,"Ġgenerous":2595,"Ġfrustr":2596,"Ġtest":2597,"Ġpuzzle":2598,"Ġhidden":2599,"Ġjelly":2600,"body":2601,"ĠBe":2602,"ĠTogether":2603,"ony":2604,"hin":2605,"ina":2606,"Ġtaught":2607,"Ġeasy":2608,"Ġdrew":2609,"Ġwaves":2610,"Ġglass":2611,"ĠZ":2612,"Ġreturned":2613,"Ġfear":2614,"Ġmysterious":2615,"iff":2616,"Ġsighed":2617,"ĠMum":2618,"Ġstanding":2619,"Ġmot":2620,"Ġfeed":2621,"Ġseed":2622,"Ġscarf":2623,"Ġdetermined":2624,"Ġpin":2625,"Ġclass":2626,"ĠRex":2627,"Ġknowing":2628,"Ġgroup":2629,"Ġblow":2630,"Ġkissed":2631,"cles":2632,"Ġchew":2633,"Ġpizza":2634,"itter":2635,"Ġvan":2636,"Ġhur":2637,"Ġthankful":2638,"erpill":2639,"Ġcaterpill":2640,"Ġpolite":2641,"Ġfinger":2642,"Ġav":2643,"Ġcries":2644,"Ġsleepy":2645,"Ġmessy":2646,"Ġner":2647,"Ġfrustrated":2648,"Ġpri":2649,"Ġcloset":2650,"gly":2651,"Ġyourself":2652,"aul":2653,"Ġminutes":2654,"'d":2655,"Jane":2656,"Ġtears":2657,"Ġfancy":2658,"Ġhang":2659,"Sorry":2660,"Ġburn":2661,"There":2662,"Ġugly":2663,"Ġsold":2664,"Ġpoor":2665,"work":2666,"Ġnervous":2667,"Ġgate":2668,"Ġsandwich":2669,"Ġrad":2670,"Ġprince":2671,"ĠPeter":2672,"Ġwis":2673,"Ġcrown":2674,"Ġfig":2675,"era":2676,"Ġlock":2677,"Ġesc":2678,"Ġreg":2679,"Ġspoil":2680,"usie":2681,"Ġgrumpy":2682,"oof":2683,"Are":2684,"oop":2685,"Ġwolf":2686,"Ġpassed":2687,"Ġtick":2688,"Ġpir":2689,"pack":2690,"Ġtwirl":2691,"ote":2692,"Ġhopping":2693,"Ġgathered":2694,"Ġexcite":2695,"Ġbridge":2696,"Ġscr":2697,"af":2698,"Ġoften":2699,"Ġmummy":2700,"iddle":2701,"fl":2702,"Ġflag":2703,"ensive":2704,"Ġchest":2705,"Ġdrop":2706,"osaur":2707,"Ġexpensive":2708,"selves":2709,"Ġcaterpillar":2710,"Ġboring":2711,"Ġvase":2712,"Ġtent":2713,"issors":2714,"Ġtaken":2715,"illed":2716,"sist":2717,"Their":2718,"Ġmir":2719,"Ġpress":2720,"Ġlit":2721,"Ġleg":2722,"mb":2723,"Ġsaved":2724,"Ġcand":2725,"Ġscissors":2726,"izzy":2727,"Ġfil":2728,"Ġdinosaur":2729,"Ġgets":2730,"Ġdancing":2731,"Ġanswered":2732,"Ġtrue":2733,"Ġpicks":2734,"Ġexcitement":2735,"Ġworking":2736,"Ġdeer":2737,"Ġones":2738,"Ġspend":2739,"Who":2740,"ual":2741,"Ġmistake":2742,"Ġclown":2743,"Ġwagged":2744,"Ġmiddle":2745,"uce":2746,"Ġboss":2747,"ĠBr":2748,"Ġfruits":2749,"ror":2750,"que":2751,"ella":2752,"Ġgiggled":2753,"Ġwander":2754,"Ġtie":2755,"Ġpleased":2756,"Ġcomfortable":2757,"ser":2758,"ecially":2759,"Ġbrush":2760,"light":2761,"Ġmov":2762,"Ġknight":2763,"ĠOK":2764,"ates":2765,"Ġmedic":2766,"Ġrocket":2767,"ĠLeo":2768,"Ġpacked":2769,"Ġasking":2770,"ugar":2771,"Ġok":2772,"Ġbone":2773,"Ġmatch":2774,"Sp":2775,"pecially":2776,"ots":2777,"Ġstuff":2778,"Ġespecially":2779,"Ġdrum":2780,"Ġdest":2781,"Ġsight":2782,"iness":2783,"Ġwalks":2784,"Ġvegetables":2785,"ĠNo":2786,"Ġnumber":2787,"Ġdogs":2788,"Ġmedicine":2789,"Jimmy":2790,"Ġdistance":2791,"Ġadd":2792,"ushed":2793,"Ġdrawing":2794,"Ġcalling":2795,"Ġsmelly":2796,"ggs":2797,"Ġclap":2798,"Ġlazy":2799,"Ġchange":2800,"Ġlose":2801,"Ġtape":2802,"Ġsugar":2803,"Ġcap":2804,"Ġfake":2805,"Ġweak":2806,"Ġeggs":2807,"Ġtwist":2808,"Ġmoving":2809,"Ġmirror":2810,"ĠJohnny":2811,"Ġplayground":2812,"ĠBl":2813,"Ġdisappeared":2814,"ha":2815,"aged":2816,"Ġglue":2817,"Ġlying":2818,"Ġgar":2819,"Ġbecome":2820,"Ġlicked":2821,"ĠIf":2822,"Ġweek":2823,"Ġcage":2824,"ete":2825,"Ġexam":2826,"ory":2827,"Ġsweetie":2828,"Ġflut":2829,"Ġfeathers":2830,"Ġnod":2831,"Ġwheel":2832,"Ġhorn":2833,"Ġfluffy":2834,"elp":2835,"Me":2836,"Ġbake":2837,"Ġruined":2838,"Ġeld":2839,"Ġdish":2840,"Ġsplashed":2841,"Ġdrank":2842,"Ġbathroom":2843,"Ġyours":2844,"Ġrid":2845,"Ġmeasure":2846,"Ġlead":2847,"Ġbody":2848,"Ġfamous":2849,"Ġroar":2850,"Ġrelax":2851,"Ġincred":2852,"ating":2853,"Ġsell":2854,"Ġnoisy":2855,"Ġquestions":2856,"Ġmic":2857,"Ġskipped":2858,"Ġqueen":2859,"uggest":2860,"Ġed":2861,"Ġsuggest":2862,"Ġstones":2863,"Ġballs":2864,"Ġdecide":2865,"Ġlemon":2866,"Sally":2867,"hip":2868,"Ġcri":2869,"Ġclear":2870,"Ġmoms":2871,"ination":2872,"Ġext":2873,"Ġjuicy":2874,"yal":2875,"Ġshows":2876,"Ġcovered":2877,"Ġord":2878,"Ġcheck":2879,"Ġlamp":2880,"Ġglow":2881,"Ġcontent":2882,"Billy":2883,"Joe":2884,"Help":2885,"Ġswan":2886,"eez":2887,"Ġpray":2888,"Ġeager":2889,"Ġrich":2890,"Ġdig":2891,"Ġwrote":2892,"Ġtowel":2893,"Ġmotor":2894,"illi":2895,"enny":2896,"?\".":2897,"Ġshoot":2898,"Ġincredible":2899,"Ġind":2900,"ĠAt":2901,"Ġsailed":2902,"Ġteam":2903,"alous":2904,"Ġcleaned":2905,"Jill":2906,"Ġrare":2907,"Ġsoap":2908,"Ġjealous":2909,"Ġfather":2910,"Ġadventur":2911,"Ġloyal":2912,"Ġorganized":2913,"Ġcoins":2914,"Ġfine":2915,"Ġboard":2916,"Ġbranches":2917,"Ġextra":2918,"Ġboys":2919,"Ġmap":2920,"umbled":2921,"Ġneeds":2922,"Ġelderly":2923,"ĠEnd":2924,"Ġaw":2925,"Ġborrow":2926,"Ġfigure":2927,"imp":2928,"Ġadventurous":2929,"Ġhurts":2930,"Gra":2931,"Ġcost":2932,"Ġchicken":2933,"Ġbubbles":2934,"Ġdiscovered":2935,"Ġmod":2936,"keep":2937,"Ġfis":2938,"Ġham":2939,"Ġfrown":2940,"ĠLittle":2941,"Ġtag":2942,"Ġtiger":2943,"Ġrealised":2944,"Ġjoke":2945,"Ġgarage":2946,"land":2947,"Well":2948,"Ġoffered":2949,"Ġhappening":2950,"asing":2951,"ately":2952,"Ġcolourful":2953,"Ġstraw":2954,"ique":2955,"ipper":2956,"Ġcover":2957,"fic":2958,"Ġchase":2959,"Ġwand":2960,"Amy":2961,"Ġlouder":2962,"Ġarg":2963,"Ġjewel":2964,"cil":2965,"Ġtrucks":2966,"ti":2967,"Ġhose":2968,"Ġlifted":2969,"Ġunique":2970,"Ġpencil":2971,"Ġeye":2972,"Ġsword":2973,"cept":2974,"Ġdiffic":2975,"Ġweird":2976,"Ġpump":2977,"ipp":2978,"ured":2979,"Ġyog":2980,"Ġonce":2981,"Ġbottom":2982,"imed":2983,"Ġsil":2984,"Ġword":2985,"Ġmanaged":2986,"Ġbalance":2987,"Ġknife":2988,"Ġcircle":2989,"Ġthick":2990,"Ġunus":2991,"Ġtoug":2992,"Ġhunt":2993,"alk":2994,"Ġcrawled":2995,"Ġmighty":2996,"Ġguess":2997,"Ġdifficult":2998,"Ġang":2999,"Mummy":3000,"Sue":3001,"Ġwhale":3002,"Ġfright":3003,"Ġbanana":3004,"Ġbarn":3005,"ĠKitty":3006,"keeper":3007,"Ġunusual":3008,"port":3009,"Ġkindness":3010,"ages":3011,"Ġgiving":3012,"Ġfour":3013,"aw":3014,"Ġberries":3015,"Spot":3016,"Ġedge":3017,"Ġdolp":3018,"Ġlaughs":3019,"ĠBlue":3020,"iv":3021,"Ġshake":3022,"olog":3023,"ĠSusie":3024,"How":3025,"Here":3026,"Ġrecord":3027,"Ġfool":3028,"Ġharder":3029,"rag":3030,"Ġturt":3031,"Ġadded":3032,"Ġdizzy":3033,"ym":3034,"lla":3035,"Ġlearning":3036,"Ġwrapped":3037,"Ġgoat":3038,"head":3039,"Ġapolog":3040,"ĠMark":3041,"Ġballoons":3042,"ĠBrown":3043,"ola":3044,"Ġfavour":3045,"Ġpointing":3046,"Ġguit":3047,"Ġvalu":3048,"Ġtough":3049,"ready":3050,"Ġsmoke":3051,"Ġspun":3052,"Ġcab":3053,"Ġboxes":3054,"Ġhero":3055,"Ġears":3056,"Ġenjoying":3057,"ject":3058,"Ġgrown":3059,"Ġhats":3060,"Ġbelonged":3061,"Ġmeans":3062,"Ġloudly":3063,"Ġcompet":3064,"Ġdepend":3065,"Ġnorm":3066,"erry":3067,"Ġmovie":3068,"Ġharm":3069,"Ġshape":3070,"Ġmarket":3071,"Ġcircles":3072,"Ġisland":3073,"Ġbloom":3074,"Ġbald":3075,"Ġimpressed":3076,"Ġagainst":3077,"Ġref":3078,"rage":3079,"Ġalready":3080,"Ġsearch":3081,"uggled":3082,"Ġbrothers":3083,"Ġbrilli":3084,"Ġchoose":3085,"Ġcabin":3086,"Ġfavourite":3087,"und":3088,"lies":3089,"Ġsaying":3090,"Ġfalls":3091,"Ġskin":3092,"Ġflash":3093,"ery":3094,"Ġbuttons":3095,"ature":3096,"Ġpainting":3097,"ĠBobby":3098,"ye":3099,"Ġbrilliant":3100,"Ġclay":3101,"pes":3102,"Ġdreamed":3103,"Ġsafely":3104,"Ġhelps":3105,"Ġgrace":3106,"Ġter":3107,"Ġtrunk":3108,"ilt":3109,"Ġstrawber":3110,"anged":3111,"Ġbossy":3112,"ouses":3113,"Ġnormal":3114,"Ġscare":3115,"Ġwrap":3116,"Ġpee":3117,"Ġbatter":3118,"Ġguitar":3119,"Ġstubb":3120,"Ġjack":3121,"emo":3122,"ĠDan":3123,"Ġcrayon":3124,"Ġfat":3125,"fast":3126,"Ġrough":3127,"Ġslipped":3128,"Ġcher":3129,"Ġmelt":3130,"Ġknows":3131,"Ġproudly":3132,"Ġwagon":3133,"Ġvaluable":3134,"Ġhouses":3135,"Ġcudd":3136,"gy":3137,"Ġlog":3138,"Ġbreakfast":3139,"Ġfrightened":3140,"Ġcheerful":3141,"Ġfoolish":3142,"Ġstubborn":3143,"ipe":3144,"Ġcro":3145,"Ġcompetit":3146,"Ġescape":3147,"Ġhappiness":3148,"ĠMy":3149,"cient":3150,"Ġpil":3151,"omed":3152,"Ġlibr":3153,"ĠToday":3154,"Ġinvited":3155,"Ġwake":3156,"apping":3157,"reen":3158,"Ġfridge":3159,"Ġnosy":3160,"Ġstudy":3161,"Ġlaw":3162,"Ġshark":3163,"Ġancient":3164,"ĠEllie":3165,"Ġnotice":3166,"Ġbirdie":3167,"Ġturtle":3168,"Ġwalls":3169,"Ġthu":3170,"edient":3171,"Ġcity":3172,"Ġuseful":3173,"ĠFred":3174,"ext":3175,"Ġspace":3176,"Ġstri":3177,"Ġdelicate":3178,"Ġsounded":3179,"az":3180,"Ġterri":3181,"Ġaccept":3182,"orge":3183,"Ġunl":3184,"Ġicy":3185,"Ġtimes":3186,"wards":3187,"Ġfier":3188,"Ġtoast":3189,"Ġwiped":3190,"Ġdead":3191,"Ġlights":3192,"Ġlean":3193,"Ġshells":3194,"ĠRose":3195,"Ġdesign":3196,"Ġexcla":3197,"Ġoffice":3198,"Ġroof":3199,"Ġdependable":3200,"Ġfierce":3201,"Ġdreams":3202,"Ġexclaimed":3203,"Ġnicely":3204,"Ġmixed":3205,"ĠBobo":3206,"Ġtools":3207,"Ġlocked":3208,"Ġobedient":3209,"Ġsuggested":3210,"Ġbags":3211,"Ġfingers":3212,"Ġgrandpa":3213,"Ġkinds":3214,"Ġsmaller":3215,"ache":3216,"Ġcam":3217,"Ġcounted":3218,"arth":3219,"Ġstream":3220,"Ġdough":3221,"Ġrode":3222,"Ġlab":3223,"Ġrose":3224,"Ġparrot":3225,"ĠMrs":3226,"Ġstove":3227,"Ġabove":3228,"Ġexcitedly":3229,"Ġrat":3230,"Ġweal":3231,"Ġpoured":3232,"Ġmem":3233,"Ġtele":3234,"Ġlow":3235,"corn":3236,"Ġzip":3237,"ention":3238,"Ġbitter":3239,"Ġstumbled":3240,"kn":3241,"ÅĵLet":3242,"Ġjam":3243,"Ġshadow":3244,"Ġfountain":3245,"Ġshowing":3246,"na":3247,"Ġscrat":3248,"Ġcrack":3249,"Ġsuccessful":3250,"Ġegg":3251,"eorge":3252,"ado":3253,"ĠPete":3254,"Ġusing":3255,"Ġbushes":3256,"oot":3257,"Ġexplored":3258,"Ġwitch":3259,"Ġcop":3260,"Ġthemselves":3261,"Ġbrightly":3262,"arry":3263,"Ġtomato":3264,"Ġindepend":3265,"Ġspinning":3266,"uth":3267,"Ġswe":3268,"Ġfrag":3269,"ither":3270,"Ġresc":3271,"Ġpractice":3272,"Ġwhispered":3273,"irp":3274,"ĠElla":3275,"Ġadmired":3276,"inal":3277,"Ġreminded":3278,"Ġpumpkin":3279,"Ġgem":3280,"Em":3281,"Ġtwig":3282,"Ġcostum":3283,"ĠTweety":3284,"Ġjolly":3285,"Ġshone":3286,"Ġseem":3287,"dom":3288,"Ġorig":3289,"Ġperform":3290,"Ġkicked":3291,"ĠYour":3292,"Ġbuilt":3293,"Ġsniff":3294,"Ġbounce":3295,"Ġstronger":3296,"Ġways":3297,"Ġmagn":3298,"Ġdelighted":3299,"ormous":3300,"Ġpopcorn":3301,"!\".":3302,"Ġbump":3303,"Ġsteal":3304,"Ġson":3305,"Ġbeak":3306,"Ġcleaning":3307,"iable":3308,"Ġenormous":3309,"oppy":3310,"known":3311,"Ġfre":3312,"ĠU":3313,"ines":3314,"Ġspoiled":3315,"Ġraced":3316,"Ġenc":3317,"Ġjoined":3318,"vice":3319,"Ġtummy":3320,"Ġthoughtful":3321,"Ġprint":3322,"Ġaunt":3323,"eeze":3324,"Ġbees":3325,"Ġfragile":3326,"Ġdust":3327,"Ġindependent":3328,"ray":3329,"Ġdove":3330,"Ġeng":3331,"Ġhoop":3332,"Ġtunn":3333,"Ġjog":3334,"Ġplayful":3335,"Ġhammer":3336,"Ġreliable":3337,"Ġchanged":3338,"Ġoriginal":3339,"amond":3340,"ĠNemo":3341,"ict":3342,"anger":3343,"Ġhelm":3344,"anut":3345,"Ġhanded":3346,"Ġunknown":3347,"upid":3348,"cod":3349,"Ġboats":3350,"Ġrubb":3351,"Ġsolve":3352,"uring":3353,"Ġyarn":3354,"Ġdiamond":3355,"Ġfinding":3356,"Ġmetal":3357,"Ġcone":3358,"Ġbean":3359,"ĠBu":3360,"Ġleaving":3361,"ĠAlice":3362,"Ġchose":3363,"Ġpainted":3364,"Ġserious":3365,"See":3366,"atter":3367,"inary":3368,"Ġhalf":3369,"gu":3370,"Ġsink":3371,"Ġpost":3372,"Ġhairy":3373,"Ġallowed":3374,"Ġclum":3375,"Ġholds":3376,"Ġdoesn":3377,"Ġloll":3378,"Ġstat":3379,"Ġacorn":3380,"ipop":3381,"Ġhay":3382,"Ġthose":3383,"ĠDucky":3384,"Ġcamera":3385,"Ġrub":3386,"Ġmarble":3387,"mbre":3388,"Ġcheap":3389,"Ġyet":3390,"Ġumbre":3391,"Ġcrocod":3392,"ience":3393,"Ġbeet":3394,"Ġlollipop":3395,"ĠMar":3396,"Ġstupid":3397,"ebra":3398,"Ġcompass":3399,"Ġgrand":3400,"robe":3401,"Ġopens":3402,"Ġtelling":3403,"Ġguard":3404,"Ġforth":3405,"Ġsleeping":3406,"Ġwealthy":3407,"Ġmis":3408,"Ġsalad":3409,"Ġpicking":3410,"Ġstairs":3411,"Ġgasped":3412,"ĠMike":3413,"Ġgoose":3414,"Ġthirst":3415,"Ġbrace":3416,"ĠWhenever":3417,"tern":3418,"Ġsunfl":3419,"Ġthunder":3420,"ugged":3421,"Ġtank":3422,"Ġrushed":3423,"iew":3424,"ilty":3425,"Ġarrow":3426,"Ġenvel":3427,"Ġguilty":3428,"Ġangel":3429,"Ġmoder":3430,"ision":3431,"Ġclumsy":3432,"Ġpotato":3433,"Ġterrible":3434,"Ġzebra":3435,"ÅĵYes":3436,"Go":3437,"Ġwashed":3438,"Ġtor":3439,"Ġcur":3440,"Ġview":3441,"Ġknock":3442,"Ġthinking":3443,"Ġbarber":3444,"Ġbull":3445,"Ġdolphin":3446,"Ġrug":3447,"Ġpeanut":3448,"Ġprep":3449,"ĠFin":3450,"ĠBella":3451,"Ġing":3452,"Ġpopular":3453,"Ġdull":3454,"Ġpebble":3455,"Ġmissing":3456,"Ġpige":3457,"Ġsquare":3458,"Ġregular":3459,"Ġthirsty":3460,"Ġadvice":3461,"ÅĵWhat":3462,"Ġflex":3463,"Ġsearching":3464,"Ġingred":3465,"Ġingredient":3466,"Ġcreate":3467,"Ġtem":3468,"Ġmarch":3469,"umbers":3470,"Ġcareless":3471,"Ġpersist":3472,"Ġfresh":3473,"ations":3474,"Ġdeliver":3475,"time":3476,"Ġnurse":3477,"com":3478,"Ġchar":3479,"Ġrubbed":3480,"het":3481,"Ġclock":3482,"Ġmodern":3483,"Ġstage":3484,"illa":3485,"Ġcompassion":3486,"Ġstranger":3487,"Ġload":3488,"Ġsuit":3489,"Ġsauce":3490,"Ġshocked":3491,"gest":3492,"ibb":3493,"Ġcarrying":3494,"eezed":3495,"Ġnature":3496,"Ġdriving":3497,"ĠGrandpa":3498,"Ġflashlight":3499,"Ġimpressive":3500,"ĠSn":3501,"Ġstops":3502,"Ġpatch":3503,"uper":3504,"Ġgraceful":3505,"Ġsne":3506,"aghet":3507,"aghetti":3508,"oomy":3509,"Ġshiver":3510,"Ġshel":3511,"Ġdestro":3512,"Ow":3513,"Ġfriendship":3514,"Ġsparkled":3515,"Ġflexible":3516,"fa":3517,"Ġbiggest":3518,"Ġdreaming":3519,"Mary":3520,"Ġtied":3521,"Ġending":3522,"Ġengine":3523,"âĤ¬âĢ":3524,"Ġjacket":3525,"Ġwheels":3526,"Ġpirate":3527,"Ġreward":3528,"Ġbeetle":3529,"Ġwing":3530,"Ġsudden":3531,"host":3532,"Ġcrocodile":3533,"ÅĵIt":3534,"Ġpup":3535,"Ġseeds":3536,"Ġpeeked":3537,"Ġspaghetti":3538,"Ġenth":3539,"Ġpant":3540,"Ġdesk":3541,"Ġmeal":3542,"isk":3543,"ellig":3544,"Ġnumbers":3545,"arsh":3546,"Ġorder":3547,"Ġcomput":3548,"ikes":3549,"Ġintellig":3550,"Ġwarned":3551,"Ġcrazy":3552,"Ġpengu":3553,"Ġtowers":3554,"Ġstamp":3555,"loo":3556,"Ġumbrella":3557,"Ġspilled":3558,"Ġdiscover":3559,"Ġenthus":3560,"Ġsadly":3561,"ĠFr":3562,"Ġnote":3563,"Ġghost":3564,"Ġstatue":3565,"Ġpattern":3566,"Ġtur":3567,"Ġmask":3568,"Ġmel":3569,"ĠMummy":3570,"Ġenv":3571,"Ġmailbox":3572,"ement":3573,"Ġtruth":3574,"Ġwindows":3575,"Ġingredients":3576,"Ġer":3577,"Ġstack":3578,"Ġtravel":3579,"ophie":3580,"Ġsurf":3581,"Ġcomb":3582,"Ġprize":3583,"ĠWhile":3584,"Ġearly":3585,"ief":3586,"Ġimagined":3587,"Ġhandle":3588,"Ġrece":3589,"Ġenvelope":3590,"Ġearth":3591,"ĠDave":3592,"Ġbent":3593,"Ġsorts":3594,"Ġavo":3595,"io":3596,"Ġscale":3597,"Ġpale":3598,"Ġpenny":3599,"Ġtorn":3600,"Ġahead":3601,"Ġfork":3602,"ince":3603,"Ġcrane":3604,"awn":3605,"Ġturkey":3606,"Ġbadly":3607,"Ġscreen":3608,"Ġpretending":3609,"Ġjumps":3610,"illie":3611,"Ġreading":3612,"Ġhumble":3613,"Ġwire":3614,"Ġplaced":3615,"ÅĵLetÃ¢":3616,"ĠHere":3617,"ric":3618,"Ġspring":3619,"Ġspoke":3620,"iches":3621,"Ġharmless":3622,"bled":3623,"ĠcouldnÃ¢":3624,"Ġpersistent":3625,"Ġolder":3626,"Ġshut":3627,"Ġperm":3628,"Ġcere":3629,"Ġcounting":3630,"Ġgrowing":3631,"Ġtunnel":3632,"Ġencou":3633,"ĠLola":3634,"Ġslides":3635,"Ġliz":3636,"Ġlibrary":3637,"ctop":3638,"While":3639,"Ġbracelet":3640,"Ġmush":3641,"ĠGive":3642,"ctopus":3643,"Ġpiano":3644,"ĠToby":3645,"ud":3646,"Ġflute":3647,"Ġbeauty":3648,"Ġcomplet":3649,"Ġcryst":3650,"Ġsuper":3651,"Ġparade":3652,"Ġmay":3653,"ĠLook":3654,"Ġcompl":3655,"Ġnames":3656,"cream":3657,"ĠBear":3658,"Ġsofa":3659,"comfort":3660,"Ġscatter":3661,"Ġtriang":3662,"Ġcrawl":3663,"Ġanx":3664,"Yay":3665,"Ġbutterflies":3666,"Ġtrap":3667,"Ġcelebrate":3668,"Ġcarp":3669,"Ġoctopus":3670,"Ġtrash":3671,"Ġcomputer":3672,"Ġjug":3673,"ĠKim":3674,"Ġpow":3675,"ĠPe":3676,"comfortable":3677,"aid":3678,"Ġtooth":3679,"Ġuncomfortable":3680,"Ġdestroy":3681,"Ġintelligent":3682,"Ġcards":3683,"Ġtrick":3684,"Ġanxious":3685,"Ġobject":3686,"Ġrefused":3687,"ices":3688,"Ġbeep":3689,"Ġphot":3690,"Ġcourage":3691,"Ġvalue":3692,"Ġcooking":3693,"Ġhung":3694,"ubby":3695,"Ġsandwiches":3696,"Ġgum":3697,"Ġscoot":3698,"Ġtrack":3699,"Ġclub":3700,"Ġletters":3701,"Ġspeed":3702,"Ġordinary":3703,"Ġcharming":3704,"oe":3705,"uddy":3706,"Alice":3707,"Ġquestion":3708,"Ġneat":3709,"Ġbandage":3710,"Ġtwirled":3711,"aches":3712,"ips":3713,"ĠPat":3714,"Ġblueber":3715,"Ġuncle":3716,"Ġcupboard":3717,"Ġgifted":3718,"Ġcereal":3719,"Ġcamp":3720,"enry":3721,"orant":3722,"Ġhunter":3723,"Ġtask":3724,"Ġmole":3725,"Ġpigeon":3726,"Ġanywhere":3727,"Ġrules":3728,"Ġsunflower":3729,"Re":3730,"Ġbase":3731,"Ġchasing":3732,"Ġsnuggled":3733,"Ġnail":3734,"gust":3735,"Ġvi":3736,"Ġcurt":3737,"Ġcompetitive":3738,"Ġgloomy":3739,"Ġdrawer":3740,"Ġsett":3741,"Ġcurtain":3742,"Ġcollar":3743,"Ġuniver":3744,"arlie":3745,"Ġdisgust":3746,"Ġmushroom":3747,"Ġyawn":3748,"Give":3749,"Ġbicy":3750,"Ġsend":3751,"arian":3752,"ceed":3753,"Ġignorant":3754,"Ġdeaf":3755,"Ġattract":3756,"Ġstation":3757,"Ġlizard":3758,"aby":3759,"Ġcarpet":3760,"Ġleash":3761,"cut":3762,"Ġflour":3763,"used":3764,"Ġbounced":3765,"Ġstickers":3766,"Ġpasta":3767,"coa":3768,"Ġlively":3769,"Ġsoldier":3770,"Ġchance":3771,"Ġtire":3772,"Ġcompassionate":3773,"aff":3774,"Ġstarts":3775,"Ġalert":3776,"Ġhurry":3777,"Ġled":3778,"Ġpony":3779,"Ġchubby":3780,"Ġcartoon":3781,"ses":3782,"stri":3783,"Ġsupport":3784,"Ġdug":3785,"erable":3786,"ĠSm":3787,"Ġpressed":3788,"Ġpackage":3789,"Ġwishes":3790,"cu":3791,"Ġcreatures":3792,"Ġhelpless":3793,"Ġmiserable":3794,"Ġshine":3795,"ĠMandy":3796,"Ġjet":3797,"ĠEventually":3798,"tter":3799,"urb":3800,"Ġhook":3801,"Ġthief":3802,"Ġstretched":3803,"Ġhipp":3804,"Ġgir":3805,"Ġshaking":3806,"Ġresist":3807,"Ġtap":3808,"ummer":3809,"Ġitself":3810,"Ġhelmet":3811,"Ġsquash":3812,"ÅĵThat":3813,"iest":3814,"Ġdisturb":3815,"heart":3816,"Ġpants":3817,"Ġgor":3818,"Ġtray":3819,"Ġcocoa":3820,"Ġener":3821,"ĠPolly":3822,"Ġneedle":3823,"Ġpoem":3824,"Ġimpat":3825,"gie":3826,"Ġshouts":3827,"Ġfearful":3828,"Ġpepper":3829,"Ġcricket":3830,"Ġcase":3831,"ĠAl":3832,"noon":3833,"Ġten":3834,"Ġafternoon":3835,"Daisy":3836,"ĠSh":3837,"ĠAre":3838,"Ġsucceed":3839,"Ġrepe":3840,"Ġmill":3841,"Ġbrighter":3842,"Ġallig":3843,"Ġbet":3844,"Ġleop":3845,"If":3846,"Ġenvious":3847,"Ġribb":3848,"ĠBill":3849,"Ġtemp":3850,"aurant":3851,"Ġimpatient":3852,"Ġwaff":3853,"orable":3854,"Ġnobody":3855,"Ġdisgusting":3856,"Ġrestaurant":3857,"Ġcomet":3858,"Ġmath":3859,"Ġpracticed":3860,"Ġcrystal":3861,"aked":3862,"Ġrice":3863,"Ġcube":3864,"Ġsteps":3865,"Ġfurther":3866,"Ġotter":3867,"Ġsandbox":3868,"Ġscrew":3869,"ĠGeorge":3870,"Ġtrump":3871,"Ġsomewhere":3872,"Ġcandle":3873,"Ġattractive":3874,"ĠWhere":3875,"Ġmonkeys":3876,"Ġpun":3877,"Ġpurse":3878,"olin":3879,"Bye":3880,"Ġvide":3881,"Ġjeep":3882,"Ġbackpack":3883,"Ġhuman":3884,"Ġmeas":3885,"Ġskip":3886,"Ġanyway":3887,"Ġfireman":3888,"Ġadorable":3889,"Ġrestless":3890,"Ġstretch":3891,"icop":3892,"icopter":3893,"Ġmug":3894,"Ġfilthy":3895,"Ġdess":3896,"strich":3897,"Ġfu":3898,"aroo":3899,"angaroo":3900,"Ġdecorate":3901,"Ġbri":3902,"stic":3903,"Ġrespectful":3904,"Ġtroubled":3905,"Ġgiggle":3906,"ĠCl":3907,"gn":3908,"Benny":3909,"Ġattic":3910,"Ġhelicopter":3911,"Ġmuff":3912,"Ġpand":3913,"Ġmelon":3914,"Ġthread":3915,"Ġnowhere":3916,"Ġraven":3917,"Ġstirred":3918,"Ġsoar":3919,"Ġenthusia":3920,"Ġfle":3921,"lcano":3922,"Ġenthusiastic":3923,"Ġgrabs":3924,"Ġimpro":3925,"Ġgorilla":3926,"Ġleopard":3927,"Ġfinds":3928,"Ġbarking":3929,"Ġcooked":3930,"Ġexplain":3931,"Ġmagnet":3932,"Ġbicycle":3933,"Ġtrumpet":3934,"Ġkangaroo":3935,"Ġnuts":3936,"shed":3937,"Ġquar":3938,"Ġhippo":3939,"ĠLee":3940,"Ġshoe":3941,"Ġlistening":3942,"Ġcats":3943,"Ġsummer":3944,"Ġdistant":3945,"Ġfive":3946,"Ġbarrel":3947,"irit":3948,"stairs":3949,"gging":3950,"ĠWh":3951,"Ġspell":3952,"Ġreco":3953,"Ġexper":3954,"night":3955,"Ġstared":3956,"Ġadmire":3957,"Ġpipe":3958,"Little":3959,"Ġunpack":3960,"Ġvolcano":3961,"Ġants":3962,"Ġjellyfish":3963,"Ġhappier":3964,"Ġsent":3965,"Ġalligator":3966,"Ġfort":3967,"Ġorganize":3968,"Ġharsh":3969,"Ġur":3970,"uct":3971,"Ġquite":3972,"ĠEverything":3973,"come":3974,"Ġsplit":3975,"Ġsecond":3976,"Ġvine":3977,"Ġsweetheart":3978,"Ġpaws":3979,"ĠWould":3980,"Ġradio":3981,"Everyone":3982,"cycle":3983,"Ġriding":3984,"Ġpulls":3985,"Ġgiven":3986,"Ġbatht":3987,"ophone":3988,"Ġseal":3989,"ĠdidnÃ¢":3990,"Ġfirework":3991,"Ġscooter":3992,"Ġbreat":3993,"par":3994,"erop":3995,"eropl":3996,"Ġpal":3997,"Ġbathtub":3998,"Ġmodest":3999,"apa":4000,"Ġhall":4001,"Ġtripped":4002,"Ġaeropl":4003,"Ġmessage":4004,"Ġchalk":4005,"Ġlid":4006,"Ġsepar":4007,"Ġbikes":4008,"Ġcows":4009,"Ġsle":4010,"Ġpushing":4011,"Ġspeak":4012,"Ġfrowned":4013,"Ġmama":4014,"llie":4015,"Ġostrich":4016,"Ġsort":4017,"ĠJoey":4018,"Ġsailor":4019,"Ġshield":4020,"Ġsweater":4021,"Ġpaid":4022,"Ġeras":4023,"Ġrepair":4024,"ccol":4025,"Ġsock":4026,"Ġbin":4027,"ĠBrownie":4028,"Ġdessert":4029,"Ġmeat":4030,"Ġsalt":4031,"year":4032,"Ġhaircut":4033,"Ġobser":4034,"Ġsize":4035,"ccoli":4036,"aggie":4037,"hood":4038,"eer":4039,"Ġrescue":4040,"Ġspirit":4041,"Ġeither":4042,"ucked":4043,"ĠTweetie":4044,"Ġpilot":4045,"Ġviolin":4046,"ĠJerry":4047,"Ġholes":4048,"Ġgrapes":4049,"Ġscold":4050,"Ġlightning":4051,"Ġtriangle":4052,"ĠSmith":4053,"Ġbelt":4054,"Ġsheet":4055,"Ġbehave":4056,"Ġbuzz":4057,"ĠAlex":4058,"Ġroared":4059,"Ġdishes":4060,"Ġpalace":4061,"rec":4062,"Ġcountry":4063,"Ġcostume":4064,"Ġpushes":4065,"Ġelev":4066,"Grandma":4067,"Ġlions":4068,"Ġforgave":4069,"Ġswitch":4070,"Ġstarting":4071,"Ġpapers":4072,"Ġluck":4073,"Ġcush":4074,"Ġchain":4075,"astic":4076,"Ġped":4077,"Ġraft":4078,"Ġsticker":4079,"Ġswinging":4080,"Ġloop":4081,"Ġpeek":4082,"Ġshakes":4083,"Ġrecogn":4084,"Ġbears":4085,"bul":4086,"Ġshade":4087,"Ġtrains":4088,"ÅĵYou":4089,"Ġelevator":4090,"Ġhive":4091,"Ġshopkeeper":4092,"Ġmicr":4093,"Ġchecked":4094,"Ġsaus":4095,"Ġbasketball":4096,"Ġtax":4097,"Ġsilver":4098,"Ġbroccoli":4099,"Ġjokes":4100,"happy":4101,"ipping":4102,"Ġalive":4103,"Ġrod":4104,"Ġoy":4105,"reci":4106,"Ġlip":4107,"icer":4108,"Ġprov":4109,"ffe":4110,"Ġlear":4111,"Ġfalling":4112,"Ġlearnt":4113,"Ġwheat":4114,"Ġenergy":4115,"ube":4116,"Ġappreci":4117,"Ġsoftly":4118,"ffee":4119,"aled":4120,"Ġpole":4121,"Ġevening":4122,"Ġmicrophone":4123,"Ġwallet":4124,"Ġneighbour":4125,"Ġinse":4126,"Ġpor":4127,"Ġjudge":4128,"Ġcact":4129,"Ġplanet":4130,"iskers":4131,"Ġcolours":4132,"Ġpenguin":4133,"Ġbarks":4134,"Ġvisited":4135,"Ġended":4136,"Ġreind":4137,"iling":4138,"Ġknot":4139,"Ġclapping":4140,"ĠOr":4141,"cast":4142,"inking":4143,"Ġhedge":4144,"Ġzoomed":4145,"Ġrubber":4146,"edy":4147,"Ġoat":4148,"Ġmarched":4149,"Ġboots":4150,"Ġunhappy":4151,"Ġjournal":4152,"Ġeraser":4153,"play":4154,"Ġmild":4155,"Ġol":4156,"ense":4157,"Ġavoc":4158,"Daddy":4159,"Ġshovel":4160,"Ġtaxi":4161,"Ġgro":4162,"Ġsandcast":4163,"Ġpad":4164,"ooped":4165,"Ġlaund":4166,"ophy":4167,"ĠSnow":4168,"Ġtube":4169,"Ġcardboard":4170,"imi":4171,"Ġlaundry":4172,"ĠSophie":4173,"Ġart":4174,"Ġavail":4175,"elery":4176,"Ġbur":4177,"seum":4178,"aulif":4179,"Ha":4180,"Ġpanda":4181,"aulifl":4182,"Ġreindeer":4183,"ebook":4184,"Ġbelongs":4185,"Ġambul":4186,"Ġnotebook":4187,"Ġwool":4188,"Ġcord":4189,"ĠRed":4190,"Ġdrawings":4191,"Ġcactus":4192,"Ġsmells":4193,"Ġsprink":4194,"Ġtrophy":4195,"Ġshelter":4196,"Ġmule":4197,"Ġfeelings":4198,"Ġsteak":4199,"Ġputting":4200,"Ġclimbing":4201,"Ġdisplay":4202,"Ġpainter":4203,"Jenny":4204,"Ġrolling":4205,"Ġunlock":4206,"Ġmuseum":4207,"Ġtricks":4208,"Ġhadn":4209,"Ġbreaks":4210,"Ġmen":4211,"ait":4212,"Ġstrugg":4213,"Ġbananas":4214,"Ġavailable":4215,"nger":4216,"Ġraining":4217,"Ġstrawberry":4218,"Ġdive":4219,"ges":4220,"Ġstom":4221,"Ġsoil":4222,"Ġflies":4223,"ĠBuddy":4224,"Ġbul":4225,"Ġcoffee":4226,"Ġhoping":4227,"nam":4228,"ĠTr":4229,"ĠdonÃ¢":4230,"Ġmarry":4231,"Ġgoal":4232,"Ġpair":4233,"Ġambulance":4234,"reeze":4235,"Ġthanks":4236,"azz":4237,"Ġcaulifl":4238,"Ġleaned":4239,"Ġlend":4240,"Ġframe":4241,"iron":4242,"Ġshort":4243,"ron":4244,"ĠPapa":4245,"Ġinsist":4246,"mand":4247,"ĠBet":4248,"Ġpolish":4249,"Ġcups":4250,"Ġquarrel":4251,"Ġheads":4252,"Ġtreasures":4253,"Ġprun":4254,"Ġcelery":4255,"Ġskill":4256,"ĠBunny":4257,"Ġbulb":4258,"Ġfields":4259,"Ġincl":4260,"Ġairport":4261,"hino":4262,"Ġapologized":4263,"Ġonion":4264,"sely":4265,"Ġyach":4266,"Ġink":4267,"Ġfootball":4268,"Ġfolder":4269,"ecause":4270,"eath":4271,"ctory":4272,"Ġdrops":4273,"Ġdiary":4274,"Ġflame":4275,"ĠAndy":4276,"Ġminute":4277,"Ġaeroplane":4278,"urch":4279,"Ġfilm":4280,"Ġrever":4281,"Ġimagine":4282,"Ġmedal":4283,"Ġvest":4284,"Ġlawy":4285,"Ġkitty":4286,"Ġgolf":4287,"Ġappl":4288,"Ġfactory":4289,"Ġsym":4290,"Ġshouldn":4291,"ected":4292,"ĠPaul":4293,"Ġvend":4294,"Ġeagerly":4295,"pe":4296,"Ġswung":4297,"Ġshrimp":4298,"Ġcauliflower":4299,"Ġyogurt":4300,"Ġmagaz":4301,"Ġcomplete":4302,"Ġtub":4303,"Ġpage":4304,"Ġrag":4305,"ween":4306,"Ġyacht":4307,"Ġclosely":4308,"âĤ¬âĢľ":4309,"Ġporch":4310,"nament":4311,"kelet":4312,"Ġhotel":4313,"Ġbetween":4314,"Ġpoints":4315,"place":4316,"Ġrhino":4317,"Ġornament":4318,"Ġflea":4319,"Ġquit":4320,"Ġdisag":4321,"Ġshouting":4322,"..":4323,"Ġwinter":4324,"Ġstuffed":4325,"Ġcheek":4326,"stead":4327,"Ġpit":4328,"ef":4329,"osie":4330,"Ġchirp":4331,"Ġcooler":4332,"render":4333,"Ġsunset":4334,"Ġseeing":4335,"gen":4336,"Ġimagination":4337,"Ġpoint":4338,"izes":4339,"Ġfrogs":4340,"bol":4341,"ĠWhiskers":4342,"Ġinsect":4343,"zzy":4344,"Ġperfectly":4345,"Ġthrows":4346,"anic":4347,"ĠSandy":4348,"Ġforgotten":4349,"Ġcounter":4350,"Ġsymbol":4351,"Ġlaser":4352,"Ġherb":4353,"Ch":4354,"Ġtwink":4355,"affe":4356,"Ġknob":4357,"ĠTed":4358,"Ġlives":4359,"chanic":4360,"Ġheaded":4361,"Ġcreated":4362,"Ġfurn":4363,"Ġskelet":4364,"iture":4365,"Ġattention":4366,"aces":4367,"Ġfurniture":4368,"Ġtuna":4369,"quit":4370,"Ġtemple":4371,"ides":4372,"Ġmechanic":4373,"Ġax":4374,"Ġlie":4375,"Ġtrail":4376,"Ġmixer":4377,"ccer":4378,"Ġsir":4379,"Ġphoto":4380,"Ġvendor":4381,"Ġwife":4382,"Ġmotorcycle":4383,"Ġbaking":4384,"Ġstud":4385,"ites":4386,"Ġplayer":4387,"Ġslept":4388,"Ġoffer":4389,"ĠAnnie":4390,"gl":4391,"Ġcoal":4392,"ĠRo":4393,"Ġkay":4394,"Ġpoke":4395,"Ġsoccer":4396,"ĠWill":4397,"Ġpetals":4398,"Ġtheater":4399,"quito":4400,"aws":4401,"Ġpeach":4402,"Ġargue":4403,"Ġhut":4404,"spap":4405,"Ġpirates":4406,"Ġmos":4407,"Ġlawyer":4408,"Ġwaving":4409,"ĠBun":4410,"Ġswamp":4411,"Ġgiraffe":4412,"Ġnewspap":4413,"Ġskull":4414,"right":4415,"Your":4416,"Ġfireplace":4417,"Ġvet":4418,"ories":4419,"Ġweather":4420,"Inside":4421,"Ġpine":4422,"ckey":4423,"Ġhockey":4424,"Ġoil":4425,"Ġig":4426,"Ġcherries":4427,"any":4428,"Ġigloo":4429,"orses":4430,"Ġskeleton":4431,"ues":4432,"Ġitch":4433,"Ġblowing":4434,"Ġzipper":4435,"Ġwipe":4436,"ĠCharlie":4437,"Ġaxe":4438,"Ġglove":4439,"ĠGrace":4440,"Ġhorses":4441,"Ġmosquito":4442,"Ġcalls":4443,"Ġgrin":4444,"Ġcushion":4445,"Ġfreez":4446,"ĠMaria":4447,"Ġvideo":4448,"Ġchurch":4449,"Ġreef":4450,"Ġglowing":4451,"Eventually":4452,"Ġmaze":4453,"Ġgrocer":4454,"Ġbreeze":4455,"Ġwelcomed":4456,"Ġtrave":4457,"Ġcable":4458,"glass":4459,"ceros":4460,"Ġgolden":4461,"Ġshower":4462,"Ġmeeting":4463,"Ġslipper":4464,"angu":4465,"Ġbouncing":4466,"Ġchickens":4467,"Ġcelebrated":4468,"Ġsneak":4469,"Ġsurrender":4470,"Ġlime":4471,"Ġplastic":4472,"Ġslippery":4473,"unately":4474,"Ġsquirrels":4475,"Ġfishing":4476,"Ġtut":4477,"elcome":4478,"Ġpopped":4479,"Ġlangu":4480,"Ġsunglass":4481,"Ġsunglasses":4482,"Ġgreedy":4483,"hero":4484,"ĠBaby":4485,"ney":4486,"was":4487,"Ġseas":4488,"Ġsniffed":4489,"Ġlotion":4490,"Ġkingdom":4491,"Ġpowder":4492,"Ġstreng":4493,"Ġflapped":4494,"Ġcomplain":4495,"mm":4496,"Ġwags":4497,"Ġoyster":4498,"rr":4499,"ĠMillie":4500,"Ġhanging":4501,"Ġfisher":4502,"Ġparent":4503,"Ġdoors":4504,"Ġrhinoceros":4505,"ĠitÃ¢":4506,"Ġshoulder":4507,"Ġsuperhero":4508,"Ġpist":4509,"Ġrot":4510,"Ġbury":4511,"washer":4512,"rod":4513,"Ġdear":4514,"Ġsub":4515,"Ġyoga":4516,"Ġstaff":4517,"Ġbaseball":4518,"Ġstrength":4519,"Ġfauc":4520,"Ġbattery":4521,"vision":4522,"Ġcabinet":4523,"Ġsurround":4524,"Ġsince":4525,"Ġpistol":4526,"Ġunif":4527,"Ġinvest":4528,"ĠGod":4529,"Ġdishwasher":4530,"ĠUn":4531,"Ġintrod":4532,"Ġmystery":4533,"chor":4534,"Ġiron":4535,"case":4536,"Ġuniform":4537,"Ġceiling":4538,"ĠIÃ¢":4539,"Ġsque":4540,"Ġinvestig":4541,"rosc":4542,"Ġhopes":4543,"Ġmusician":4544,"Ġsticky":4545,"ab":4546,"Ġeaten":4547,"Ġmemories":4548,"Ġfaucet":4549,"ĠJess":4550,"inarian":4551,"ĠInstead":4552,"eterinarian":4553,"Ġfought":4554,"te":4555,"Ġkayak":4556,"ĠLilly":4557,"Ġreve":4558,"Ġvroom":4559,"Ġveterinarian":4560,"ssible":4561,"Ġchess":4562,"Ġtoil":4563,"Ġagree":4564,"roscope":4565,"Ġnovel":4566,"Ġsailing":4567,"ĠHenry":4568,"tress":4569,"men":4570,"una":4571,"Ġmattress":4572,"Ġmistakes":4573,"Ġignored":4574,"ĠMimi":4575,"Ġnews":4576,"Ġburned":4577,"Ġtelevision":4578,"Ġble":4579,"medi":4580,"Next":4581,"Sammy":4582,"Ġfollows":4583,"Ġcell":4584,"alley":4585,"Ġcob":4586,"Ġquack":4587,"Emma":4588,"Wait":4589,"Ġshrugged":4590,"Today":4591,"Ġjewelry":4592,"mediately":4593,"Ġmicroscope":4594,"Ġtoilet":4595,"Ġmop":4596,"Ġsprayed":4597,"ison":4598,"tain":4599,"Ġblankets":4600,"Ġhappens":4601,"Ġwriting":4602,"Ġdiscu":4603,"Ġweigh":4604,"Ġdancer":4605,"Ġnapkin":4606,"Ġquietly":4607,"Ġanchor":4608,"Ġclassroom":4609,"aud":4610,"Ġmoves":4611,"Ġradish":4612,"Ġavocado":4613,"Ġinvestigate":4614,"Ġsuff":4615,"Ġvalley":4616,"Ġregret":4617,"Ġprevent":4618,"Ġcollected":4619,"Together":4620,"Ġagre":4621,"Ġworth":4622,"web":4623,"Ġalarm":4624,"Thanks":4625,"Ġthrowing":4626,"Ġbother":4627,"Ġhar":4628,"Ġmagazine":4629,"Ann":4630,"Ġscolded":4631,"ives":4632,"ler":4633,"inked":4634,"Ġcared":4635,"chie":4636,"Ġchoice":4637,"reek":4638,"Ġtear":4639,"house":4640,"chair":4641,"Ġcreek":4642,"Ġskirt":4643,"Ġoak":4644,"Ġcane":4645,"rs":4646,"Ġbeef":4647,"Ġfisherman":4648,"ÅĵItÃ¢":4649,"Ġattach":4650,"Ġpassport":4651,"erc":4652,"anny":4653,"Ġgym":4654,"Ġcastles":4655,"Ġcobweb":4656,"Ġtug":4657,"Ġapart":4658,"Ġyield":4659,"Ġapplaud":4660,"Ġtutor":4661,"ĠRosie":4662,"ĠNext":4663,"Ġward":4664,"Ġpresents":4665,"Ġaccepted":4666,"anges":4667,"Ġseparate":4668,"Ġsizes":4669,"Ġnewspaper":4670,"ĠDanny":4671,"Ġwardrobe":4672,"Ġlicks":4673,"Ġmatches":4674,"Ġpuddles":4675,"Ġcrib":4676,"Ġarmchair":4677,"Qu":4678,"Ġrise":4679,"Ġstraight":4680,"Ġentered":4681,"Ġbookcase":4682,"Ġtrusted":4683,"Ġpra":4684,"imney":4685,"Ġdelay":4686,"ĠTony":4687,"Ġtucked":4688,"Ġcaring":4689,"Ġcandles":4690,"Ġgrill":4691,"Ġwhisper":4692,"ety":4693,"Because":4694,"Ġfog":4695,"Ġkeeping":4696,"Ġveil":4697,"Ġpur":4698,"ĠKate":4699,"Ġrooms":4700,"Ġperfu":4701,"Ġkisses":4702,"Ġcrow":4703,"Ġimprove":4704,"Ġchimney":4705,"Ġcoats":4706,"Ġexerc":4707,"ĠHarry":4708,"Ġclaws":4709,"Ġdressed":4710,"ĠSee":4711,"Ġlawn":4712,"ampoo":4713,"Ġraz":4714,"Ġboot":4715,"Ġblood":4716,"Ġfloat":4717,"Ġfreezer":4718,"Ġdisappear":4719,"Ġpastry":4720,"iday":4721,"Ġworms":4722,"Ġpuzzles":4723,"ah":4724,"hic":4725,"sit":4726,"ĠHelp":4727,"Ġletting":4728,"eve":4729,"Ġstro":4730,"Ġvehic":4731,"ring":4732,"omes":4733,"Ġstable":4734,"ggy":4735,"Ġamazement":4736,"iction":4737,"Ġsplashing":4738,"Ġblinked":4739,"ival":4740,"Ġchairs":4741,"Ġperfume":4742,"Ġblouse":4743,"Ġsteam":4744,"ictionary":4745,"Ġroot":4746,"Ġpinch":4747,"mend":4748,"Ġfile":4749,"Ġshampoo":4750,"ĠAb":4751,"Ġappro":4752,"Ġaut":4753,"Ġwarmth":4754,"ĠMiss":4755,"Ġinf":4756,"Ġmakeup":4757,"Ġopera":4758,"Ġdemand":4759,"ived":4760,"Ġdictionary":4761,"Ġsqueeze":4762,"Ġsigh":4763,"Ġcrawling":4764,"Ġrake":4765,"Ġeasily":4766,"Ġlanguage":4767,"Ġwaste":4768,"Ġsqueezed":4769,"raged":4770,"Ġmint":4771,"Ġwigg":4772,"Ġcrossed":4773,"Ġmustache":4774,"ĠSu":4775,"ction":4776,"Ġrazor":4777,"Ġserve":4778,"ommend":4779,"Ġcub":4780,"Ġrecommend":4781,"Ġincre":4782,"Ġribbon":4783,"Ġpear":4784,"Did":4785,"ores":4786,"Ġhol":4787,"Ġrelaxed":4788,"ĠJul":4789,"âĤ¬.":4790,"Ġticket":4791,"Ġsnap":4792,"Ġholiday":4793,"Ġwandered":4794,"uckily":4795,"ĠRu":4796,"Ġhearts":4797,"Ġmissile":4798,"cage":4799,"Ġweep":4800,"Ġspear":4801,"Ġteleph":4802,"Mandy":4803,"Ġringing":4804,"Ġblueberries":4805,"Ġinstr":4806,"Ġhurting":4807,"Ġminer":4808,"Ġrail":4809,"Ġbirdcage":4810,"Is":4811,"Ġpoked":4812,"Ġbelow":4813,"Ġtelephone":4814,"Ġrequ":4815,"ĠRe":4816,"lend":4817,"fortunately":4818,"Ġcrash":4819,"Ġfest":4820,"Ġgear":4821,"Ġhelper":4822,"asis":4823,"Ġsurprises":4824,"Ġfollowing":4825,"Ġplanes":4826,"Ġsubway":4827,"Ġgrowled":4828,"Ġjunk":4829,"Ġmuffin":4830,"bbie":4831,"Ġkneel":4832,"ĠWho":4833,"ib":4834,"cus":4835,"Ġquiz":4836,"Ġtornado":4837,"Ġyucky":4838,"Ġsneeze":4839,"Ġideas":4840,"Ġrefre":4841,"Ġisn":4842,"ising":4843,"Ġtrade":4844,"Ġmarried":4845,"ups":4846,"Ġlumber":4847,"Ġdire":4848,"Ġharb":4849,"Ġreaches":4850,"Ġsandcastle":4851,"Ġbegged":4852,"inky":4853,"Ġstrawberries":4854,"Ġmyself":4855,"Ġbill":4856,"Ġoasis":4857,"Ġflutter":4858,"Will":4859,"amber":4860,"Ġshrink":4861,"Ġlaught":4862,"Ġberry":4863,"Ġburied":4864,"icing":4865,"Ġbravely":4866,"Ġfallen":4867,"Ġenter":4868,"Ġplates":4869,"Ġlaughter":4870,"Ġbookshe":4871,"Ġimmediately":4872,"Ġcalend":4873,"Ġbumped":4874,"Ġbeamed":4875,"omeday":4876,"achel":4877,"omob":4878,"Ġraise":4879,"Ġrequest":4880,"Yuck":4881,"Ġweap":4882,"Ġexperience":4883,"Ġlic":4884,"Ġadmir":4885,"Ġrabbits":4886,"Ġinvite":4887,"Ok":4888,"ops":4889,"Ġtong":4890,"ĠJames":4891,"Ġalright":4892,"aped":4893,"Ġmass":4894,"'ve":4895,"Ġunderstanding":4896,"Ġcalendar":4897,"Ġmoments":4898,"atie":4899,"Ġskills":4900,"Ġautomob":4901,"Ġjail":4902,"Ġreverse":4903,"Ġthumb":4904,"Ġbleed":4905,"htray":4906,"ĠTrue":4907,"Ġcliff":4908,"Ġharbor":4909,"Ġbookshelf":4910,"Ġashtray":4911,"sters":4912,"Ġknown":4913,"ĠClara":4914,"igail":4915,"oral":4916,"Ġvac":4917,"Ġfuel":4918,"Ġpages":4919,"ari":4920,"Ġignore":4921,"Ġitem":4922,"Ġsupply":4923,"ission":4924,"Ġbathe":4925,"Lisa":4926,"Ġdried":4927,"Ġsnapped":4928,"Ġapron":4929,"riger":4930,"Ġsafety":4931,"rigerator":4932,"lier":4933,"Welcome":4934,"Ġpermission":4935,"Ġhardly":4936,"Ġrefrigerator":4937,"Ġfestival":4938,"With":4939,"Ġspots":4940,"ĠSnowy":4941,"Ġcaptain":4942,"ucture":4943,"Ġremove":4944,"Ġsomeday":4945,"Ġstructure":4946,"Ġsparkling":4947,"Ġsocks":4948,"Ġcuddled":4949,"Ġsaving":4950,"asp":4951,"Ġbalan":4952,"Ġblackboard":4953,"'.":4954,"Ġwhip":4955,"cakes":4956,"Ġchamber":4957,"ĠFo":4958,"Ġwine":4959,"Ġdestination":4960,"Ġtoes":4961,"Ġspending":4962,"Ġlemonade":4963,"Ġres":4964,"Ġspade":4965,"Ġdresses":4966,"Ġhits":4967,"ÅĵNo":4968,"Ġhanger":4969,"Ġinsisted":4970,"Ġteaching":4971,"Ġbreathe":4972,"Ġscattered":4973,"ents":4974,"Ġwaffle":4975,"ĠIts":4976,"Ġsettled":4977,"ĠKing":4978,"Ġdestroyed":4979,"Ġairpl":4980,"Ġlabel":4981,"Ġbuzzing":4982,"Ġpraised":4983,"Ġjewels":4984,"Ġprepare":4985,"Ġyawned":4986,"Ġlicense":4987,"Ġtaller":4988,"Ġmodel":4989,"Ġfiref":4990,"Ġport":4991,"Ġscooped":4992,"Ġdifferen":4993,"Ġreceived":4994,"Ġlily":4995,"Ġrow":4996,"Ġpride":4997,"Ġprop":4998,"Ġbuckle":4999,"Ġearlier":5000,"Ġtour":5001,"ĠHave":5002,"ĠMaggie":5003,"Ġhomes":5004,"Ġbeans":5005,"ium":5006,"Ġvanished":5007,"Ġglo":5008,"reat":5009,"Ġpatiently":5010,"ĠFreddy":5011,"ctly":5012,"Ġremain":5013,"Ġbathrobe":5014,"Ġappreciate":5015,"Ġchirping":5016,"Ġachie":5017,"Ġdeeper":5018,"Ġpulling":5019,"Ġnone":5020,"Ġsausage":5021,"antly":5022,"Ġsits":5023,"Ġdare":5024,"anna":5025,"Ġdecorations":5026,"Ġdrain":5027,"Ġhate":5028,"Ġshed":5029,"Ġrhy":5030,"Ġpunish":5031,"Ġwashing":5032,"ĠEach":5033,"ĠPeople":5034,"Ġfastest":5035,"Ġsimp":5036,"Ġsparkles":5037,"Ġbelieved":5038,"Ġtore":5039,"Ġencouraged":5040,"Ġreplace":5041,"ĠBefore":5042,"Ġsuffer":5043,"xture":5044,"Ġsparkle":5045,"Ġbrain":5046,"atch":5047,"nies":5048,"ĠTina":5049,"Ġtease":5050,"Ġclimbs":5051,"ĠIs":5052,"Peter":5053,"sing":5054,"sity":5055,"Ġinvit":5056,"Ġtongue":5057,"All":5058,"Ġbang":5059,"Ġpalm":5060,"Ġhills":5061,"Ġscratch":5062,"Ġmention":5063,"Emily":5064,"Ġguy":5065,"Ġfloated":5066,"Ġhers":5067,"Ġautomobile":5068,"Ġplays":5069,"ĠCo":5070,"Ġrespons":5071,"bey":5072,"Ġweeks":5073,"ĠMay":5074,"Ġflav":5075,"Ġcrunch":5076,"Ġdigg":5077,"Ġsty":5078,"Ġinfant":5079,"Ġheat":5080,"Ġoranges":5081,"osed":5082,"Ġpanic":5083,"Ġgifts":5084,"Ġscore":5085,"izard":5086,"Ġsolved":5087,"Ġdigging":5088,"Ġworse":5089,"Ġshot":5090,"Ġupstairs":5091,"Ġstad":5092,"These":5093,"Ġvacation":5094,"Ġstadium":5095,"Ġmeowed":5096,"Ġstruggling":5097,"Ġmitten":5098,"Ġequ":5099,"thm":5100,"Ġtwisted":5101,"Ġshooting":5102,"Ġbak":5103,"Ġchores":5104,"ĠBuzz":5105,"Ġexamine":5106,"Ġfloating":5107,"Ġsew":5108,"Ġsneezed":5109,"ĠV":5110,"Ġpoison":5111,"Ġhesit":5112,"osity":5113,"Jen":5114,"Fl":5115,"Ġthrilled":5116,"ĠOllie":5117,"fied":5118,"allen":5119,"Ġuniverse":5120,"rm":5121,"Ġawe":5122,"Ġspaces":5123,"Ġbites":5124,"Ġvehicle":5125,"Ġsport":5126,"Ġcherry":5127,"Ġsetting":5128,"Ġprovide":5129,"Ġwarning":5130,"Ġparts":5131,"Ġmall":5132,"Ġchallen":5133,"Ġnation":5134,"Ġgrey":5135,"ĠGood":5136,"Mmm":5137,"Ġrestore":5138,"do":5139,"xy":5140,"Ġmeasured":5141,"Ġtherm":5142,"Ġgrinned":5143,"Ġapproached":5144,"Ġmassage":5145,"ero":5146,"ude":5147,"Ġranch":5148,"Ġrhythm":5149,"ĠEveryday":5150,"Ġcollection":5151,"Ġrepeat":5152,"Ġjazz":5153,"Ġurge":5154,"Ġweapon":5155,"Ġevent":5156,"Ġfut":5157,"Ġbrings":5158,"Ġwizard":5159,"Ġremained":5160,"Ġoper":5161,"Ġneighborhood":5162,"ls":5163,"Ġfuture":5164,"Ġstomach":5165,"ging":5166,"umble":5167,"Ġthermomet":5168,"Sh":5169,"Ġdiscuss":5170,"Ġlugg":5171,"Ġbillboard":5172,"Ġmemory":5173,"emember":5174,"Ġelephants":5175,"Ġdifference":5176,"Ġluggage":5177,"Ġmailman":5178,"Ġcartoons":5179,"Ġactually":5180,"!\",":5181,"Mark":5182,"Ġuniversity":5183,"Ġseats":5184,"Ġleak":5185,"Ġflood":5186,"Ġglowed":5187,"Not":5188,"avid":5189,"Ġsupposed":5190,"Would":5191,"Ġgrape":5192,"Ġfixing":5193,"Ġthermometer":5194,"Jake":5195,"allow":5196,"Ġmarbles":5197,"aspoon":5198,"Ġpoppy":5199,"!'":5200,"Ġsprinkles":5201,"Ġinclud":5202,"Ġbricks":5203,"Ġduring":5204,"Johnny":5205,"Ġteaspoon":5206,"Ġpaints":5207,"Ġsigns":5208,"Ġrush":5209,"Ġairplane":5210,"ĠBetsy":5211,"Al":5212,"Ġconf":5213,"Ġemer":5214,"Ġmelted":5215,"Ready":5216,"Ġdiscovery":5217,"Ġreceive":5218,"Ġpotatoes":5219,"Ġsurrounded":5220,"Ġbrus":5221,"ĠLater":5222,"Ġmister":5223,"Ġcurled":5224,"Ġhurric":5225,"Ġwatches":5226,"ĠJoy":5227,"Ġsip":5228,"Ġwisdom":5229,"Ġsore":5230,"Ġgirls":5231,"Ġzipped":5232,"rise":5233,"vet":5234,"Ġpillows":5235,"Ġtomatoes":5236,"Ġrust":5237,"Ġlaid":5238,"Ġdaisy":5239,"ĠLiz":5240,"Ġdecision":5241,"Ġproblems":5242,"Ġfasc":5243,"Ġpaused":5244,"Ġgust":5245,"Ġstrang":5246,"Ġchewed":5247,"ishing":5248,"Ġtracks":5249,"Ġweight":5250,"Ġsliding":5251,"Ġtide":5252,"Ġcontain":5253,"ĠSomeone":5254,"Ġpatterns":5255,"Ġsunrise":5256,"Ġgain":5257,"Ġbeat":5258,"Ġpossible":5259,"Ġgrocery":5260,"Ġinvitation":5261,"Ġunite":5262,"Ġsings":5263,"Ġgaz":5264,"ĠRachel":5265,"Ġwherever":5266,"Ġslice":5267,"Ġadmiring":5268,"uing":5269,"ÅĵIÃ¢":5270,"Ġsunlight":5271,"Ġcrashed":5272,"ÅĵThatÃ¢":5273,"walk":5274,"Ġmanage":5275,"Ġtwigs":5276,"oved":5277,"iers":5278,"bbles":5279,"eed":5280,"Ġhurricane":5281,"Ġordered":5282,"Ġexercise":5283,"Ġspaceship":5284,"Ġspill":5285,"Ġours":5286,"bers":5287,"Ġwatered":5288,"Le":5289,"Ġwre":5290,"Ġcakes":5291,"Ġracing":5292,"Ġmarching":5293,"Ġlick":5294,"Ex":5295,"Ġbeg":5296,"Ġkindly":5297,"cious":5298,"Ġwhistling":5299,"Ġlets":5300,"Ġobserve":5301,"ĠNut":5302,"Ġgloves":5303,"ĠLuna":5304,"Ġspoons":5305,"Ġspit":5306,"Ġscur":5307,"Ġpupp":5308,"Ġcollecting":5309,"ĠSharing":5310,"Ġdrinks":5311,"ities":5312,"ĠCat":5313,"Ġoperation":5314,"fy":5315,"Ġscratched":5316,"ases":5317,"Ġpetted":5318,"Ġsidewalk":5319,"Ġchir":5320,"Ġglitter":5321,"Ġburning":5322,"Ġfascin":5323,"ĠMe":5324,"Ġeff":5325,"Ġraised":5326,"zag":5327,"Ġlands":5328,"Ġx":5329,"Ġchirped":5330,"Ġjogging":5331,"Ġcontinue":5332,"Ġsatis":5333,"unday":5334,"Ġtoe":5335,"Ġpeanuts":5336,"Ġstrangers":5337,"ĠPoppy":5338,"Ġbes":5339,"Ġpigs":5340,"Ġfed":5341,"Ġfet":5342,"Ġfolded":5343,"Ġescaped":5344,"Ġdoggy":5345,"ipment":5346,"hest":5347,"Before":5348,"ĠSunday":5349,"Ġsoldiers":5350,"Ġequipment":5351,"Ġworks":5352,"Ġgotten":5353,"ĠPenny":5354,"Ġofficer":5355,"Ġearthqu":5356,"Ouch":5357,"mother":5358,"Ġattached":5359,"Ġcrunchy":5360,"Ġcopper":5361,"Ġscreams":5362,"Ġmountains":5363,"Yum":5364,"ddy":5365,"igzag":5366,"ĠFro":5367,"Ġwhistled":5368,"ĠZoe":5369,"Ġonwards":5370,"loe":5371,"Ġappear":5372,"ĠSad":5373,"Ġcomfy":5374,"Ġnavy":5375,"Ġpeered":5376,"Ġclearing":5377,"Ġbuildings":5378,"Ġbeside":5379,"ÅĵThank":5380,"Ġwarn":5381,"Ġsafari":5382,"Ġhappiest":5383,"Ġimage":5384,"Ġtalent":5385,"ĠAbigail":5386,"Ġrefreshed":5387,"ecture":5388,"ĠLetÃ¢":5389,"ĠSteve":5390,"joyed":5391,"Ġremem":5392,"Ġhurried":5393,"Ġhated":5394,"\",":5395,"Ġmeasuring":5396,"Ġremembers":5397,"ĠSpike":5398,"ĠRuby":5399,"Ġoverjoyed":5400,"Ġolive":5401,"Ġnetwork":5402,"Ġselling":5403,"Ġsecrets":5404,"ĠNot":5405,"Ġprice":5406,"Ġskipping":5407,"Ġwonders":5408,"Ġplanted":5409,"Really":5410,"Ġlecture":5411,"Ġbeds":5412,"Ġmenu":5413,"seek":5414,"Ġswims":5415,"ĠChirp":5416,"Ġbowed":5417,"aded":5418,"Ġturning":5419,"amie":5420,"bbled":5421,"Ġstrip":5422,"Ġpies":5423,"Ġeagle":5424,"amb":5425,"Ġwaits":5426,"Ġprecious":5427,"Ġtremb":5428,"Ġbye":5429,"Ġbrick":5430,"Ġpitch":5431,"Ġlips":5432,"Ġbones":5433,"Ġobey":5434,"Ġbrand":5435,"Ġcompany":5436,"Ġdinosaurs":5437,"Ġdisagreed":5438,"Ġdrinking":5439,"Ro":5440,"Ġbrid":5441,"Ġflap":5442,"ÅĵWe":5443,"Ġwooden":5444,"Moral":5445,"Ġslip":5446,"Ġweren":5447,"Ġprune":5448,"ĠMilly":5449,"Ġsucceeded":5450,"ĠRemy":5451,"Ġeffort":5452,"Ġprepared":5453,"Ġrecognized":5454,"Ġpets":5455,"Ġserved":5456,"Ġshadows":5457,"Ġmineral":5458,"omas":5459,"Ġkeeper":5460,"Ġfireworks":5461,"Ġcuddle":5462,"ffic":5463,"Ġcrept":5464,"Ġreminder":5465,"Ġhist":5466,"Ġmouths":5467,"Ġallow":5468,"Ġcomforted":5469,"son":5470,"Ġchat":5471,"Ġexa":5472,"nie":5473,"ĠNutty":5474,"Ġwid":5475,"Ġbridges":5476,"Ġprayed":5477,"Ġblueberry":5478,"Ġrevealed":5479,"Ġsimple":5480,"Ġeveryday":5481,"Ġvict":5482,"Ġprinter":5483,"Ġhistory":5484,"Ġmeow":5485,"Ġpedal":5486,"Ġearthquake":5487,"Ġeasier":5488,"Susie":5489,"Ġtraffic":5490,"Ġcal":5491,"Ġrang":5492,"mare":5493,"Ġoats":5494,"Ġaccom":5495,"cc":5496,"Ġrested":5497,"Ġcutting":5498,"iggy":5499,"Ġstyle":5500,"Ġanytime":5501,"Ġlandsc":5502,"Ġtrapped":5503,"Ġmuddy":5504,"Ġrained":5505,"Ġpadd":5506,"Ġvillag":5507,"Ġcatching":5508,"Ġtip":5509,"Ġwaist":5510,"Ġacorns":5511,"Ġbleeding":5512,"ĠSunny":5513,"Ġwhatever":5514,"Ġvoices":5515,"Ġzigzag":5516,"Ġapologize":5517,"Ġchef":5518,"Ġstripes":5519,"Ġsteel":5520,"Ġwanting":5521,"Ġnightmare":5522,"Ġsettle":5523,"Ġsoared":5524,"Ġowned":5525,"Ġcircus":5526,"Ġwaffles":5527,"Ġaccompl":5528,"Ġsix":5529,"Ġcreation":5530,"Ġfirefight":5531,"Ġbun":5532,"Ġscoop":5533,"Ġdisturbed":5534,"Ġmonsters":5535,"Ġsnowball":5536,"Luckily":5537,"Somet":5538,"Ġfash":5539,"ĠSomething":5540,"ĠChr":5541,"mble":5542,"Ġgained":5543,"Ġdoctors":5544,"Ġperched":5545,"Ġguessed":5546,"ĠKatie":5547,"Ġfreeze":5548,"First":5549,"Ġbreaking":5550,"ĠRa":5551,"Ġtastes":5552,"Ġanswers":5553,"Ġresponsible":5554,"Ġshopping":5555,"Ġcostumes":5556,"ĠPr":5557,"Ġagreement":5558,"xygen":5559,"Ġbeneath":5560,"Ġlandscape":5561,"Ġpracticing":5562,"Ġpupil":5563,"ien":5564,"Ġolives":5565,"Ġleather":5566,"Ġvisiting":5567,"ishes":5568,"Ġdrag":5569,"Ġcuriosity":5570,"izing":5571,"Ġwreck":5572,"Ġvillagers":5573,"Ġoutdo":5574,"neath":5575,"ÅĵCan":5576,"ĠOw":5577,"Ġbringing":5578,"terday":5579,"Ġmice":5580,"Ġcontro":5581,"Ġsoak":5582,"Ġbrushed":5583,"Ġitems":5584,"laire":5585,"enty":5586,"Ġtremble":5587,"Ġexactly":5588,"Ġvel":5589,"Ġfashion":5590,"Ġdownstairs":5591,"Ġladyb":5592,"Ġeats":5593,"Ġstealing":5594,"Ġarea":5595,"ĠMat":5596,"ĠJe":5597,"Ġrele":5598,"Ġsadness":5599,"ulu":5600,"Or":5601,"Ġstruggled":5602,"Ġcaut":5603,"Ġvelvet":5604,"Ġtwirling":5605,"Tweet":5606,"Ġripped":5607,"Ġactiv":5608,"Ġargued":5609,"ding":5610,"ĠThese":5611,"ley":5612,"Ġsi":5613,"ĠSpark":5614,"Ġgrandmother":5615,"ĠQu":5616,"Ġfamil":5617,"Ġmission":5618,"Ġdied":5619,"oming":5620,"Ġfascinated":5621,"Ġwrites":5622,"Ġunlocked":5623,"annah":5624,"die":5625,"Ġencourage":5626,"Ġrecognize":5627,"ik":5628,"Ġknelt":5629,"Ġinstruct":5630,"isten":5631,"Ġsisters":5632,"ĠFrank":5633,".'":5634,"Ġvictory":5635,"Un":5636,"Ġweighed":5637,"Ġunderground":5638,"Ġexamined":5639,"ĠJan":5640,"Ġkeys":5641,"Ġpermit":5642,"icorn":5643,"Ġunicorn":5644,"indy":5645,"Ġnicer":5646,"Ġsoaring":5647,"Ġexit":5648,"Ġzero":5649,"ĠChirpy":5650,"Ġplanned":5651,"Ġbegin":5652,"usan":5653,"ux":5654,"Ġtickets":5655,"Ġwagging":5656,"Ġlemons":5657,"Ġjogged":5658,"Ġrealize":5659,"Ġtugged":5660,"Ġpearl":5661,"Ġslapped":5662,"Ġrides":5663,"Ġloaded":5664,"Ġwondering":5665,"Ġsupplies":5666,"Ġbare":5667,"Ġsitu":5668,"Ġpinched":5669,"Ġshivering":5670,"ĠDavid":5671,"ĠHowever":5672,"Ġdecorated":5673,"Ġstudied":5674,"Ġsneaked":5675,"Ġnails":5676,"Ġoxygen":5677,"ĠFirst":5678,"Ġoutdoors":5679,"Fluffy":5680,"Ġbunnies":5681,"Ġbend":5682,"ica":5683,"Dave":5684,"Ġchallenge":5685,"Ġruin":5686,"Ġann":5687,"inda":5688,"Ġwinner":5689,"Ġsting":5690,"looking":5691,"Ġkeeps":5692,"ĠOl":5693,"Ġcontrol":5694,"Ġinstructions":5695,"ĠCoco":5696,"Ġmachines":5697,"Ġyelling":5698,"Ġsiren":5699,"ÅĵDon":5700,"Ġwinning":5701,"ears":5702,"Ġpunished":5703,"Ġpastel":5704,"Ġpiles":5705,"ĠTw":5706,"ĠLike":5707,"Ġemergen":5708,"Ġcomple":5709,"Ġaccidents":5710,"ĠUncle":5711,"ĠSuzy":5712,"Ġpeel":5713,"Ġfetch":5714,"uxu":5715,"ĠItÃ¢":5716,"Ġshoulders":5717,"Happy":5718,"Ġunderneath":5719,"ĠAnne":5720,"aky":5721,"Ġfiremen":5722,"len":5723,"Ġbeha":5724,"Ġdraws":5725,"Sometimes":5726,"ira":5727,"Ġstretching":5728,"Ġsatisfied":5729,"ĠBeth":5730,"Ġgathering":5731,"Ġmixing":5732,"Ġincrease":5733,"Ġlines":5734,"Ġproperly":5735,"ĠBig":5736,"ĠJulie":5737,"ayla":5738,"Ġzooming":5739,"Ġstirring":5740,"Ġloving":5741,"Ġtravell":5742,"Ġdam":5743,"oh":5744,"Ġago":5745,"Ġbroom":5746,"ĠKe":5747,"Ġpockets":5748,"anta":5749,"Ġintroduc":5750,"Ġteasing":5751,"Ġprinted":5752,"Ġclaps":5753,"Ġneighbourhood":5754,"bbing":5755,"Ġneighbors":5756,"ÅĵLook":5757,"Lola":5758,"Ġstair":5759,"Ġpancakes":5760,"Ġbrushes":5761,"shing":5762,"Ġsights":5763,"Ġtim":5764,"agull":5765,"thank":5766,"Rex":5767,"Ġpeaches":5768,"Ġtune":5769,"Ġcape":5770,"ĠDid":5771,"ĠFloppy":5772,"Bella":5773,"Ġruler":5774,"Ġreleased":5775,"va":5776,"Ġdeser":5777,"oed":5778,"icky":5779,"Ġbudge":5780,"ĠStop":5781,"gers":5782,"uke":5783,"Ġherbs":5784,"Ġbunch":5785,"Ġintroduce":5786,"Ġluxu":5787,"Ġdecides":5788,"Ġfrosting":5789,"Ġmuscles":5790,"ashed":5791,"zen":5792,"ays":5793,"Ġseagull":5794,"Ġdrift":5795,"Ġguns":5796,"Ġribbons":5797,"Ġprotected":5798,"âĤ¬âĢĿ":5799,"Ġpoking":5800,"Mr":5801,"Ġprunes":5802,"owers":5803,"Ġrelease":5804,"ÅĵThis":5805,"Ġparked":5806,"low":5807,"Ġconfident":5808,"ales":5809,"Goodbye":5810,"Mike":5811,"Ġmarks":5812,"Ġcamping":5813,"Ġbuckets":5814,"Ġsolut":5815,"Cl":5816,"George":5817,"Ġinch":5818,"Ġopin":5819,"Ġspiders":5820,"dam":5821,"Ġtouching":5822,"Henry":5823,"Ġpurred":5824,"Ġladybug":5825,"Ġdent":5826,"Ġstitch":5827,"Ġcrowd":5828,"ĠletÃ¢":5829,"Ġgiggling":5830,"Teddy":5831,"Ġshock":5832,"Ġbaked":5833,"Ġcompetition":5834,"Ġstudying":5835,"ĠAm":5836,"Ġdragons":5837,"riage":5838,"Ġstruck":5839,"Ah":5840,"Ġbeard":5841,"Ġyouth":5842,"Ġourselves":5843,"Ġburrow":5844,"Ġmast":5845,"nes":5846,"Ġsides":5847,"Ġsurface":5848,"ĠRabbit":5849,"Ġrepeated":5850,"Ġdemanded":5851,"Ġmentioned":5852,"ĠAn":5853,"Mar":5854,"ĠLucky":5855,"Ġtickle":5856,"bies":5857,"ais":5858,"icked":5859,"Ġfrozen":5860,"Maggie":5861,"Ġeight":5862,"ednes":5863,"Ġvowed":5864,"Ġentire":5865,"Ġemergency":5866,"ednesday":5867,"zie":5868,"Ġ1":5869,"Ġsweeties":5870,"uctantly":5871,"Ella":5872,"Ġsteep":5873,"uesday":5874,"Ġproject":5875,"Ġpoliceman":5876,"Ġgazed":5877,"Ġmovies":5878,"ason":5879,"ĠPip":5880,"Ġforgi":5881,"Ġbabies":5882,"Ġbouncy":5883,"Ġgrant":5884,"ÅĵHello":5885,"Ġdragged":5886,"Andy":5887,"jam":5888,"Ġsoaked":5889,"Ġsorting":5890,"Ġstrings":5891,"Ġcrumb":5892,"Ġhorns":5893,"Ġloose":5894,"Joey":5895,"Ġexpect":5896,"ĠZoom":5897,"Ġscurried":5898,"Ġcautious":5899,"Ġbarely":5900,"Ġsilence":5901,"ern":5902,"edding":5903,"Ġtonight":5904,"Ġvent":5905,"Ġsnail":5906,"Ġdiscovering":5907,"Ġmittens":5908,"ĠCarl":5909,"Ġrainbows":5910,"Ġpouring":5911,"ĠChloe":5912,"kins":5913,"Ġinterest":5914,"Ġwound":5915,"ĠWednesday":5916,"Ġfoods":5917,"ĠTiny":5918,"Ġeast":5919,"Ġhonk":5920,"Ġmuffins":5921,"ĠOnce":5922,"Ġtexture":5923,"Ġcones":5924,"Ġseason":5925,"Bobby":5926,"Ġdrives":5927,"tiest":5928,"Ġprettiest":5929,"ĠGr":5930,"Ġstole":5931,"Ġkicking":5932,"Ġguys":5933,"Ġresult":5934,"imy":5935,"ĠTuesday":5936,"ena":5937,"exp":5938,"Ġrubbing":5939,"Ġprints":5940,"Ġbank":5941,"Ġlied":5942,"Ġpears":5943,"Ġsausages":5944,"ĠHop":5945,"Ġacted":5946,"Ġhighest":5947,"Remember":5948,"ĠThomas":5949,"Ġchases":5950,"Ġpatience":5951,"Ġfab":5952,"Ġweb":5953,"Ġfabric":5954,"Ġshelves":5955,"Fred":5956,"Grandpa":5957,"Ġgoodnight":5958,"Ġmater":5959,"ĠBetty":5960,"Ġmateri":5961,"Ġpowers":5962,"Ġrocked":5963,"Ġurged":5964,"Pete":5965,"Ġplanets":5966,"hins":5967,"izzie":5968,"ĠLulu":5969,"Ġcurly":5970,"Ġapplauded":5971,"Ġluxury":5972,"ĠBir":5973,"Ġchewing":5974,"ĠSanta":5975,"ledge":5976,"ĠBubbles":5977,"Ġcompleted":5978,"expected":5979,"Ġflat":5980,"ĠTilly":5981,"Ġchips":5982,"Ġreluctantly":5983,"Ġstrike":5984,"Ġcatches":5985,"Ġti":5986,"Ġstaring":5987,"Uh":5988,"Ġcurtains":5989,"ĠCar":5990,"esome":5991,"usted":5992,"ÅĵWhy":5993,"Ġbloomed":5994,"Ġtwinkling":5995,"ÅĵDonÃ¢":5996,"Ġwest":5997,"Ġsighs":5998,"Ġknowledge":5999,"avi":6000,"eezing":6001,"ĠJosh":6002,"Ġunexpected":6003,"Ġinclude":6004,"Ġcuts":6005,"Ġstamps":6006,"Ġmatched":6007,"Ġsafer":6008,"ĠJamie":6009,"ĠSusan":6010,"Ġthreat":6011,"though":6012,"Ġsinger":6013,"Ġlibrarian":6014,"Ġcontest":6015,"Ġfigured":6016,"Ġimportance":6017,"uly":6018,"ĠSure":6019,"Ġdirection":6020,"Ġsituation":6021,"ĠRob":6022,"Ġshivered":6023,"uzz":6024,"Ġblink":6025,"Ġwedding":6026,"Ġachieve":6027,"Ġheel":6028,"Ġbottles":6029,"Ġawesome":6030,"Ġpebbles":6031,"Ġpassing":6032,"Ġroaring":6033,"Ġsorted":6034,"Ġslimy":6035,"Ġreplac":6036,"Ġbravery":6037,"Ġdusty":6038,"ÅĵOh":6039,"Ġpretends":6040,"Ġdolphins":6041,"Ġsnugg":6042,"fit":6043,"Ġcheering":6044,"Ye":6045,"Ġhugging":6046,"Ġexha":6047,"bert":6048,"Ġintroduced":6049,"une":6050,"ĠAlways":6051,"ĠcanÃ¢":6052,"Ġbalancing":6053,"Ġhomework":6054,"acob":6055,"Ġtheirs":6056,"Ġpatted":6057,"Ġusual":6058,"hello":6059,"Ġwaiter":6060,"Ġshined":6061,"Ġsweets":6062,"Ġmatching":6063,"Ġmarkers":6064,"Ġoutfit":6065,"Ġworkers":6066,"Ġscreaming":6067,"Kitty":6068,"Ġpout":6069,"Ġsolution":6070,"immer":6071,"Ġsticking":6072,"cuse":6073,"Ġtraveled":6074,"Ġplenty":6075,"Ġrocking":6076,"jamas":6077,"Danny":6078,"lee":6079,"Ġflags":6080,"Fr":6081,"you":6082,"Ġtowels":6083,"Yeah":6084,"Ġfault":6085,"Ġgreet":6086,"Ġmarriage":6087,"...":6088,"ĠyouÃ¢":6089,"Ġmotion":6090,"essie":6091,"Ġroads":6092,"James":6093,"Ġwritten":6094,"Ġreaching":6095,"ĠClaire":6096,"Ġgrowl":6097,"Ġblooming":6098,"Excuse":6099,"Ġdared":6100,"Ġgoals":6101,"ĠLou":6102,"irts":6103,"Ġexpected":6104,"Ġexhausted":6105,"ivery":6106,"Ġuses":6107,"Ġradishes":6108,"Ġdisagree":6109,"iar":6110,"Ġarguing":6111,"Ġcaused":6112,"Ġrescued":6113,"ids":6114,"Ġsway":6115,"Ġlamb":6116,"Ġmane":6117,"Ġsled":6118,"Ġpaintings":6119,"Ġobserved":6120,"ults":6121,"iles":6122,"Ġstartled":6123,"Ġtruly":6124,"Ġguest":6125,"Ġrecorded":6126,"Ġzookeeper":6127,"Ġkneeled":6128,"Leo":6129,"Ġincluded":6130,"itely":6131,"Ġranger":6132,"Ġfart":6133,"ĠHa":6134,"Ġslap":6135,"Ġstare":6136,"Ġleap":6137,"Ġspraying":6138,"Ġtrembling":6139,"Ġworker":6140,"Ġarrive":6141,"Ġpacking":6142,"ĠJones":6143,"ctions":6144,"Ġstorekeeper":6145,"Ġregretted":6146,"Ġrockets":6147,"Ġcreating":6148,"ĠYes":6149,"Ġlap":6150,"Ġresting":6151,"Ġprincesses":6152,"Annie":6153,"Ġflavor":6154,"Mrs":6155,"Ġtimer":6156,"aa":6157,"Ġast":6158,"Ġagrees":6159,"ences":6160,"Charlie":6161,"Ġventured":6162,"njoy":6163,"Ġspike":6164,"Ġlearns":6165,"Grace":6166,"Ġreply":6167,"Ġgrowling":6168,"Ġcompletely":6169,"Ġpoems":6170,"Ġstern":6171,"Ġrobb":6172,"Ġdelivery":6173,"Ġpartic":6174,"Ġorganizing":6175,"Ġpencils":6176,"ĠSadly":6177,"Sophie":6178,"Ġcent":6179,"Ġpajamas":6180,"Ġbaker":6181,"Ġvanish":6182,"Ġfir":6183,"Ġchuck":6184,"Ġsnakes":6185,"Ġusually":6186,"Afterwards":6187,"vin":6188,"Ġheav":6189,"Ġopening":6190,"Ġinviting":6191,"ĠChrist":6192,"Ġscra":6193,"Ġprayer":6194,"Ġpenguins":6195,"Ġquacked":6196,"Ġcrumbs":6197,"ĠAunt":6198,"ĠJeff":6199,"Ġsuitc":6200,"hell":6201,"Paul":6202,"Ġflames":6203,"Ġpaddled":6204,"ora":6205,"Ġtwinkle":6206,"vers":6207,"oys":6208,"Ġremoved":6209,"Ġowners":6210,"ĠHoppy":6211,"ĠBoth":6212,"ĠwasnÃ¢":6213,"ĠJenna":6214,"Ġfirm":6215,"ĠFor":6216,"ĠJessie":6217,"Ġbead":6218,"Ġstruggle":6219,"Ġwink":6220,"Ġaccomplish":6221,"ĠMad":6222,"asm":6223,"Ġworries":6224,"Ġeverybody":6225,"Ġcountryside":6226,"Ġwasted":6227,"Ġdentist":6228,"mas":6229,"ĠBye":6230,"Ġremote":6231,"However":6232,"Ġreplaced":6233,"Ġbelly":6234,"Ġrubs":6235,"pite":6236,"aze":6237,"angled":6238,"Ġteaches":6239,"Ġunf":6240,"Ġcott":6241,"aty":6242,"Ġwandering":6243,"lowly":6244,"per":6245,"Ġroots":6246,"Ġcomm":6247,"Ġactivities":6248,"Ġcrabs":6249,"Ġhealed":6250,"ĠLeave":6251,"Ġlollipops":6252,"Ġunited":6253,"Ġpolishing":6254,"iding":6255,"Ġscales":6256,"Ġreveal":6257,"Ġswirl":6258,"Ġfairies":6259,"aisies":6260,"go":6261,"Ġthro":6262,"Ġmisses":6263,"Ġscru":6264,"Ġseesaw":6265,"Ġrolls":6266,"Ġpots":6267,"Ġvalued":6268,"Ġthroat":6269,"Ġboo":6270,"Ġpolished":6271,"Ġcloses":6272,"Ġboom":6273,"Ġdaisies":6274,"opes":6275,"dies":6276,"ĠChristmas":6277,"Ġparticular":6278,"ĠAbby":6279,"Ġdesert":6280,"Ġrisk":6281,"Ġtractor":6282,"Ġdarkness":6283,"Ġwinked":6284,"Ġrelief":6285,"Ġmelting":6286,"Ġwires":6287,"Ġdirections":6288,"ĠBy":6289,"Ġpeeking":6290,"Ġcrackers":6291,"Ġhelmets":6292,"ĠFollow":6293,"Ġinterested":6294,"Ġfaced":6295,"Ġknights":6296,"ĠMatt":6297,"Ġgaze":6298,"ĠJu":6299,"araway":6300,"Ġbecoming":6301,"Ġrings":6302,"Ġbalanced":6303,"Ġyounger":6304,"Ġcautiously":6305,"Mittens":6306,"Ġcracked":6307,"Ġcause":6308,"Ġfaraway":6309,"ĠMart":6310,"ĠLinda":6311,"Ġphotos":6312,"Ab":6313,"Ëľ":6314,"ĠY":6315,"âĤ¬Ëľ":6316,"Ġpastries":6317,"Ġleader":6318,"ĠĠĊ":6319,"ĠOut":6320,"Ġfreed":6321,"Ġsigned":6322,"ĠJohnson":6323,"ĠBo":6324,"Ġsingle":6325,"Ġfuzzy":6326,"ĠSorry":6327,"Ġcash":6328,"Ġstem":6329,"Ġrestored":6330,"ophia":6331,"ĠFox":6332,"Ġwiggled":6333,"Ġdipped":6334,"Ġsquealed":6335,"boat":6336,"Ġgroceries":6337,"Ġlogs":6338,"ĠMomo":6339,"Ġstaying":6340,"Ġnaps":6341,"Ġitchy":6342,"ĠUnfortunately":6343,"lings":6344,"Ġcoloured":6345,"Ġforehead":6346,"Ġchuckled":6347,"ĠDolly":6348,"Bad":6349,"Ġhowever":6350,"Ġyesterday":6351,"Ġwrist":6352,"Ġfilling":6353,"Fine":6354,"Ġcough":6355,"Ġwow":6356,"Ġripe":6357,"Ġsneaky":6358,"Ellie":6359,"Ġblows":6360,"Ġseems":6361,"Harry":6362,"rance":6363,"Ġden":6364,"Ġslam":6365,"Ġlistens":6366,"ĠPut":6367,"Ġrefle":6368,"Millie":6369,"Ġcous":6370,"ĠBeing":6371,"Ġopinion":6372,"Ġrecording":6373,"Ġfluttered":6374,"Ġbeads":6375,"Ġtrips":6376,"ĠPinky":6377,"Ġsilent":6378,"Ġlined":6379,"Ġmarked":6380,"Ġbowls":6381,"Ġswooped":6382,"Ġtricked":6383,"Ġactions":6384,"oline":6385,"Unfortunately":6386,"Ġtipt":6387,"Ġfirefighters":6388,"Alex":6389,"Rose":6390,"Sandy":6391,"Ġsplashes":6392,"Toby":6393,"bbly":6394,"Ġdetermination":6395,"Ġsnat":6396,"Ġhider":6397,"ĠSuzie":6398,"Ġhissed":6399,"Ġpiggy":6400,"Ġwears":6401,"cited":6402,"Ġadding":6403,"Ġbumps":6404,"Ġstroll":6405,"Ġkites":6406,"ĠLizzie":6407,"Ġtwin":6408,"Ġseeker":6409,"Ġsnowballs":6410,"Ġhi":6411,"ilo":6412,"igi":6413,"Ġhandful":6414,"Ġtricky":6415,"ĠPipp":6416,"Ġconn":6417,"ords":6418,"Ġsomebody":6419,"Ġpleasure":6420,"Ġsobbed":6421,"ĠLuke":6422,"Ġstays":6423,"Ġsandcastles":6424,"yond":6425,"Ġsense":6426,"Ġbeyond":6427,"Ġroses":6428,"Ġrule":6429,"Ġfroze":6430,"ppers":6431,"Ġhealth":6432,"Ġscarves":6433,"Ġcopy":6434,"ĠJessica":6435,"Ġexplorers":6436,"Ġlighter":6437,"ĠDoggy":6438,"Ġcubes":6439,"ÅĵMommy":6440,"Ġprotecting":6441,"Ġprovided":6442,"Ġaff":6443,"Ġawake":6444,"Ġcovers":6445,"ĠMany":6446,"Ġbakery":6447,"Ġbumpy":6448,"ĠKeep":6449,"incess":6450,"Ġdarker":6451,"ility":6452,"Ġlung":6453,"Ġseven":6454,"ĠHannah":6455,"Ġcelebration":6456,"affes":6457,"iki":6458,"Ġbacked":6459,"ĠKayla":6460,"Ġsecure":6461,"Some":6462,"Ġinsp":6463,"Ġnect":6464,"Ġdelivered":6465,"Ġcalmed":6466,"Ġnectar":6467,"Ġbars":6468,"ĠEnjoy":6469,"Ġgiraffes":6470,"Run":6471,"Ġnoon":6472,"Ġyourselves":6473,"Ġstolen":6474,"Ġpastels":6475,"Ġcashier":6476,"anes":6477,"Ġglasses":6478,"Ġtickled":6479,"Ġpedals":6480,"ĠQuack":6481,"Kate":6482,"ĠBird":6483,"ĠFriend":6484,"Ġdeal":6485,"Ġentrance":6486,"Ġinsects":6487,"Ġcomplaining":6488,"Ġmes":6489,"ĠWatch":6490,"Ġglee":6491,"Ġjoking":6492,"ÅĵWhatÃ¢":6493,"Nina":6494,"ormed":6495,"umm":6496,"Ġattack":6497,"Ġmesmer":6498,"Sad":6499,"boo":6500,"Ġliqu":6501,"Bun":6502,"Ġsuitcase":6503,"?'":6504,"Ġthorn":6505,"Ġcust":6506,"Ġcans":6507,"aren":6508,"Ġcowb":6509,"ĠNothing":6510,"ĠAdam":6511,"Ġafterwards":6512,"Ġtallest":6513,"Ġtalented":6514,"rious":6515,"ĠMick":6516,"Ġmiles":6517,"arter":6518,"ths":6519,"ĠLizzy":6520,"coat":6521,"Ġsalty":6522,"Ġfolding":6523,"Ġinstrum":6524,"Ġcustom":6525,"Ġopp":6526,"Ġbadge":6527,"Ġseashell":6528,"Ġfarther":6529,"igers":6530,"May":6531,"no":6532,"ĠGet":6533,"ĠMo":6534,"ĠMon":6535,"Ġreads":6536,"ners":6537,"elle":6538,"Ġkicks":6539,"Ġbeginning":6540,"ĠTwo":6541,"Ġsib":6542,"aura":6543,"ĠEverybody":6544,"hee":6545,"arling":6546,"Ġparties":6547,"choo":6548,"Ġcolored":6549,"Ġsmarter":6550,"Ġmasks":6551,"Ġty":6552,"ĠWater":6553,"Ġspeaking":6554,"ĠTara":6555,"Ġbehavi":6556,"Ġachieved":6557,"Ġknees":6558,"ĠPl":6559,"ĠTess":6560,"ossible":6561,"Bl":6562,"Ġcandies":6563,"Ġgems":6564,"Ġraincoat":6565,"rig":6566,"Ġimpossible":6567,"Ġacting":6568,"Ġwipes":6569,"Ġvideos":6570,"Ġmarker":6571,"Ġknocks":6572,"band":6573,"step":6574,"sequ":6575,"Ġweeping":6576,"iled":6577,"ĠBuzzy":6578,"ana":6579,"ĠCindy":6580,"Ġrecommended":6581,"Ġtangled":6582,"Those":6583,"Ġburst":6584,"Ġmi":6585,"Ġconsequ":6586,"Ġindeed":6587,"Ġclick":6588,"ĠPandy":6589,"Ġsteer":6590,"Polly":6591,"Ġbuying":6592,"Ġjackets":6593,"Ġmixture":6594,"Ġdots":6595,"Ġpause":6596,"Ġimproved":6597,"Ġaccomplishment":6598,"Ġchoices":6599,"Ġarrows":6600,"Ġexperien":6601,"Ġsmiley":6602,"ĠNina":6603,"Ġchefs":6604,"ĠHappy":6605,"Ġtigers":6606,"Ġliquid":6607,"Time":6608,"ĠJazz":6609,"?\",":6610,"Ġpaddle":6611,"Ġteased":6612,"itches":6613,"Ġcheeks":6614,"Ġmagnets":6615,"ĠRobby":6616,"Ġswimsuit":6617,"Ġscaring":6618,"ĠPrincess":6619,"ĠEarth":6620,"brush":6621,"umbling":6622,"Tina":6623,"Ġwins":6624,"ĠLuckily":6625,"ĠwouldnÃ¢":6626,"ivity":6627,"Ġcomplained":6628,"Ġbedtime":6629,"Ġshirts":6630,"ÅĵDo":6631,"Ġdrums":6632,"Ġrumble":6633,"Ġsnatched":6634,"hew":6635,"Ġwee":6636,"ept":6637,"Ġchoo":6638,"ĠMel":6639,"urry":6640,"Ġpaying":6641,"ĠJulia":6642,"tle":6643,"atul":6644,"vest":6645,"Ġhallway":6646,"Ġtravelled":6647,"tuce":6648,"Ġstung":6649,"ĠJacob":6650,"Ġlettuce":6651,"Ġhesitated":6652,"Ġannoy":6653,"Days":6654,"cope":6655,"Ġfamilies":6656,"Ġconsequences":6657,"Ġlun":6658,"ĠSqu":6659,"Ġneither":6660,"Ġperformance":6661,"ÅĵCome":6662,"Ġcreativity":6663,"Ġtasks":6664,"Ġbehaved":6665,"Ġscrubbed":6666,"Ġthird":6667,"Ġswept":6668,"ÅĵHi":6669,"Ġruining":6670,"Ġwidened":6671,"abel":6672,"rigued":6673,"itched":6674,"ĠJon":6675,"Ġflapping":6676,"Ġgracefully":6677,"Ġneedles":6678,"Ġsnuck":6679,"ÅĵWow":6680,"Ġsailboat":6681,"Ġcupcakes":6682,"Ġclowns":6683,"Ġlower":6684,"Ġpouted":6685,"Milly":6686,"eal":6687,"elia":6688,"indr":6689,"Ġleading":6690,"Ġseconds":6691,"Ġyells":6692,"Ġwrapping":6693,"Lilly":6694,"yan":6695,"Ġbasement":6696,"Ġstroked":6697,"endy":6698,"Ġraindr":6699,"ĠSnugg":6700,"Ġrusty":6701,"ĠSlowly":6702,"Ġfever":6703,"Ġcelebrating":6704,"Shh":6705,"Ġdrifted":6706,"Bobo":6707,"Ġhearing":6708,"Ġech":6709,"Ġcreamy":6710,"Ġfluttering":6711,"Que":6712,"ĠWithout":6713,"ĠSque":6714,"Ġswans":6715,"ĠGoodbye":6716,"ded":6717,"ans":6718,"Ġdiving":6719,"Ġsiblings":6720,"Queen":6721,"Ġbeam":6722,"Ġpeacefully":6723,"Ġdef":6724,"Ġsource":6725,"Ġbatteries":6726,"ouch":6727,"anging":6728,"Ġsprinkled":6729,"atur":6730,"ndpare":6731,"Ġscratches":6732,"Ġstomped":6733,"Ġbackwards":6734,"Ġconcer":6735,"Ġpointy":6736,"Ġgrowls":6737,"ĠOlive":6738,"Ġmaterials":6739,"Ġcor":6740,"ĠEl":6741,"Ġwilling":6742,"immering":6743,"ĠLarry":6744,"Ġhoriz":6745,"Ġobjects":6746,"Ġdeserve":6747,"ĠSnuggles":6748,"Ġmushrooms":6749,"Ġornaments":6750,"Ġpuppies":6751,"ĠGigi":6752,"Ġcuddly":6753,"Ġhorizon":6754,"Ġpassen":6755,"Ġsquares":6756,"Dan":6757,"ounce":6758,"Ġscrews":6759,"Ġartist":6760,"ĠMira":6761,"Ġgrabbing":6762,"cers":6763,"Ġtemper":6764,"ÅĵYouÃ¢":6765,"ky":6766,"Ġlosing":6767,"Ġwadd":6768,"Ġtiptoed":6769,"ĠSophia":6770,"ishy":6771,"ĠwonÃ¢":6772,"Ġrivers":6773,"Ġaren":6774,"Ġfact":6775,"Ġchip":6776,"An":6777,"Great":6778,"Ġhus":6779,"Ġgrandpare":6780,"Ġgrassy":6781,"igning":6782,"Ġrising":6783,"Ġraindrops":6784,"Ġdarling":6785,"Ġdollhouse":6786,"alph":6787,"Ġsnowmen":6788,"Ġtempt":6789,"ntil":6790,"Ġdamage":6791,"ĠMickey":6792,"Ġchop":6793,"Ġamong":6794,"Ġplayers":6795,"ĠRock":6796,"Ġstudents":6797,"Ġnoses":6798,"Ġbeloved":6799,"Ru":6800,"ongr":6801,"cl":6802,"Ġrip":6803,"Ġavoid":6804,"Pat":6805,"Ġpromises":6806,"Ġrepa":6807,"oey":6808,"iece":6809,"Ġhides":6810,"kend":6811,"ongratul":6812,"dri":6813,"Ġgross":6814,"Ġtreehouse":6815,"Ġheading":6816,"rrrr":6817,"Ġastron":6818,"Ġfears":6819,"Ġweekend":6820,"Have":6821,"mallow":6822,"ades":6823,"arshmallow":6824,"Roar":6825,"Ġonions":6826,"ĠLena":6827,"ĠFinn":6828,"Ġrewarded":6829,"Ġrepaired":6830,"Ġstool":6831,"Ġpans":6832,"Ġhusband":6833,"Ġforgiven":6834,"ĠQueen":6835,"Ġlimes":6836,"Ġtramp":6837,"Ġsale":6838,"Ġsparks":6839,"Ġneighbours":6840,"Ġastronaut":6841,"For":6842,"oor":6843,"ĠBinky":6844,"ĠAbbie":6845,"ĠMikey":6846,"Ġslammed":6847,"Ġwindy":6848,"Fin":6849,"Ġunpacked":6850,"Ġmeals":6851,"Ġforgets":6852,"Ġafford":6853,"--":6854,"Ġaud":6855,"Ġrecipe":6856,"Ġseparated":6857,"Ġbodies":6858,"Ġspikes":6859,"Ġdreamt":6860,"Ġwraps":6861,"Ġmer":6862,"Ġreass":6863,"Ġuns":6864,"Ġtrampoline":6865,"Ġdads":6866,"Ġache":6867,"Ew":6868,"wk":6869,"Ġimagining":6870,"Ġpresses":6871,"Ġzebras":6872,"Ġcenter":6873,"Tr":6874,"Ġtapped":6875,"ĠZip":6876,"Ġwarnings":6877,"Ġcreations":6878,"ael":6879,"Ġmarshmallow":6880,"itted":6881,"ĠRemember":6882,"Ġforks":6883,"Ġincluding":6884,"Ġtouc":6885,"Ġadult":6886,"Ġprinting":6887,"Ġmagician":6888,"ments":6889,"Meow":6890,"ĠSparky":6891,"yes":6892,"Baby":6893,"uzzy":6894,"Ġprett":6895,"Ġdecorating":6896,"Ġwishing":6897,"Ġheavier":6898,"Ġtemperature":6899,"ne":6900,"ichael":6901,"Ġrustling":6902,"Boo":6903,"Ġwrink":6904,"int":6905,"child":6906,"Ġrefu":6907,"ĠEmmy":6908,"Ġcorners":6909,"ably":6910,"Clara":6911,"Ġdollars":6912,"Ġsailors":6913,"Ġhesitant":6914,"ĠHoot":6915,"Ġcousin":6916,"Wh":6917,"ĠEls":6918,"ition":6919,"Ġintrigued":6920,"Ġplans":6921,"Ġdiscussed":6922,"Oops":6923,"Woof":6924,"pr":6925,"Ġsurroundings":6926,"Ġprettier":6927,"Ġhops":6928,"Ġaudience":6929,"fall":6930,"Ġhawk":6931,"Ġstain":6932,"Ġslices":6933,"aker":6934,"Ġbows":6935,"Ġwiping":6936,"Ġenthusi":6937,"imon":6938,"Ġneatly":6939,"Ġsnuggle":6940,"cky":6941,"Ġarr":6942,"Ġage":6943,"Ġsnowfl":6944,"Ġgasp":6945,"Ġfeeding":6946,"Ġenthusiasm":6947,"Ġcoup":6948,"Ġpecked":6949,"ĠJay":6950,"Ġtails":6951,"Ġplanning":6952,"Ġgranted":6953,"sty":6954,"unched":6955,"opsy":6956,"Ġstreets":6957,"Ġgri":6958,"Ġblocking":6959,"Ġdesigned":6960,"ĠRover":6961,"Katie":6962,"Pe":6963,"using":6964,"llen":6965,"Ġhelpers":6966,"Maria":6967,"Ġ10":6968,"ĠBee":6969,"Ġreflection":6970,"Bill":6971,"Ġgobbled":6972,"Ġscamp":6973,"ĠAsh":6974,"ÅĵMy":6975,"Ġcounts":6976,"Ġminerals":6977,"arrow":6978,"Ġslower":6979,"ĠBluey":6980,"Ġgrandchild":6981,"Ġscrewdri":6982,"Ġhandsome":6983,"Ġborrowed":6984,"Ġleaning":6985,"Ġwoof":6986,"Ġtwice":6987,"Whee":6988,"itude":6989,"Ġdet":6990,"Ġearn":6991,"Ġdod":6992,"ĠDr":6993,"Ġdived":6994,"Ġtriangles":6995,"Ġchos":6996,"ĠPam":6997,"Ġtouches":6998,"Ġchosen":6999,"Ġreason":7000,"Ġremembering":7001,"hog":7002,"Ġhour":7003,"Ġge":7004,"Ġnibb":7005,"Ġpeppers":7006,"Ġthrown":7007,"Ġzipping":7008,"ĠThose":7009,"ĠLaura":7010,"Ġshrinking":7011,"Ġpraying":7012,"Fo":7013,"Yummy":7014,"Ġwobbled":7015,"Ġpuppet":7016,"Ġhitting":7017,"Ġspong":7018,"ertain":7019,"Ġcouple":7020,"Jul":7021,"Ġcond":7022,"Ġsunflowers":7023,"Ġfeast":7024,"ushing":7025,"Ġheroes":7026,"Ġrequested":7027,"jo":7028,"Ġnine":7029,"ĠJune":7030,"Ġstarfish":7031,"Ġtunnels":7032,"Ġfamiliar":7033,"eds":7034,"ĠTodd":7035,"Ġshops":7036,"Ġcorre":7037,"ĠThanks":7038,"Ġrobber":7039,"Ġlungs":7040,"Surpr":7041,"Ġdances":7042,"Ġspreading":7043,"ĠUntil":7044,"Tw":7045,"Ġwag":7046,"ĠCra":7047,"otten":7048,"Ġforgetting":7049,"Ġspoonful":7050,"Ġscrewdriver":7051,"vil":7052,"Ġaside":7053,"Ġdelivering":7054,"ĠFriends":7055,"Ġgrandparents":7056,"ido":7057,"ĠMilo":7058,"aster":7059,"Ġgreeted":7060,"Ġcoloring":7061,"Ġbuzzed":7062,"Ġbaths":7063,"Ġhopeful":7064,"Ġpreparing":7065,"oni":7066,"ccoon":7067,"Ġraccoon":7068,"ĠNick":7069,"Ġmuscle":7070,"Ġpotion":7071,"ĠNobody":7072,"Ġsuperheroes":7073,"rey":7074,"iley":7075,"Ġcuriously":7076,"Ġbreathed":7077,"Ġtiss":7078,"Ġrotten":7079,"Ġcoc":7080,"Ġhedgehog":7081,"Ġmesmerized":7082,"Ġposs":7083,"Ġembarrass":7084,"By":7085,"Miss":7086,"ippy":7087,"ados":7088,"Ġgardener":7089,"ounced":7090,"Ġseaw":7091,"Ġlifts":7092,"ĠStella":7093,"Ġdie":7094,"arac":7095,"ĠRyan":7096,"Ġsports":7097,"Ducky":7098,"Our":7099,"ae":7100,"Ġsofter":7101,"Ġblast":7102,"Ġdaring":7103,"armer":7104,"Ġleast":7105,"Ġmerry":7106,"Ġcrashing":7107,"fly":7108,"ĠSun":7109,"Ġvanilla":7110,"Ġthud":7111,"ĠFrog":7112,"ĠSc":7113,"ently":7114,"ters":7115,"ĠListen":7116,"Ġbully":7117,"Ġsneezing":7118,"Ġshaped":7119,"Ġplain":7120,"Ġflas":7121,"Ġstands":7122,"Ġnecklaces":7123,"ĠRobert":7124,"Ġplucked":7125,"fus":7126,"ĠMartha":7127,"Ġgeese":7128,"Ġsponge":7129,"Ġtodd":7130,"Ġnur":7131,"Ġneare":7132,"Ġchanging":7133,"Ġsniffs":7134,"the":7135,"Ġpolar":7136,"Ġtested":7137,"Ġsewing":7138,"Ġpens":7139,"Ġsqueak":7140,"Ġwiggle":7141,"Ġguests":7142,"Ġseaweed":7143,"Ġtalks":7144,"ĠFire":7145,"Ġpuff":7146,"Ġwhispers":7147,"Ġscraped":7148,"Ġhonked":7149,"Ġfirefighter":7150,"Ġonward":7151,"ĠWendy":7152,"Ġglued":7153,"Nemo":7154,"Ġposter":7155,"Ġnapkins":7156,"cused":7157,"Ġmunch":7158,"Ġworn":7159,"Ġcharac":7160,"ĠEx":7161,"Ġfocused":7162,"Ġrespected":7163,"Ġflavors":7164,"iment":7165,"Ġalien":7166,"ÅĵWell":7167,"Ġwarmer":7168,"Ġcraft":7169,"Ġthroughout":7170,"Ġpanicked":7171,"ĠAbi":7172,"Ġsuffering":7173,"ĠMaya":7174,"Blue":7175,"Ġjoining":7176,"Ġexpress":7177,"Ġmoo":7178,"Ġflight":7179,"ÅĵMom":7180,"ĠZoey":7181,"Ġmarshmallows":7182,"ĠStar":7183,"Ġavocados":7184,"Ġskunk":7185,"Ġmatters":7186,"Ġjoyful":7187,"ĠOur":7188,"ĠGranny":7189,"ĠSqueaky":7190,"ĠTake":7191,"Ġgest":7192,"Ġrespond":7193,"Ġdrivers":7194,"ĠBirthday":7195,"Ġropes":7196,"Ġspins":7197,"Ġpops":7198,"Ġbells":7199,"ugs":7200,"ĠKiki":7201,"ĠOnly":7202,"Ġrefreshing":7203,"Sadly":7204,"Ġscampered":7205,"stick":7206,"Su":7207,"bird":7208,"urious":7209,"allowed":7210,"Ġswallowed":7211,"Ġmints":7212,"Tweety":7213,"Ġoh":7214,"Ġslips":7215,"Ġstrongest":7216,"Ġlessons":7217,"ĠSadie":7218,"Ġwrigg":7219,"Ġgrows":7220,"Ġincreased":7221,"ĠthatÃ¢":7222,"Ġcrew":7223,"Quick":7224,"Ġdrawn":7225,"retty":7226,"Ġdefe":7227,"Ġencourag":7228,"Ġleapt":7229,"Very":7230,"Ġpours":7231,"Ġocc":7232,"ĠStay":7233,"Ġsending":7234,"Ġresisted":7235,"plash":7236,"Ġfreedom":7237,"Br":7238,"Ġtossed":7239,"Ġscen":7240,"Ġroars":7241,"Ġbiting":7242,"years":7243,"...\"":7244,"ĠOwl":7245,"ino":7246,"Ġtrot":7247,"Ġdancers":7248,"Ġdrawers":7249,"Ġcausing":7250,"Ġleads":7251,"Back":7252,"Ġdip":7253,"Ġpeck":7254,"Ġwobbly":7255,"Ġspices":7256,"Ġwatering":7257,"Ġexplo":7258,"ĠBessie":7259,"bba":7260,"Ġperformed":7261,"Ġtwisty":7262,"Ġrout":7263,"ĠChe":7264,"Ġswords":7265,"ĠJacky":7266,"Ġdresser":7267,"Ġyielded":7268,"Ġwaddled":7269,"Ġtissue":7270,"Ġguide":7271,"Ġunsure":7272,"Ġnood":7273,"Ġproper":7274,"while":7275,"Ġsteady":7276,"Ġspat":7277,"ection":7278,"Ġtwinkled":7279,"lets":7280,"Ġnervously":7281,"Ġtrembled":7282,"irrel":7283,"Ġevil":7284,"Ġdropping":7285,"Ġgarb":7286,"Ġstacked":7287,"Ġfirefly":7288,"ĠJanie":7289,"Jerry":7290,"ĠLove":7291,"Ġdoorway":7292,"Ruby":7293,"Ġgarbage":7294,"cake":7295,"Ġwakes":7296,"Ġpound":7297,"Ġgears":7298,"Ġsan":7299,"roken":7300,"Ġamount":7301,"Ġprove":7302,"Ġquarreling":7303,"iona":7304,"Ġmonths":7305,"Ġpennies":7306,"Ġlifting":7307,"Ġtoaster":7308,"but":7309,"ĠHoney":7310,"Ġsquishy":7311,"Ġtables":7312,"Ġgiggles":7313,"Ġaimed":7314,"Ġplaytime":7315,"Ġclues":7316,"Ġcosy":7317,"ĠZara":7318,"Ġwept":7319,"Ġappreciation":7320,"ĠRobbie":7321,"ĠJudy":7322,"Ġechoed":7323,"please":7324,"onna":7325,"Bet":7326,"vant":7327,"Ġmate":7328,"ĠBaa":7329,"Ġoffic":7330,"ĠThatÃ¢":7331,"Ġfits":7332,"Ġsharks":7333,"Ġfirmly":7334,"Ġdesigns":7335,"ĠMeg":7336,"Ġbehaving":7337,"Ġsank":7338,"Ġfaded":7339,"Ġsadd":7340,"Ġoysters":7341,"mates":7342,"upt":7343,"ÅĵBut":7344,"Ġgrandd":7345,"Ġpigeons":7346,"Ġloading":7347,"Frank":7348,"Kim":7349,"Ġpins":7350,"Ġrushing":7351,"Ġpolitely":7352,"Ġpostman":7353,"eel":7354,"Ġsy":7355,"Ġnotes":7356,"Ġscient":7357,"ĠWally":7358,"Ġbravest":7359,"Ġfleas":7360,"ĠFrosty":7361,"Ġscientist":7362,"ody":7363,"Ġprob":7364,"ĠLi":7365,"ÅĵWhere":7366,"Ġduckling":7367,"ÅĵIf":7368,"Watch":7369,"Ġmanag":7370,"Ġmaster":7371,"Ġprobably":7372,"fire":7373,"Ġshady":7374,"ĠFlopsy":7375,"lves":7376,"ĠWell":7377,"ĠFarmer":7378,"ÅĵNow":7379,"Ġencouraging":7380,"Ġplayroom":7381,"Ġblinking":7382,"ĠFido":7383,"Ġconfl":7384,"Ġseller":7385,"Ġreversed":7386,"Ġpassengers":7387,"Listen":7388,"Mine":7389,"Ġrobots":7390,"Ġfrowning":7391,"Ġsurrendered":7392,"Ġ2":7393,"Ġgonna":7394,"Ġovercome":7395,"eezes":7396,"Like":7397,"anwhile":7398,"antha":7399,"bbling":7400,"Ġties":7401,"Ġnuzz":7402,"ppies":7403,"Ġthoughts":7404,"During":7405,"broken":7406,"Ġcertain":7407,"cher":7408,"Ġcongratul":7409,"Ġkittens":7410,"idey":7411,"Ġnearly":7412,"Ġtricycle":7413,"Ġhealing":7414,"espite":7415,"Ġshown":7416,"ĠGreen":7417,"Ġhumans":7418,"Mad":7419,"Tony":7420,"Ġbits":7421,"rrr":7422,"Ġresults":7423,"?!\"":7424,"oke":7425,"aying":7426,"ĠMouse":7427,"Ġreun":7428,"Ġcobwebs":7429,"Ġinj":7430,"Ġcolder":7431,"now":7432,"meal":7433,"Ġpumpkins":7434,"Ġbreathing":7435,"ĠAng":7436,"Ġscored":7437,"Ġflown":7438,"Ġwaterfall":7439,"Ġunw":7440,"ĠRay":7441,"Ġtwisting":7442,"Follow":7443,"Ġtuck":7444,"ĠTuna":7445,"Ġslither":7446,"Ġcushions":7447,"Ġbehavior":7448,"ening":7449,"Ġadults":7450,"Ġwarri":7451,"Ġtighter":7452,"alloween":7453,"Ġaction":7454,"Ġpaths":7455,"ĠAlong":7456,"Even":7457,"dress":7458,"Ġcoug":7459,"ÅĵOkay":7460,"Ġsqueezing":7461,"Ġoatmeal":7462,"Ġthorns":7463,"da":7464,"ĠHalloween":7465,"rying":7466,"Ġsweetest":7467,"Ġangels":7468,"Ġstreamers":7469,"ĠUnder":7470,"ĠAli":7471,"Ġforgiving":7472,"Abigail":7473,"Ġconvers":7474,"Ġdistract":7475,"Ġgesture":7476,"Ġnoodles":7477,"Ġanger":7478,"manda":7479,"Ġpassports":7480,"Ġdefin":7481,"ca":7482,"Ġund":7483,"steps":7484,"asty":7485,"Ġblocked":7486,"Ġdamaged":7487,"Ġmerma":7488,"fia":7489,"Ġnapping":7490,"Ġbuses":7491,"Ġperforming":7492,"Ġrainy":7493,"Ġedges":7494,"Ġcoral":7495,"Ġfrowns":7496,"Ġyum":7497,"Ġcleaner":7498,"Ġbandages":7499,"Ġpuzzled":7500,"Ġaccomplished":7501,"Ġfant":7502,"Ġlaying":7503,"Ġfootsteps":7504,"Ġcrossing":7505,"Ġsymbols":7506,"Ġinstruments":7507,"ĠSquirrel":7508,"Ġni":7509,"Ġelf":7510,"Ġpays":7511,"Alright":7512,"Ġtil":7513,"Ġreminding":7514,"Ġwider":7515,"Mimi":7516,"Ġsnort":7517,"Ġfinishing":7518,"Ġheartbroken":7519,"Ġquieter":7520,"Ġtravels":7521,"Ġtoddler":7522,"ÅĵPlease":7523,"Ġsails":7524,"Ġignoring":7525,"Ġshovels":7526,"Ġconnected":7527,"Ted":7528,"Ġsou":7529,"Ġpoppies":7530,"Ġcottage":7531,"Ġsnowflakes":7532,"found":7533,"Ġrather":7534,"Ġrains":7535,"Ġhairdress":7536,"Beep":7537,"Ġcommun":7538,"Ġgranddaughter":7539,"âĤ¬,":7540,"Ġsmallest":7541,"Ġpackages":7542,"Ġbattle":7543,"Ġpedaled":7544,"ĠAmelia":7545,"Ġdefinitely":7546,"Ġkings":7547,"ĠEva":7548,"Ġrepeating":7549,"Ġheight":7550,"Ġchopped":7551,"Ġsuggestion":7552,"Ġsweep":7553,"Ġbrushing":7554,"Ġwithin":7555,"Ġhanding":7556,"ĠSpidey":7557,"Surprise":7558,"Take":7559,"Ġais":7560,"Ġsoaking":7561,"Ġslipping":7562,"ĠUp":7563,"Ġappreciated":7564,"cent":7565,"ider":7566,"Ġspies":7567,"Ġtoward":7568,"Ġhumming":7569,"Ġtravelling":7570,"Ġhairdresser":7571,"whe":7572,"onnie":7573,"Ġease":7574,"Ġsever":7575,"ĠJackie":7576,"ĠDavey":7577,"ĠQuick":7578,"Ġreassured":7579,"onies":7580,"Ġcuddles":7581,"Ġcotton":7582,"Ġfantastic":7583,"Ġseveral":7584,"Ġtipped":7585,"ĠIm":7586,"Ġbru":7587,"ÅĵOf":7588,"Ġfills":7589,"Ġtablet":7590,"Steve":7591,"Ġbracelets":7592,"Ġcowboy":7593,"Ġgenie":7594,"Ġsniffing":7595,"Ġsuffered":7596,"ĠChris":7597,"ĠBecause":7598,"ddie":7599,"Ġbelts":7600,"Ġdrown":7601,"Ġcloudy":7602,"Ġpaintbrush":7603,"Ġdisturbing":7604,"Ġofficers":7605,"Ġtying":7606,"ighting":7607,"Ġfocus":7608,"ĠAlthough":7609,"Ġpunishment":7610,"Ġresponsib":7611,"Excited":7612,"perate":7613,"Ġchanges":7614,"Ġbusiness":7615,"ĠPatch":7616,"Ġlending":7617,"Ġbless":7618,"onse":7619,"ĠGina":7620,"ĠKaren":7621,"Ġresponse":7622,"Ġluckily":7623,"Ġoccas":7624,"Since":7625,"erk":7626,"Ġafar":7627,"Ġencount":7628,"Ġsurfing":7629,"Ġcorrectly":7630,"isions":7631,"anie":7632,"Ġstitches":7633,"Ġexplorer":7634,"athy":7635,"Ġsurv":7636,"Ġwisely":7637,"Ġrisks":7638,"David":7639,"ibbit":7640,"ĠSimon":7641,"Ġyel":7642,"ĠMichael":7643,"Whenever":7644,"Ġbanged":7645,"inkle":7646,"Ġaddress":7647,"Ġmagnif":7648,"Ġarranged":7649,"Ġyelped":7650,"Ġnasty":7651,"ĠMabel":7652,"Ġreapp":7653,"ĠFuzzy":7654,"Ġefforts":7655,"Ġconflict":7656,"Jamie":7657,"issa":7658,"Ġelbow":7659,"Ġcomforting":7660,"undred":7661,"Hannah":7662,"Ġdump":7663,"Ġflipped":7664,"Ġvines":7665,"ading":7666,"Ġgoodby":7667,"flies":7668,"Ġapologised":7669,"Ġsuits":7670,"Ġloops":7671,"Anne":7672,"Ġvehicles":7673,"Ġlicking":7674,"Ġinspired":7675,"Ġponies":7676,"Ġknots":7677,"Ġfinal":7678,"Ġstopping":7679,"Ġworrying":7680,"Ġbelieving":7681,"Ġmailed":7682,"Ġgoodbyes":7683,"iel":7684,"Ġsill":7685,"Ġnewfound":7686,"ails":7687,"Ġpleaded":7688,"abby":7689,"Ġtar":7690,"ÅĵHey":7691,"sol":7692,"Ġfishes":7693,"Ġpurr":7694,"ĠX":7695,"Ġbraver":7696,"Ġdespite":7697,"erpiece":7698,"Ġcampfire":7699,"Ġtrotted":7700,"Ġdarl":7701,"ooky":7702,"Ġcheers":7703,"Ġspits":7704,"Ġreunited":7705,"Ġdarlings":7706,"isc":7707,"Ġjars":7708,"Ġpeas":7709,"Ġsurfboard":7710,"iza":7711,"Ġtasting":7712,"Ġunderstands":7713,"Ġdriveway":7714,"Ġgazing":7715,"ĠLouise":7716,"ĠTry":7717,"rian":7718,"ecca":7719,"dding":7720,"ĠPippin":7721,"pen":7722,"Ġpuck":7723,"Ġwhose":7724,"Ġwobble":7725,"acles":7726,"Ġawoke":7727,"Ġsweat":7728,"ĠMaddie":7729,"Ġcustomers":7730,"Ġnurses":7731,"eeling":7732,"Vroom":7733,"ĠOkay":7734,"Ġlies":7735,"Ġdecisions":7736,"Ġmarve":7737,"Goodnight":7738,"Ġpresented":7739,"Ġencouragement":7740,"vroom":7741,"Ġlent":7742,"Ġmood":7743,"Ġsav":7744,"Ġstumble":7745,"ĠRalph":7746,"Ġcollap":7747,"Ġtarget":7748,"Ġcoach":7749,"Ġconqu":7750,"Ġships":7751,"Ġsimply":7752,"Ġcongratulated":7753,"Ġmemb":7754,"Ġsurprising":7755,"acle":7756,"Ġsmelling":7757,"ivia":7758,"Ġsupported":7759,"Chloe":7760,"Ġseashells":7761,"Ġmembers":7762,"Get":7763,"inted":7764,"Ġbirdhouse":7765,"ĠDory":7766,"Ġantic":7767,"Ġprick":7768,"Ġcrowns":7769,"iens":7770,"Ġaliens":7771,"Ġstored":7772,"Ġcovering":7773,"Ġpeeled":7774,"Ġcalmly":7775,"Ġdelayed":7776,"Ġweeds":7777,"Ġsped":7778,"Ġbaskets":7779,"Mira":7780,"Ġexcept":7781,"Ġartwork":7782,"Ġbothering":7783,"Ġspills":7784,"True":7785,"Ġwrinkled":7786,"Ġgap":7787,"Ġclerk":7788,"ĠElly":7789,"Ġque":7790,"Ġwarmly":7791,"Ġexamining":7792,"Ġmasterpiece":7793,"eedy":7794,"ollen":7795,"Ġannoyed":7796,"uel":7797,"Ġshoo":7798,"Ġswollen":7799,"Ġunfortunately":7800,"Ġbelongings":7801,"Ġscram":7802,"Ġexercises":7803,"Ġdiscussing":7804,"we":7805,"ssss":7806,"Ġjoins":7807,"emma":7808,"Ġimages":7809,"ĠMarie":7810,"worm":7811,"Ġbuddy":7812,"Ġstudent":7813,"Ġwounds":7814,"Bunny":7815,"ms":7816,"ĠFighting":7817,"ĠBubba":7818,"Ġsewed":7819,"Ġtroubles":7820,"Ġburying":7821,"Ġsqueaked":7822,"aturday":7823,"ĠAshley":7824,"Penny":7825,"ĠSaturday":7826,"Ġspy":7827,"agic":7828,"ĠLia":7829,"Ġdonkey":7830,"Ġaware":7831,"ĠBirdy":7832,"Ġconcert":7833,"even":7834,"line":7835,"ris":7836,"wise":7837,"rie":7838,"elie":7839,"ĠRuth":7840,"Ġteachers":7841,"Ġwhistles":7842,"Ġfigures":7843,"attered":7844,"ĠFroggy":7845,"Rachel":7846,"Ġhundred":7847,"Ġdep":7848,"lph":7849,"Ġchilly":7850,"Ġfins":7851,"Ġpurpose":7852,"screen":7853,"Ġnibbled":7854,"Ġwarrior":7855,"crow":7856,"rier":7857,"Ġlapt":7858,"Josh":7859,"ugging":7860,"Ġwindowsill":7861,"Ġtubes":7862,"ongo":7863,"Ġposit":7864,"Ġchocolates":7865,"Ġguessing":7866,"Ġmermaid":7867,"mered":7868,"Ġwasting":7869,"Ġrin":7870,"ammy":7871,"Ġorders":7872,"Ġdiamonds":7873,"Ġspeeding":7874,"ĠSnowman":7875,"Ġexperienced":7876,"father":7877,"ĠAny":7878,"Ġexch":7879,"Ġsquaw":7880,"Ġterrified":7881,"Ġspells":7882,"ĠPippa":7883,"Ġgrip":7884,"Jess":7885,"bell":7886,"rick":7887,"Any":7888,"utter":7889,"ppa":7890,"artled":7891,"ĠWelcome":7892,"Ġtreated":7893,"Ġtapping":7894,"Ġjoked":7895,"Ġtoolbox":7896,"Ġsolving":7897,"Poppy":7898,"hil":7899,"Ġsunscreen":7900,"ĠJoan":7901,"Ġraces":7902,"Ġfires":7903,"ĠDog":7904,"Ġpriz":7905,"Ġmagazines":7906,"Ġadmiration":7907,"Ġglittering":7908,"Am":7909,"ĠJaney":7910,"Ġnibble":7911,"rup":7912,"Ġnodding":7913,"Ġalthough":7914,"ĠWil":7915,"usty":7916,"Ġthanking":7917,"Ġforests":7918,"Ġplanting":7919,"Ġwhispering":7920,"Ġmaterial":7921,"Ġlaptop":7922,"mies":7923,"rily":7924,"order":7925,"amma":7926,"ĠOther":7927,"Ġclassmates":7928,"Ġtires":7929,"ĠRocky":7930,"Ġstall":7931,"Ġspooky":7932,"Ġswap":7933,"Ġuntied":7934,"Ġexpert":7935,"Ġstomp":7936,"Quack":7937,"Ġactivity":7938,"Ġrefuse":7939,"Joy":7940,"aven":7941,"Ġdragonfly":7942,"Ġdisplayed":7943,"Ġqueens":7944,"Rosie":7945,"Ġmaker":7946,"Ġloses":7947,"Ġdisc":7948,"ĠBecky":7949,"Ġinsisting":7950,"Always":7951,"Leave":7952,"Adam":7953,"ighing":7954,"Ġscent":7955,"Ġtweet":7956,"ipes":7957,"Ġfoxes":7958,"Ġgoats":7959,"Ġgrandson":7960,"Ġbackpacks":7961,"Ġoppos":7962,"ĠExcited":7963,"Ġsyrup":7964,"Jessie":7965,"Ke":7966,"ĠAlly":7967,"ilda":7968,"Ġexplains":7969,"Ġscurrying":7970,"Ġscrambled":7971,"Ġbou":7972,"Ġbitten":7973,"Ġdot":7974,"Ġdecl":7975,"ÅĵSee":7976,"ĠKaty":7977,"Ġwiggly":7978,"Ġbeaming":7979,"Ġforgiveness":7980,"Ġbouqu":7981,"Ġhoo":7982,"ÅĵThe":7983,"Ġconvin":7984,"Ġjud":7985,"Ġlabels":7986,"Ġsternly":7987,"Ġopposite":7988,"ÅĵSure":7989,"Ġdiso":7990,"Ġloc":7991,"ument":7992,"ĠDespite":7993,"Ġtrans":7994,"Ġdoorbell":7995,"Ġhunters":7996,"ĠFreddie":7997,"Car":7998,"ĠSplash":7999,"Ġrely":8000,"Ġflips":8001,"Ġnearest":8002,"what":8003,"rest":8004,"Ġrays":8005,"Ġbrightest":8006,"ĠRain":8007,"Ġscarecrow":8008,"Ġstroke":8009,"ĠTessa":8010,"Ġresponded":8011,"Ġencountered":8012,"Dear":8013,"olph":8014,"sm":8015,"ortunately":8016,"Thomas":8017,"Ġtidied":8018,"Ġwealth":8019,"Ġdiscoveries":8020,"udolph":8021,"Ġpupils":8022,"aint":8023,"Ġteles":8024,"Ġghosts":8025,"Ġaeroplanes":8026,"Ġemerged":8027,"iscuit":8028,"Ġtelescope":8029,"ĠMina":8030,"Ġlowered":8031,"ĠPatty":8032,"Ġpandas":8033,"Two":8034,"idence":8035,"ĠDuck":8036,"Ġprayers":8037,"illiam":8038,"gain":8039,"ĠBounce":8040,"ĠFiona":8041,"Ġpeep":8042,"Ġtesting":8043,"Meanwhile":8044,"Ġattacked":8045,"Ġtype":8046,"yl":8047,"Ġting":8048,"Ġpermitted":8049,"Ġvibr":8050,"Ġmatey":8051,"Ġanticip":8052,"Ġtransf":8053,"Ġger":8054,"Ġuntie":8055,"ĠSpeedy":8056,"Ġvegg":8057,"Ġservant":8058,"Ġtwists":8059,"Ġquarre":8060,"Ġcharacters":8061,"Ġcleared":8062,"Ġvisitors":8063,"Stay":8064,"Claire":8065,"Ġicing":8066,"Ġwhimp":8067,"Ġbreaths":8068,"Ġmeowing":8069,"Mat":8070,"Ġsheets":8071,"ĠBow":8072,"Ġcharge":8073,"Ġsweaty":8074,"Ġcrawls":8075,"Ġbeeped":8076,"Ġaim":8077,"ats":8078,"ancy":8079,"Ġastronauts":8080,"anda":8081,"ortun":8082,"Ġsprout":8083,"Ġturtles":8084,"ĠPepper":8085,"ĠHold":8086,"ĠgirlÃ¢":8087,"Ġyoungest":8088,"Ġscratching":8089,"Ġopportun":8090,"munk":8091,"ĠSk":8092,"ĠSw":8093,"Ġshall":8094,"ĠAmanda":8095,"Ġends":8096,"ĠElle":8097,"Ġhonking":8098,"ĠStan":8099,"Ġtaped":8100,"Ġincreasing":8101,"Ġcocoon":8102,"inger":8103,"ooking":8104,"ĠJojo":8105,"ĠZoomy":8106,"Tweetie":8107,"Ġshimmering":8108,"Ġbeeh":8109,"Ġmillion":8110,"Ġnuzzled":8111,"Ġconversation":8112,"Ġtumbled":8113,"Ġfailed":8114,"Ġfloors":8115,"Ġenviron":8116,"Ġrats":8117,"Ġstatues":8118,"Ġfilms":8119,"abra":8120,"Ġpurrs":8121,"Uncle":8122,"Ġenvironment":8123,"ĠKelly":8124,"Ġunwra":8125,"Ġtilted":8126,"Ġzooms":8127,"Ġtidying":8128,"udged":8129,"Ġcrystals":8130,"ĠMegan":8131,"Ġchipmunk":8132,"Ġtoss":8133,"ĠBongo":8134,"ĠSofia":8135,"Ġmischie":8136,"ĠRobo":8137,"Ġmanager":8138,"Ġanticipation":8139,"Ġmischievous":8140,"Bang":8141,"yler":8142,"Ġforce":8143,"ĠAna":8144,"Ġbeautifully":8145,"Ġdressing":8146,"Ġrotting":8147,"oosh":8148,"igger":8149,"Ġrumbling":8150,"Ġbeating":8151,"ĠYouÃ¢":8152,"Ġgrat":8153,"oscope":8154,"Ġrescuing":8155,"ĠMaddy":8156,"Je":8157,"empt":8158,"ctric":8159,"Ġdangers":8160,"Ġvisits":8161,"ĠFlo":8162,"Ġpicnics":8163,"Ġreminds":8164,"Ġgrandfather":8165,"Ġseagulls":8166,"Ġcustomer":8167,"Cindy":8168,"lo":8169,"Ġbea":8170,"Ġmanners":8171,"Ġattempt":8172,"Ġdesigning":8173,"Ġoffering":8174,"Ġswaying":8175,"Ġrobbers":8176,"lied":8177,"ilities":8178,"Ġform":8179,"ĠEddie":8180,"otte":8181,"Ġjobs":8182,"arlotte":8183,"Ġcheckout":8184,"Ġhoops":8185,"Ġmosquitoes":8186,"Ġdeclared":8187,"Ġsteth":8188,"Ġprevented":8189,"Julie":8190,"Ġdrowned":8191,"Ġgratitude":8192,"bit":8193,"hind":8194,"Ġsens":8195,"Ġrowed":8196,"romise":8197,"Ġswitched":8198,"Ġdecoration":8199,"Ġobeyed":8200,"Ġflaps":8201,"Ġdodged":8202,"Ġsurvive":8203,"Ġveggies":8204,"Buzz":8205,"act":8206,"belle":8207,"pit":8208,"Ġmovements":8209,"Ġquestioned":8210,"Ġcells":8211,"Ġannounced":8212,"Ġaisle":8213,"Beth":8214,"Buddy":8215,"ittered":8216,"Ġblond":8217,"Ġinstantly":8218,"Ġknocking":8219,"Ġswayed":8220,"ĠQuackers":8221,"Out":8222,"ĠHolly":8223,"Ġgoodies":8224,"athan":8225,"Ġparted":8226,"ordinary":8227,"Ġotters":8228,"Ġstethoscope":8229,"ulp":8230,"Ġsculp":8231,"ĠSamantha":8232,"ĠRudolph":8233,"Ġrecorder":8234,"Ġargument":8235,"Ġcowboys":8236,"Ġresponsibility":8237,"Ġclicked":8238,"Ġbadger":8239,"Ġcons":8240,"Ġdears":8241,"Ġcracks":8242,"Ġelectric":8243,"Ġshrunk":8244,"Ġlipstick":8245,"Ġsteering":8246,"Friend":8247,"five":8248,"ĠTaking":8249,"Ġinches":8250,"Ġseals":8251,"Ġcares":8252,"Ġdisobey":8253,"Boys":8254,"Tilly":8255,"anced":8256,"Ġsmashed":8257,"Ġflip":8258,"airy":8259,"Ġexploded":8260,"Ġroutine":8261,"Karen":8262,"Ġtin":8263,"Ġdripping":8264,"Ġactive":8265,"Ġawful":8266,"ĠReady":8267,"orter":8268,"ÅĵWho":8269,"Ġadds":8270,"Ġmodels":8271,"ummies":8272,"Ġbouquet":8273,"lt":8274,"Ġsmelt":8275,"Ġminds":8276,"Ġself":8277,"Ġpaddling":8278,"ĠAuntie":8279,"Abby":8280,"Red":8281,"innie":8282,"ĠHope":8283,"Ġsupplied":8284,"Ġchatter":8285,"ĠKevin":8286,"lephant":8287,"Ġslowed":8288,"Ġcupcake":8289,"Ġbathing":8290,"Ġrobin":8291,"ippers":8292,"ĠAngel":8293,"rink":8294,"ative":8295,"Ġsnug":8296,"Ġdeed":8297,"Ġfarmers":8298,"Ġbothered":8299,"Freddy":8300,"Someone":8301,"Ġflashing":8302,"Ġhen":8303,"Ġblown":8304,"Ġchecks":8305,"Ġextraordinary":8306,"Ġapplause":8307,"Ġsnaps":8308,"Each":8309,"Ġhike":8310,"oration":8311,"llas":8312,"Ġflashed":8313,"Momma":8314,"ÅĵMaybe":8315,"ÅĵGood":8316,"Ġglimmering":8317,"Ġstretches":8318,"Lena":8319,"Ġmunched":8320,"Ġkilled":8321,"ĠDino":8322,"Ġwaters":8323,"Ġsets":8324,"Ġnests":8325,"Ġumbrellas":8326,"Ġshorts":8327,"Ġparticularly":8328,"Ġheaven":8329,"storm":8330,"Ġgroan":8331,"Ġconduct":8332,"Ġconvinced":8333,"otch":8334,"ĠHelen":8335,"Ġshines":8336,"Ġtwenty":8337,"Ġpetting":8338,"flowers":8339,"Ġunpacking":8340,"Ġobserving":8341,"Ġcollapsed":8342,"Ġsculpture":8343,"Co":8344,"ĠTime":8345,"Ġramp":8346,"Ġhardest":8347,"ĠPoor":8348,"Ġbluebird":8349,"Ġtrusting":8350,"Ġinchworm":8351,"Ġopinions":8352,"Mart":8353,"Ġshin":8354,"Ġgenerosity":8355,"Ġtests":8356,"Ġearned":8357,"Pl":8358,"ĠSay":8359,"Ġsoot":8360,"Ġwinding":8361,"Ġbounces":8362,"ebecca":8363,"Ġdisappoint":8364,"Ġgall":8365,"lest":8366,"Ġposes":8367,"Ġforgives":8368,"Ġswimmer":8369,"Ġvisitor":8370,"Ġstamped":8371,"Ġconfidence":8372,"Ġcontainer":8373,"Ġexpecting":8374,"Che":8375,"vy":8376,"ering":8377,"Ġgoo":8378,"Ġlocks":8379,"Ġsquished":8380,"Ġmember":8381,"ĠSnowball":8382,"ĠElsie":8383,"Ġconductor":8384,"water":8385,"ĠwhatÃ¢":8386,"ĠLion":8387,"ooks":8388,"Ġtrigger":8389,"LetÃ¢":8390,"ĠGl":8391,"ĠRos":8392,"ĠFinny":8393,"Ġapplauding":8394,"Ġfloats":8395,"Papa":8396,"Ġknives":8397,"Ġbuckled":8398,"Ġexperiences":8399,"Nice":8400,"elvet":8401,"ĠPen":8402,"Ġclosing":8403,"Ġcourt":8404,"Ġwhisk":8405,"Ġdestroying":8406,"Ġprickly":8407,"Ġgerms":8408,"Ġbeehive":8409,"Arrr":8410,"rough":8411,"Ġtummies":8412,"ita":8413,"ĠmomÃ¢":8414,"chy":8415,"Ġbond":8416,"Ġcarries":8417,"Ġdryer":8418,"ĠTrust":8419,"Ġinstrument":8420,"Ġsadder":8421,"Gina":8422,"Honey":8423,"Ġill":8424,"Ġwaded":8425,"âĤ¬Â":8426,"Bear":8427,"yle":8428,"ÅĵBe":8429,"angle":8430,"Ġtickling":8431,"Ġteams":8432,"Ġhunting":8433,"ĠCrabby":8434,"Ġmunching":8435,"Kids":8436,"ĠBrian":8437,"Ġtraded":8438,"Ġoverhead":8439,"ĠGary":8440,"Ġnights":8441,"Ġscrub":8442,"Ġlanguages":8443,"ĠIsn":8444,"pril":8445,"Ġtips":8446,"Ġinter":8447,"Ġwhoever":8448,"uddles":8449,"ĠCla":8450,"bee":8451,"ĠSpring":8452,"Ġwiser":8453,"Ġcombed":8454,"âĤ¬Â¦":8455,"Ġsigning":8456,"ĠSweet":8457,"ĠIzzy":8458,"ĠJax":8459,"Ġstrum":8460,"Yesterday":8461,"acy":8462,"Ġscooters":8463,"Ġcubs":8464,"Ġsirens":8465,"ĠElsa":8466,"idnight":8467,"aula":8468,"ĠPo":8469,"Ġsprays":8470,"Ġscolds":8471,"Ġburnt":8472,"ĠJean":8473,"centr":8474,"Ol":8475,"ĠJilly":8476,"ÅĵOk":8477,"Ġtearing":8478,"Ġrealizes":8479,"Ġconcentr":8480,"Ġsingers":8481,"Ġcompan":8482,"Ġenvelopes":8483,"Ġuniforms":8484,"lers":8485,"Ġket":8486,"Ġgardens":8487,"acock":8488,"Ġcrops":8489,"idents":8490,"ĠZee":8491,"ĠZero":8492,"ĠPeppa":8493,"Ġchatted":8494,"ĠFrankie":8495,"ators":8496,"ances":8497,"adabra":8498,"boards":8499,"ĠDonÃ¢":8500,"ĠOlivia":8501,"rrrrrrrr":8502,"Ġpossess":8503,"Too":8504,"ended":8505,"Ġtreas":8506,"ĠMomma":8507,"Ġclearly":8508,"Ġquacking":8509,"Aunt":8510,"oc":8511,"yd":8512,"Ġkit":8513,"arable":8514,"asha":8515,"ĠFlora":8516,"hole":8517,"Ġwildflowers":8518,"ĠStitch":8519,"Ġpeeped":8520,"erg":8521,"Ġhaven":8522,"Ġplugged":8523,"str":8524,"lyn":8525,"Ġchin":8526,"aptain":8527,"ccidents":8528,"Ġconquered":8529,"Jacob":8530,"car":8531,"cadabra":8532,"Ġhood":8533,"ĠBad":8534,"ĠAnt":8535,"ĠCle":8536,"Ġcheat":8537,"Ġsurely":8538,"Ġpapa":8539,"balls":8540,"Ġrelaxing":8541,"Ġchecking":8542,"Ġnewspapers":8543,"Ġbound":8544,"orking":8545,"Ġflick":8546,"ĠFel":8547,"ĠCurious":8548,"Ġhotter":8549,"ĠStri":8550,"Ġmicrow":8551,"Ġcheaper":8552,"Ġexpression":8553,"ĠImmediately":8554,"Ġprizes":8555,"earing":8556,"Ġplayd":8557,"ĠBang":8558,"ĠWo":8559,"Ġfond":8560,"Ġpasses":8561,"Ġreturning":8562,"Ġbicycles":8563,"Ġnovels":8564,"Ġdetails":8565,"Brown":8566,"Snow":8567,"Ġborn":8568,"Ġodd":8569,"Ġmomma":8570,"Ġshorter":8571,"ĠAva":8572,"Ġflowing":8573,"Ġraising":8574,"Ġmesses":8575,"Ġcirc":8576,"ĠVroom":8577,"Ġpuppets":8578,"Ġoutfits":8579,"ĠJonny":8580,"elieve":8581,"Liz":8582,"Rob":8583,"hny":8584,"vince":8585,"Ġflock":8586,"Ġexploration":8587,"Ġcheated":8588,"Ġglided":8589,"ĠPhil":8590,"Ġconvince":8591,"Ġprod":8592,"Ġsqueaky":8593,"Ġswirls":8594,"Ġhealthier":8595,"ĠLiam":8596,"ĠSmo":8597,"Ġmommies":8598,"ĠMae":8599,"icate":8600,"Ġgrumbled":8601,"Ġgulp":8602,"Ġcheerfully":8603,"Ġawhile":8604,"Ġproviding":8605,"Ġmeows":8606,"Ġdefeated":8607,"Cat":8608,"ouraged":8609,"ĠNever":8610,"ĠNana":8611,"Ġhangers":8612,"ĠSparkle":8613,"Ġannoying":8614,"Ġbeaver":8615,"Ġnatur":8616,"ĠBess":8617,"ĠJason":8618,"ship":8619,"Ġnecks":8620,"Ġburns":8621,"Ġunlo":8622,"Ġtreasured":8623,"Ġmicrowave":8624,"Ġfaint":8625,"Ġhonesty":8626,"Ġexplaining":8627,"Ġvibrant":8628,"Ġcompanion":8629,"Jon":8630,"sers":8631,"Ġdoz":8632,"Ġjugg":8633,"Ġlongest":8634,"ĠPick":8635,"ĠKay":8636,"Ġmelody":8637,"ĠWhoever":8638,"ĠTwinkle":8639,"ĠAmber":8640,"iving":8641,"Ġinvent":8642,"Ġscri":8643,"Ġbride":8644,"Ġpeacock":8645,"Ġsoundly":8646,"Ġpractised":8647,"Ġsoapy":8648,"ĠDaniel":8649,"Ġdeserved":8650,"Ġfaith":8651,"Ġability":8652,"ĠPing":8653,"Ġcountries":8654,"Ġimaginary":8655,"Ġcurl":8656,"Ġmeatballs":8657,"val":8658,"ĠBoun":8659,"uno":8660,"Ġroast":8661,"Ġdollar":8662,"Ġsmoking":8663,"Ġstrips":8664,"Ġwriggled":8665,"whel":8666,"Ġreappeared":8667,"free":8668,"off":8669,"Ġwashes":8670,"elope":8671,"getic":8672,"Ġswallow":8673,"ĠRoger":8674,"ĠRufus":8675,"Ġgallop":8676,"bu":8677,"Ġthump":8678,"Ġbeast":8679,"roll":8680,"Ġoverwhel":8681,"Ġglittered":8682,"ĠPin":8683,"ĠPeggy":8684,"Ġtraveling":8685,"ĠPrince":8686,"Ġcommon":8687,"omb":8688,"Ġhabit":8689,"Ġplug":8690,"adually":8691,"ĠWilliam":8692,"Ġbecomes":8693,"Ġmattered":8694,"Ġcrocodiles":8695,"iolet":8696,"asmine":8697,"Ġlocal":8698,"belt":8699,"oard":8700,"Ġouch":8701,"ĠMother":8702,"andra":8703,"Ġenem":8704,"Ġcaterpillars":8705,"Ġpressing":8706,"Ġexperiment":8707,"Ġburger":8708,"Ġsprinkle":8709,"Ġenemies":8710,"Zoom":8711,"bl":8712,"Ġsometime":8713,"Ġcleans":8714,"Ġengines":8715,"Choo":8716,"Ġweapons":8717,"ĠVelvet":8718,"Bu":8719,"Put":8720,"Ġ5":8721,"owing":8722,"Ġhiss":8723,"Ġupside":8724,"Ġaboard":8725,"Ġmoat":8726,"Ġfascinating":8727,"Ġbehaviour":8728,"aret":8729,"Ġsprang":8730,"Ġcaw":8731,"Ġnatural":8732,"Ollie":8733,"Ġstur":8734,"ĠBoo":8735,"ending":8736,"ĠAr":8737,"ĠLa":8738,"Ġunable":8739,"Ġsandy":8740,"ĠStep":8741,"Ġchatting":8742,"ĠTiger":8743,"Ġthie":8744,"beep":8745,"ĠPretty":8746,"Ġcafe":8747,"emy":8748,"ĠTerry":8749,"ĠTyler":8750,"ift":8751,"Ġchill":8752,"Ġbubbly":8753,"shadow":8754,"Ġseatbelt":8755,"Ġmiracle":8756,"ĠMonkey":8757,"Ġopportunity":8758,"Kayla":8759,"Never":8760,"Ġshattered":8761,"Ġexamp":8762,"venir":8763,"Ġskies":8764,"Ġshrug":8765,"Ġserving":8766,"ĠZack":8767,"ĠSeeing":8768,"Ġdistracted":8769,"Ġsouvenir":8770,"Feeling":8771,"Ġbomb":8772,"Ġbacks":8773,"ĠWoo":8774,"Ġteap":8775,"Ġshrank":8776,"Instead":8777,"Ġfreezing":8778,"Ġicky":8779,"Ġforts":8780,"Ġwhined":8781,"ĠMidnight":8782,"ĠElephant":8783,"Ġsalon":8784,"Ġhummed":8785,"Ġtentacles":8786,"Ġsincere":8787,"ĠEliza":8788,"ĠHootie":8789,"Ġactor":8790,"ouched":8791,"ĠBonnie":8792,"Ġclut":8793,"shaped":8794,"Ġminded":8795,"Robbie":8796,"',":8797,"over":8798,"Ġdock":8799,"Ġsquinted":8800,"ĠPatrick":8801,"Ġweighs":8802,"Ġthieves":8803,"cie":8804,"Ġbund":8805,"ĠNe":8806,"ĠCharlotte":8807,"Ġpleas":8808,"Ġauntie":8809,"Ġmugs":8810,"ĠRudy":8811,"Ġcalmer":8812,"Ġdiscouraged":8813,"Ġexample":8814,"Ġteapot":8815,"Mon":8816,"jest":8817,"ĠAccidents":8818,"ifi":8819,"Ġenemy":8820,"Ġsandpit":8821,"Ġpinching":8822,"Ġinsep":8823,"Ġcrowded":8824,"Ġyumm":8825,"Ġunco":8826,"iggie":8827,"Ġchews":8828,"Whiskers":8829,"Ġoccasion":8830,"Ġsipped":8831,"ĠNice":8832,"Ġsnowy":8833,"Maddy":8834,"Ġinseparable":8835,"ĠYum":8836,"Ġlump":8837,"Ġshallow":8838,"Ġrewards":8839,"Ġanswering":8840,"ĠStill":8841,"Ġthicker":8842,"Ġdemanding":8843,"Betty":8844,"po":8845,"Ġbiscuit":8846,"ĠShelly":8847,"Ġhisses":8848,"ĠMan":8849,"Ġjets":8850,"ĠEric":8851,"Ġfinishes":8852,"Ġgrassho":8853,"Ġcreams":8854,"Ġcoolest":8855,"Ġgasps":8856,"Lulu":8857,"Ġlim":8858,"stand":8859,"ĠMake":8860,"Ġenjoyable":8861,"ĠRavi":8862,"uggy":8863,"Ġrepairman":8864,"Ġapproach":8865,"Ġcoughed":8866,"ai":8867,"ints":8868,"oto":8869,"ĠButter":8870,"Ġslapping":8871,"Ġdoorstep":8872,"Ġfireflies":8873,"ĠDoes":8874,"Ġsmartest":8875,"Ġsuccessfully":8876,"ibly":8877,"Ġnightmares":8878,"Ahoy":8879,"Ġtypes":8880,"ĠMelissa":8881,"Anytime":8882,"its":8883,"Ġformed":8884,"Ġcanv":8885,"Ġpatches":8886,"Ġembra":8887,"Ġstuffing":8888,"Ġzips":8889,"Ġbeetles":8890,"Ġscattering":8891,"Ġswimsuits":8892,"Ġpositive":8893,"Keep":8894,"Ġjudges":8895,"Big":8896,"mel":8897,"ĠSleep":8898,"amil":8899,"Ġbirdy":8900,"Ġmarking":8901,"ĠOink":8902,"Ġstorms":8903,"ĠChick":8904,"Ġtunes":8905,"Ġangrily":8906,"faction":8907,"Ġerase":8908,"Ġcompliment":8909,"ĠShow":8910,"Ġhaircuts":8911,"Ġsatisfaction":8912,"Gr":8913,"Zoe":8914,"oss":8915,"atty":8916,"Ġnoticing":8917,"ĠLuc":8918,"Ġgoodness":8919,"Ġsweeter":8920,"Ġhesitation":8921,"Ġunfamil":8922,"Suzy":8923,"Brownie":8924,"Ġunfamiliar":8925,"Ġpipes":8926,"Ġcris":8927,"Ġmysteries":8928,"Ġburgers":8929,"Ġsweaters":8930,"Ġexchange":8931,"Hold":8932,"Hmm":8933,"Ġrips":8934,"ĠWigg":8935,"ĠDe":8936,"Ġbubbling":8937,"Ġchopping":8938,"Ġattitude":8939,"scotch":8940,"Ġcroaked":8941,"ĠLiza":8942,"amboo":8943,"Ġinjured":8944,"Ralph":8945,"bur":8946,"ĠOh":8947,"ĠSe":8948,"Ġwolves":8949,"Ġleaking":8950,"Ġcompete":8951,"Ġhorri":8952,"Ġpantry":8953,"ĠMatilda":8954,"Ġslithered":8955,"Ġsnorted":8956,"Ġcanvas":8957,"Lizzie":8958,"rupt":8959,"Ġfade":8960,"Ġlar":8961,"Ġrack":8962,"icious":8963,"Ġscow":8964,"Ġsneezes":8965,"ÅĵYay":8966,"Ġstores":8967,"Ġprotection":8968,"Ġdigs":8969,"Ġspilling":8970,"Maya":8971,"Ġlull":8972,"ĠMagic":8973,"Ġclue":8974,"ĠBehind":8975,"ware":8976,"Ġtot":8977,"ĠMaisy":8978,"ĠCara":8979,"ĠCaptain":8980,"ĠRight":8981,"rench":8982,"Ġpills":8983,"Ġenergetic":8984,"Ġrows":8985,"Ġblonde":8986,"Both":8987,"gr":8988,"ial":8989,"Ġweighing":8990,"chup":8991,"Ġwatermel":8992,"Ġshoel":8993,"Ġapology":8994,"ĠSparkles":8995,"Ġcondition":8996,"Suzie":8997,"Jeff":8998,"Ġgrasshopper":8999,"ĠSl":9000,"ĠAgain":9001,"Ġshrugs":9002,"Ġguarding":9003,"Ġyawning":9004,"Ġmagnifying":9005,"Ġgroaned":9006,"Ġsturdy":9007,"HE":9008,"Open":9009,"Ġding":9010,"immered":9011,"Ġrunner":9012,"scar":9013,"Ġbruises":9014,"Fro":9015,"bank":9016,"ps":9017,"Ġnapped":9018,"iciest":9019,"ĠFairy":9020,"ĠGrand":9021,"Ġspears":9022,"Ġbends":9023,"solut":9024,"Pretty":9025,"ĠBarry":9026,"Ġalley":9027,"Ġtops":9028,"Ġinvites":9029,"Ġmeadows":9030,"Ġintelligence":9031,"Ġerupt":9032,"Ġfist":9033,"ĠTammy":9034,"ĠLooking":9035,"ĠDra":9036,"Ġunderwater":9037,"Ġlanding":9038,"Ġkeyhole":9039,"Ġscares":9040,"Ġrewarding":9041,"Ġpopsic":9042,"Ġscenery":9043,"Ġoverwhelmed":9044,"Ġdou":9045,"iring":9046,"aming":9047,"ĠBra":9048,"ĠLina":9049,"anted":9050,"ĠCD":9051,"Ġjoyfully":9052,"Ġwelcoming":9053,"Ġmoonlight":9054,"ĠPeep":9055,"Ġtextures":9056,"ĠBobbie":9057,"Ġconnect":9058,"ĠPlaying":9059,"Ġtempted":9060,"Ġcommunicate":9061,"Ġdisappointment":9062,"Ġketchup":9063,"ĠBouncy":9064,"ka":9065,"inging":9066,"Ġallerg":9067,"Ġblushed":9068,"Ġstyles":9069,"Ġchoosing":9070,"Deal":9071,"Ġheels":9072,"otion":9073,"ĠBert":9074,"endant":9075,"Ġwhales":9076,"racadabra":9077,"Ġbold":9078,"Ġmoons":9079,"ĠCr":9080,"Ġshares":9081,"Ġsqueezes":9082,"Ġpizzas":9083,"Ġtraps":9084,"Ġmiller":9085,"Betsy":9086,"Ġelectricity":9087,"ĠClaus":9088,"!'.":9089,"Ġbas":9090,"Ġda":9091,"Ġdart":9092,"ani":9093,"Ġripp":9094,"Ġtalents":9095,"Ġtoothbrush":9096,"Ġbinoc":9097,"ĠCarla":9098,"Susan":9099,"Ġbamboo":9100,"iter":9101,"Ġlevel":9102,"Ġintently":9103,"Ġdev":9104,"Ġamused":9105,"ĠOf":9106,"Ġtorto":9107,"Ġairplanes":9108,"Hurry":9109,"Ġrebu":9110,"Ġworst":9111,"ĠLenny":9112,"Ġcharm":9113,"Ġcheating":9114,"ĠGus":9115,"Ġmonth":9116,"Ġcurre":9117,"Ġspringtime":9118,"Ġsupporting":9119,"Moo":9120,"Ġarrest":9121,"Ġfunn":9122,"ĠWin":9123,"Ġprank":9124,"ĠDeal":9125,"Ġquilt":9126,"Ġbaa":9127,"Ġshoots":9128,"uction":9129,"Ġglittery":9130,"Ġpedaling":9131,"Ġunfair":9132,"Tara":9133,"ĠSince":9134,"Ġfoam":9135,"ulars":9136,"eremy":9137,"Ġcamel":9138,"Ġcops":9139,"ĠCarol":9140,"Ġaston":9141,"Ġcertainly":9142,"Ġwhimpered":9143,"jack":9144,"uess":9145,"Ġtugging":9146,"ĠSuper":9147,"ĠRicky":9148,"spe":9149,"Ġbenches":9150,"Ġmedals":9151,"ĠStartled":9152,"Ġtimid":9153,"Ġplaydate":9154,"Ġbinoculars":9155,"Ġtortoise":9156,"Bo":9157,"Lizzy":9158,"nded":9159,"ige":9160,"cts":9161,"Ġunless":9162,"Ġhopscotch":9163,"ĠRebecca":9164,"Ġcherish":9165,"ÅĵWeÃ¢":9166,"Ġsituations":9167,"Mikey":9168,"Ġtemptation":9169,"ĠQuickly":9170,"Ġmarveled":9171,"Ġtransformed":9172,"ĠToto":9173,"ĠApril":9174,"Ġspare":9175,"hings":9176,"Ġlevers":9177,"ggles":9178,"Ġcomputers":9179,"ĠAnother":9180,"Ġstrolled":9181,"Matt":9182,"Ġconsider":9183,"Ġcrisp":9184,"Ġdashed":9185,"Ġstew":9186,"ĠJenn":9187,"Achoo":9188,"Pr":9189,"Ãĥ":9190,"Ġ4":9191,"edic":9192,"Ġpounced":9193,"ĠTears":9194,"ĠSir":9195,"ĠSasha":9196,"rob":9197,"Ġblade":9198,"Ġmajest":9199,"Ġdifferently":9200,"Ġsleeps":9201,"Ġtrusty":9202,"Ġcourageous":9203,"Ġthumbs":9204,"Ġfetched":9205,"Ġscene":9206,"Hop":9207,"Ġsection":9208,"alled":9209,"Ġboil":9210,"Ġboiling":9211,"Ġlookout":9212,"ÅĵHow":9213,"Ġowns":9214,"Ġwarmed":9215,"ormation":9216,"Ġwiggling":9217,"aisie":9218,"Ġinju":9219,"Curious":9220,"lor":9221,"udy":9222,"Ġarom":9223,"isdom":9224,"chief":9225,"Ġblades":9226,"Ġraking":9227,"Ġcrouched":9228,"Ġstepping":9229,"Ġriverbank":9230,"Ġpreschool":9231,"Still":9232,"Ġgroups":9233,"Ġtickles":9234,"Ġluckiest":9235,"Ġbulbs":9236,"Ġwatermelon":9237,"Mabel":9238,"ĠWait":9239,"ĠEd":9240,"Ġmold":9241,"Ġsnapping":9242,"Ġobst":9243,"Ġtrusts":9244,"Ġteamwork":9245,"Ġcuddling":9246,"Ġpilots":9247,"Ġleans":9248,"Ġpepperoni":9249,"ĠShare":9250,"Ġdisagre":9251,"Chirp":9252,"ĠVery":9253,"Nothing":9254,"Julia":9255,"solutely":9256,"Lia":9257,"filled":9258,"sie":9259,"Ġnic":9260,"Ġsacks":9261,"ĠIce":9262,"Ġgoggles":9263,"Ġpopping":9264,"Ġmagically":9265,"ĠOuch":9266,"ĠBirdie":9267,"Ġdefeat":9268,"Ġunwrapped":9269,"Ġcircled":9270,"Lou":9271,"just":9272,"Ġtopp":9273,"Ġcages":9274,"ĠMoon":9275,"Ġrecess":9276,"ĠLight":9277,"Ġpokes":9278,"uffin":9279,"Ġmustered":9280,"Ġmindful":9281,"Ġmelons":9282,"Ġrails":9283,"Ġkneeling":9284,"Ġstructures":9285,"Ġnicest":9286,"Pip":9287,"rum":9288,"Ġpouch":9289,"ĠTre":9290,"ĠHo":9291,"Ġplayhouse":9292,"ĠweÃ¢":9293,"ĠNora":9294,"cycles":9295,"ĠChoo":9296,"Ġshyly":9297,"Ġcooperate":9298,"Ġthunderstorm":9299,"Ġglobe":9300,"Excitedly":9301,"ĠHello":9302,"Ġyelp":9303,"oured":9304,"shirt":9305,"ĠOliver":9306,"Linda":9307,"well":9308,"ĠMath":9309,"Ġclaw":9310,"Ġlasers":9311,"ĠPet":9312,"ĠPink":9313,"Ġsweetly":9314,"Ġalongside":9315,"ĠLeah":9316,"ĠBeep":9317,"ĠBruno":9318,"Ġcracker":9319,"Ġkangaroos":9320,"Which":9321,"Ġhundreds":9322,"Ġlullaby":9323,"Fire":9324,"barrow":9325,"use":9326,"reg":9327,"Ġlush":9328,"ili":9329,"onut":9330,"etah":9331,"Ġswapped":9332,"Ġcheetah":9333,"Ġruff":9334,"ĠAfterwards":9335,"Ġacts":9336,"Ġwheelbarrow":9337,"Ġcherished":9338,"Ġdaily":9339,"Danger":9340,"cat":9341,"how":9342,"under":9343,"Ġwhipped":9344,"ĠMa":9345,"Ġhollow":9346,"Ġthrill":9347,"Ġmeaning":9348,"colored":9349,"Ġimproving":9350,"Ġlumberjack":9351,"Ġallowance":9352,"Ġcoconut":9353,"Baa":9354,"aron":9355,"Ġwhoosh":9356,"ĠFifi":9357,"Ġtale":9358,"ĠAnnabelle":9359,"ÅĵThanks":9360,"Ġfishy":9361,"Ġbowing":9362,"Everything":9363,"Ġnets":9364,"Ġbumping":9365,"Ġrubbish":9366,"Ġseasons":9367,"Ġcousins":9368,"reya":9369,"Ġcrafts":9370,"ĠWolf":9371,"Ġallergic":9372,"Ġrebuild":9373,"lish":9374,"Ġtant":9375,"Ġgroom":9376,"ĠAlf":9377,"arefully":9378,"Ġballer":9379,"umper":9380,"ĠNancy":9381,"ĠRich":9382,"Ġsoftened":9383,"ĠExcitedly":9384,"wen":9385,"vering":9386,"Ġboards":9387,"ĠWas":9388,"ĠWilly":9389,"ushes":9390,"Ġbrains":9391,"Ġcompared":9392,"Everyday":9393,"Ġloyalty":9394,"ĠPatches":9395,"People":9396,"Bee":9397,"inny":9398,"ĠheÃ¢":9399,"Ġgummy":9400,"Ġwhir":9401,"ĠLu":9402,"ashes":9403,"ÅĵA":9404,"Ġforeshadow":9405,"Ġmessages":9406,"Ġhatched":9407,"Ġcooled":9408,"Ġguards":9409,"oga":9410,"Ġfrustration":9411,"Ġspeaks":9412,"Ġrowing":9413,"Ġrepeats":9414,"Although":9415,"ĠMona":9416,"Ġembarrassing":9417,"Ġastonished":9418,"Ġtantrum":9419,"\"!":9420,"Milo":9421,"THE":9422,"ĠMamma":9423,"usp":9424,"bbi":9425,"ĠJody":9426,"Ġglisten":9427,"Jackie":9428,"Ġdeeply":9429,"Ġlizards":9430,"Ġharvest":9431,"Ġcoughing":9432,"Ġcurrent":9433,"Ġaroma":9434,"Ġwhine":9435,"Ġpecks":9436,"ĠJoanna":9437,"Ġloudest":9438,"ĠGray":9439,"Ġbushy":9440,"Ġmotorcycles":9441,"ĠdoesnÃ¢":9442,"Ġbanging":9443,"ĠTe":9444,"Ġsoda":9445,"Ġwhirl":9446,"Ġclip":9447,"ĠWoof":9448,"agine":9449,"ĠLife":9450,"aste":9451,"Ġcontinuing":9452,"Ġcrickets":9453,"ĠBunBun":9454,"Ġallowing":9455,"Ġrinse":9456,"Ġdozed":9457,"Jan":9458,"ĠHurry":9459,"gets":9460,"Ġlava":9461,"Ġcreak":9462,"Ġlifegu":9463,"izza":9464,"Ġmayor":9465,"Ġstrokes":9466,"Ġinvitations":9467,"Jenna":9468,"Ġhonks":9469,"Abracadabra":9470,"Ġconcerned":9471,"Ġpounds":9472,"Ġdisagreement":9473,"Ġriddle":9474,"cell":9475,"ĠJasmine":9476,"ĠLots":9477,"Jacky":9478,"Ġdisappearing":9479,"Ġdrying":9480,"Ġ''":9481,"Ġachievement":9482,"Ġsleds":9483,"Ġflashes":9484,"Ġlarger":9485,"ker":9486,"antern":9487,"stantly":9488,"Ġpeak":9489,"othy":9490,"Ġbats":9491,"Ġpoisonous":9492,"Davey":9493,"Ġproperty":9494,"Nick":9495,"gar":9496,"that":9497,"Ġhudd":9498,"Ġgates":9499,"oned":9500,"Ġsobbing":9501,"Ġdolly":9502,"Ġhoses":9503,"Ġskirts":9504,"ĠWeÃ¢":9505,"ĠPaula":9506,"ĠAllie":9507,"Ġlunchtime":9508,"Ġdesper":9509,"Ġreversing":9510,"Ġcaution":9511,"Ġfacts":9512,"Jessica":9513,"Outside":9514,"Ġballerina":9515,"uppy":9516,"Ġwaking":9517,"Ġlil":9518,"ĠHar":9519,"Ġstun":9520,"Ġplo":9521,"Ġhissing":9522,"Ġank":9523,"ĠEver":9524,"ÅĵWelcome":9525,"Ġsooner":9526,"ĠGret":9527,"Ġmessed":9528,"ĠSteven":9529,"Ġincredibly":9530,"Ġcosts":9531,"keepers":9532,"Fortunately":9533,"Slowly":9534,"Try":9535,"Ġsusp":9536,"ĠBelle":9537,"Ġshave":9538,"ighty":9539,"ĠTomorrow":9540,"Ġlever":9541,"Ġbud":9542,"ĠPer":9543,"Ġwrapper":9544,"Ġscoops":9545,"Ġinterrupt":9546,"Ġpleasant":9547,"Ġnarrow":9548,"ĠDuring":9549,"Ġskate":9550,"Ġminding":9551,"Ġfootpr":9552,"Ġchallenges":9553,"ĠOutside":9554,"Ġquarreled":9555,"Ġsoothing":9556,"ĠRosa":9557,"ĠWooly":9558,",'":9559,"mark":9560,"ĠSal":9561,"onest":9562,"ically":9563,"Ġblur":9564,"Ġabsolutely":9565,"ĠDoctor":9566,"Ġtownspe":9567,"Does":9568,"Ġspoiling":9569,"Ġpurring":9570,"ĠFoxy":9571,"Ġrevealing":9572,"Ġpossib":9573,"Ġhooves":9574,"ĠPenelope":9575,"Ġtownspeople":9576,"Luke":9577,"ĠSitting":9578,"ĠFly":9579,"this":9580,"Ġwriter":9581,"Ġfloppy":9582,"Ġprocess":9583,"Ġblooms":9584,"Ġdesks":9585,"Ġrepairing":9586,"Ġknobs":9587,"Ġtrailer":9588,"Ġnibbling":9589,"Ġmooed":9590,"Ġdepart":9591,"Snowy":9592,"umed":9593,"Ġparks":9594,"elling":9595,"aps":9596,"ĠJose":9597,"ÅĵThere":9598,"ĠRatty":9599,"ĠWhatÃ¢":9600,"Spike":9601,"Ġharmony":9602,"Ġwhiskers":9603,"Mo":9604,"Ġfacing":9605,"ĠJoJo":9606,"ĠRiley":9607,"Ġinstin":9608,"ĠThankfully":9609,"Ġadmit":9610,"Ġangrier":9611,"Ġpersistence":9612,"Ġimaginations":9613,"Ġrecommendation":9614,"ĠisnÃ¢":9615,"Ġattempts":9616,"Martha":9617,"ĠFelix":9618,"ĠPinchy":9619,"good":9620,"pan":9621,"rons":9622,"Ġdate":9623,"Ġnations":9624,"Ġnecess":9625,"rap":9626,"Ġoldest":9627,"andel":9628,"ÅĵOK":9629,"Ġheadache":9630,"Ġaprons":9631,"Remy":9632,"Ġhooks":9633,"Ġcomets":9634,"Ġundone":9635,"Ra":9636,"Sunny":9637,"rice":9638,"ĠBuggy":9639,"Ġaloud":9640,"Ġswat":9641,"ĠCould":9642,"Ġcutest":9643,"Ġsteered":9644,"Ġsquirted":9645,"Ġjuiciest":9646,"Ġstirs":9647,"Ġcopied":9648,"Ġcentre":9649,"Ġmesmerised":9650,"Ġsensation":9651,"Ġglistening":9652,"Mother":9653,"Michael":9654,"gress":9655,"Ġwig":9656,"Ġroo":9657,"ĠBa":9658,"ĠMine":9659,"Ġotherwise":9660,"Ġfluff":9661,"Ġtrading":9662,"Ġsnoring":9663,"Ġ--":9664,"Ġbellies":9665,"Ġseriously":9666,"Ġcharged":9667,"Ġalligators":9668,"Ġflooded":9669,"iky":9670,"Ġstains":9671,"Maddie":9672,"Ġlilies":9673,"Ġstalk":9674,"Only":9675,"arky":9676,"Ġroamed":9677,"Ġmovement":9678,"Ġbuilder":9679,"Ġlasted":9680,"Ġcooed":9681,"ĠZiggy":9682,"Ġticking":9683,"Ġcontented":9684,"Ġmaps":9685,"Ġgrandk":9686,"udrey":9687,"ĠSmoke":9688,"Ġshoelaces":9689,"Luna":9690,"Tess":9691,"ĠTree":9692,"urity":9693,"Ġlaces":9694,"Ġopt":9695,"emon":9696,"ĠCook":9697,"Ġdisaster":9698,"Ġbait":9699,"ula":9700,"Ġwinners":9701,"Ġdesperate":9702,"Ġweaker":9703,"Ġfooled":9704,"Ġclubs":9705,"ĠAlbert":9706,"Ġspeaker":9707,"ĠYesterday":9708,"ĠSunshine":9709,"Jump":9710,"Ġcuc":9711,"ĠBooks":9712,"Ġexh":9713,"Ġchamp":9714,"ĠJackÃ¢":9715,"berry":9716,"Ġwinds":9717,"Ġrealise":9718,"imbo":9719,"Ġwoodcut":9720,"Ġpiled":9721,"ĠPeanut":9722,"Ġkayaking":9723,"Ġcalming":9724,"Ġheavily":9725,"Sadie":9726,"Ġpassenger":9727,"ĠWilbur":9728,"book":9729,"cri":9730,"tled":9731,"Ġtill":9732,"Ġdedic":9733,"Ġmashed":9734,"lling":9735,"ĠMoo":9736,"Ġspiky":9737,"Ġhovering":9738,"ÅĵAre":9739,"Ġrocky":9740,"Ġcupboards":9741,"Ġdifferences":9742,"ĠJonathan":9743,"ĠChickie":9744,"Ġlifeguard":9745,"oors":9746,"Ġcig":9747,"anish":9748,"Ġjing":9749,"Ġrobe":9750,"Ġrods":9751,"Ġglanced":9752,"Ġrealizing":9753,"Ġfights":9754,"ĠOff":9755,"ĠChuck":9756,"Ġindoors":9757,"Ġhamster":9758,"Ġfuss":9759,"Ġsneaks":9760,"Ġecho":9761,"Ġnearer":9762,"Ġhuddled":9763,"Tiny":9764,"hh":9765,"hand":9766,"rings":9767,"Ġful":9768,"erts":9769,"omp":9770,"Ġbloss":9771,"Ġhoot":9772,"Ġench":9773,"ĠCathy":9774,"ĠNell":9775,"Ġcarton":9776,"Ġsmoothly":9777,"Ġhangs":9778,"Ġscrunched":9779,"Ġguardian":9780,"Chris":9781,"Ġflavour":9782,"Ġankle":9783,"ĠSky":9784,"Ġstings":9785,"ĠBer":9786,"eline":9787,"Ġdoggie":9788,"Ġcreep":9789,"Ġdesserts":9790,"Ġvolcanoes":9791,"Ġvinegar":9792,"Ġquacks":9793,"Ġtempting":9794,"Ġmagnific":9795,"Ġplopped":9796,"Ġcigaret":9797,"mie":9798,"ĠCandy":9799,"Ġrestoring":9800,"Ġgratefully":9801,"Ġtowns":9802,"ĠOver":9803,"iana":9804,"ĠBruce":9805,"ĠViolet":9806,"Ġsilently":9807,"Ġcharacter":9808,"Ġpecking":9809,"Ġdisobeyed":9810,"Ġdesperately":9811,"?!":9812,"Aw":9813,"pect":9814,"Ġtiring":9815,"ĠHank":9816,"seed":9817,"ĠMila":9818,"ĠMuffin":9819,"Ġscre":9820,"Ġbirdseed":9821,"Ġtrim":9822,"Ġhandy":9823,"acey":9824,"Ġkinder":9825,"ĠColin":9826,"ÅĵWould":9827,"Ġconfus":9828,"ĠGabby":9829,"Ġwarmest":9830,"ĠOscar":9831,"Ġzookeepers":9832,"Ġoceans":9833,"Ġhippos":9834,"Ġsqueal":9835,"Isn":9836,"Ġstroller":9837,"ssssssss":9838,"ĠOtherwise":9839,"Ġyummiest":9840,"Ġnecessary":9841,"Ġconfusion":9842,"Dolly":9843,"bed":9844,"Ġsinking":9845,"Ġpurch":9846,"sey":9847,"ĠmanÃ¢":9848,"Ġhost":9849,"Ġoverfl":9850,"Ġfoggy":9851,"Ġwoken":9852,"Ġbathed":9853,"Ġkissing":9854,"Ġlaws":9855,"Ġperformers":9856,"Ġordering":9857,"Ġbeeping":9858,"Ġsleigh":9859,"Ġvests":9860,"Ġmusicians":9861,"Ġvalleys":9862,"Ġrinsed":9863,"Playing":9864,"Ġgrandkids":9865,"Mick":9866,"Sophia":9867,"mers":9868,"inner":9869,"ĠJelly":9870,"Ġcluck":9871,"ifer":9872,"uster":9873,"ĠPiggy":9874,"Ġcompromise":9875,"Ġcloths":9876,"Ġescap":9877,"Ġcapture":9878,"Ġenerg":9879,"ĠWhich":9880,"Ġrotted":9881,"Ġautomobiles":9882,"ĠPlay":9883,"Ġinstincts":9884,"Ġexhib":9885,"Simon":9886,"Ġhips":9887,"cker":9888,"Ġcarn":9889,"ĠDay":9890,"Ġpose":9891,"ĠFish":9892,"Ġpeels":9893,"Ġglared":9894,"ĠGinger":9895,"Ġsecurity":9896,"Ġearrings":9897,"Ġfolds":9898,"Ġfloaty":9899,"Ġscrubbing":9900,"Ġdepths":9901,"ylan":9902,"Ġmagnificent":9903,"Mina":9904,"Ġfries":9905,"Ġblamed":9906,"ĠDot":9907,"Ġgrump":9908,"ĠChew":9909,"Ġelders":9910,"Ġbeaks":9911,"Ġregularly":9912,"Ġunlocking":9913,"Ġchallenged":9914,"Along":9915,"ĠMartin":9916,"Ġshinier":9917,"ĠFreya":9918,"Ġgreatest":9919,"ĠNate":9920,"Ġsoftness":9921,"Ġanten":9922,"Ġpeacefulness":9923,"ĠhadnÃ¢":9924,"Ġappearance":9925,"Ġgulped":9926,"Ġfootprints":9927,"Ġpossibilities":9928,"Ġwoodcutter":9929,"Â©":9930,"Ġtheat":9931,"ĠTra":9932,"Ġnudged":9933,"ĠHi":9934,"Ġdoves":9935,"aper":9936,"Ġracer":9937,"osure":9938,"Ġencl":9939,"Ġdusted":9940,"Ġstacking":9941,"Ġchains":9942,"Ġpeeks":9943,"ĠSkip":9944,"Coco":9945,"ĠHopper":9946,"Bless":9947,"Ooh":9948,"rit":9949,"Ġwrench":9950,"ĠSandra":9951,"elve":9952,"Ġboiled":9953,"Ġarmy":9954,"Ġkeen":9955,"ĠAndrew":9956,"Ġhunger":9957,"ĠKen":9958,"Ġpresence":9959,"Todd":9960,"Ġpriv":9961,"Ġsniffled":9962,"Ġshortcut":9963,"Jazz":9964,"gre":9965,"Ġfif":9966,"Ġscut":9967,"Ġfail":9968,"ItÃ¢":9969,"ĠRusty":9970,"Ġdrill":9971,"ĠSte":9972,"Ġhandleb":9973,"creams":9974,"Ġpraise":9975,"Without":9976,"Ġrisky":9977,"Ġchooses":9978,"Ġgooey":9979,"ĠClean":9980,"Ġgalloped":9981,"Ġcarnival":9982,"Janie":9983,"Lucky":9984,"form":9985,"ĠTell":9986,"ĠThings":9987,"Ġgorge":9988,"ĠLy":9989,"Ġhandles":9990,"ĠGemma":9991,"Ġgladly":9992,"Ġcoop":9993,"Ġunfold":9994,"Ġoccasions":9995,"Ġuncovered":9996,"Ġtheatre":9997,"Ġenclosure":9998,"Ġgorgeous":9999,"Bird":10000,"June":10001,"site":10002,"Ġlur":10003,"Ġric":10004,"Ġplumber":10005,"Ġbooth":10006,"illas":10007,"ĠApp":10008,"ics":10009,"icking":10010,"epe":10011,"Ġchili":10012,"Ġdripped":10013,"ĠGracie":10014,"Ġjourneys":10015,"Ġtongues":10016,"Ġsnuggling":10017,"ongratulations":10018,"ĠChess":10019,"Ġbundle":10020,"aith":10021,"why":10022,"Ġmur":10023,"iments":10024,"orse":10025,"Ġshaky":10026,"ality":10027,"Ġknit":10028,"Ġuntangle":10029,"ĠPa":10030,"Ġmacar":10031,"Ġenjoys":10032,"Ġperfor":10033,"Ġbuilders":10034,"Ġcompleting":10035,"Ġmacaroni":10036,"Cra":10037,"Mel":10038,"eor":10039,"Ġwhines":10040,"Ġhovered":10041,"Ġthrone":10042,"Ġbabys":10043,"Ġmats":10044,"Ġtents":10045,"Ġfiles":10046,"Ġguesses":10047,"ĠOrange":10048,"Ġrags":10049,"Ġwidely":10050,"Ġfashionable":10051,"Ġconfidently":10052,"cloth":10053,"Abbie":10054,"Im":10055,"Years":10056,"she":10057,"ĠToo":10058,"Ġsax":10059,"ĠMighty":10060,"Ġrea":10061,"urrender":10062,"ĠEr":10063,"Ġcarefree":10064,"ĠGirl":10065,"ĠNurse":10066,"Johny":10067,"ĠThrough":10068,"ĠJennie":10069,"ĠBrad":10070,"Ġhalfway":10071,"Ġstacks":10072,"ĠAlan":10073,"Ġladybird":10074,"Ġprojects":10075,"Frankie":10076,"Ġhorrible":10077,"Ġbabysitter":10078,"aving":10079,"ya":10080,"Ġdumb":10081,"orious":10082,"irty":10083,"Ġatmo":10084,"sphere":10085,"Ġphones":10086,"Ġtanks":10087,"Ġpanting":10088,"Ġinformation":10089,"Ġintroducing":10090,"Ġcommunity":10091,"Ġactors":10092,"Ġatmosphere":10093,"Guess":10094,"Ġscience":10095,"Ġages":10096,"ellow":10097,"asy":10098,"ĠFortunately":10099,"urtle":10100,"ĠPaw":10101,"Ġunz":10102,"Ġlonel":10103,"Ġinvol":10104,"ogo":10105,"hnnie":10106,"Ġsuggests":10107,"Ġtrunks":10108,"Ġloads":10109,"Ġmushy":10110,"Ġscratchy":10111,"Ġpearls":10112,"Ġdeserves":10113,"ĠJoanne":10114,"Ġdamp":10115,"Ġhamb":10116,"ĠMaisie":10117,"Ġdeciding":10118,"ousel":10119,"Ġprogress":10120,"Ġcaps":10121,"Ġreflect":10122,"ooray":10123,"ĠRainbow":10124,"Ġdepartment":10125,"Ġhambur":10126,"Laura":10127,"Nut":10128,"Ġfences":10129,"Ġinno":10130,"Ġass":10131,"ĠWow":10132,"Ġoverhe":10133,"Ġsoftest":10134,"Ġmissiles":10135,"Ġfreely":10136,"striches":10137,"Ġgorillas":10138,"Ġurging":10139,"Ġpads":10140,"Sleep":10141,"Ġaid":10142,"Ġwax":10143,"Ġwanna":10144,"Ġniece":10145,"Ġhalves":10146,"ala":10147,"Ġbolt":10148,"Ġsparrow":10149,"Ġcode":10150,"ĠDoug":10151,"usy":10152,"Ġpollen":10153,"Ġtwitched":10154,"ĠRita":10155,"earl":10156,"Ġfrightening":10157,"Ġhelicopters":10158,"ambi":10159,"Ġroute":10160,"Ġblessed":10161,"Right":10162,"bly":10163,"idi":10164,"Ġribbit":10165,"Ġstate":10166,"Ġshh":10167,"Ġwhizz":10168,"ĠAvery":10169,"Ġcarousel":10170,"Ġtwelve":10171,"Ġsunb":10172,"ĠCarefully":10173,"ÅĵMummy":10174,"Ġrightful":10175,"Ġlightly":10176,"ĠKids":10177,"ĠKyle":10178,"Ġmustn":10179,"Ġsmoother":10180,"Ġlunchbox":10181,"Ġowls":10182,"Ġorganised":10183,"ĠBea":10184,"Ġstriking":10185,"Ġstomachs":10186,"Ġsolutions":10187,"Ġswirling":10188,"Ġdetect":10189,"Carl":10190,"Sweet":10191,"ders":10192,"kind":10193,"tto":10194,"umn":10195,"Ġswoop":10196,"Ġgradually":10197,"Ġlearner":10198,"Ġskips":10199,"Ġoffers":10200,"âĤ¬âĦ¢.":10201,"ĠNature":10202,"Ġproved":10203,"Ġfans":10204,"Ġborrowing":10205,"Ġdesigner":10206,"Ġjogger":10207,"Ġsends":10208,"Ġtaps":10209,"Ġsleeve":10210,"Ġmassages":10211,"ĠStanley":10212,"bs":10213,"ost":10214,"sa":10215,"Ġtumbling":10216,"Ġsuck":10217,"Ġlen":10218,"Ġlantern":10219,"isible":10220,"atform":10221,"ĠSummer":10222,"Ġplatform":10223,"Ġgod":10224,"Ġleaped":10225,"ĠCow":10226,"ĠGwen":10227,"Ġdrip":10228,"Dog":10229,"Ġinvisible":10230,"Everybody":10231,"ĠBlack":10232,"Ġfiercely":10233,"Ġfreshly":10234,"Ġspringing":10235,"ĠYoga":10236,"Ġsquawk":10237,"Ġleng":10238,"ridge":10239,"Ġmound":10240,"Ġmend":10241,"ĠMs":10242,"ĠJeremy":10243,"Ġroyal":10244,"ĠboyÃ¢":10245,"Ġshowers":10246,"ÅĵGo":10247,"ÅĵWill":10248,"Ġpainful":10249,"Ġweights":10250,"ĠJanet":10251,"Ġamongst":10252,"Ġsnowflake":10253,"ĠLibby":10254,"Ġbounded":10255,"Ġchampion":10256,"OO":10257,"hanie":10258,"of":10259,"zing":10260,"Ġdandel":10261,"ĠWisdom":10262,"ssy":10263,"ĠJosie":10264,"Ġlighting":10265,"Ġsquirmed":10266,"Ġfeathered":10267,"aitlyn":10268,"Ġtutu":10269,"Ġattaching":10270,"ĠCatty":10271,"Ġpounding":10272,"Pam":10273,"Sc":10274,"dream":10275,"Ġpairs":10276,"aye":10277,"Ġyuck":10278,"ĠMac":10279,"Ġparking":10280,"Ġlakes":10281,"Ġslurp":10282,"orth":10283,"ĠNicky":10284,"Ġcrushed":10285,"Ġtightened":10286,"Ġpolka":10287,"Ġdescri":10288,"Ġdives":10289,"Ġcrispy":10290,"can":10291,"ĠToys":10292,"ĠBar":10293,"ĠMinnie":10294,"izab":10295,"Ġuntangled":10296,"Ġbrightened":10297,"Ġsweetness":10298,"Ġhatch":10299,"Ġwoodpe":10300,"Ġcaf":10301,"ĠOpen":10302,"Startled":10303,"Ġaddition":10304,"Ġcroak":10305,"Ġcampsite":10306,"Ġfarthest":10307,"Ġheights":10308,"Friends":10309,"Ġchattered":10310,"Ġclutched":10311,"Ġpopsicle":10312,"Ġdedication":10313,"Ġexhibit":10314,"izabeth":10315,"Ribbit":10316,"aly":10317,"working":10318,"ils":10319,"ooh":10320,"Ġstinky":10321,"riet":10322,"ical":10323,"Ġscores":10324,"Ġblame":10325,"ĠCars":10326,"Ġgliding":10327,"ĠPast":10328,"Ġreality":10329,"Ġvol":10330,"Ġhates":10331,"apple":10332,"Ġpetal":10333,"Ġguided":10334,"Ġwhether":10335,"ĠGold":10336,"Ġsells":10337,"Ġobediently":10338,"Ġthreads":10339,"Ġmajestic":10340,"Chirpy":10341,"cellent":10342,"Ġenchanted":10343,"'.\"":10344,"Rain":10345,"inting":10346,"ĠDuke":10347,"ĠFind":10348,"ÅĵWait":10349,"Ġroller":10350,"ĠFlutter":10351,"Ġspeck":10352,"Ġdustpan":10353,"Ġdisplaying":10354,"Ġlawyers":10355,".'\"":10356,"ĠGrumpy":10357,"Ġdumped":10358,"ĠLightning":10359,"NG":10360,"bel":10361,"fived":10362,"tured":10363,"udge":10364,"ingly":10365,"ĠSa":10366,"Ġrink":10367,"Ġdaydream":10368,"Ġashes":10369,"Ġgruff":10370,"Ġslight":10371,"Ġbrakes":10372,"Ġtastiest":10373,"Ġboarded":10374,"Ġstretchy":10375,"ĠRobin":10376,"Ġdisagreeing":10377,"Ġtotally":10378,"Ġsaxophone":10379,"Make":10380,"Sn":10381,"Silly":10382,"field":10383,"look":10384,"mate":10385,"Ġ9":10386,"onfused":10387,"Ġstained":10388,"Ġspice":10389,"Ġexist":10390,"ousand":10391,"ĠCro":10392,"ĠRes":10393,"Samantha":10394,"Ġantlers":10395,"Ġfurious":10396,"Ġenthusiastically":10397,"Ġexercising":10398,"Ġscrape":10399,"Ġwinks":10400,"Ġdodging":10401,"Ġsoul":10402,"Ġpossession":10403,"Ġcomplimented":10404,"Ġscowled":10405,"Ġfunniest":10406,"Ġhandlebars":10407,"Ġreaction":10408,"Ana":10409,"Enjoy":10410,"che":10411,"pey":10412,"wing":10413,"Ġspied":10414,"Three":10415,"ThatÃ¢":10416,"Ġcontained":10417,"Ġdroop":10418,"Ġarmor":10419,"ĠUse":10420,"Finn":10421,"Ġsuspicious":10422,"away":10423,"okay":10424,"heee":10425,"Ġsizz":10426,"Ġonline":10427,"Ġlif":10428,"Ġjaws":10429,"Ġscree":10430,"ĠWise":10431,"inema":10432,"ĠJodie":10433,"Ġaccess":10434,"Ġsignal":10435,"Ġservice":10436,"ĠChicky":10437,"Ġtwirls":10438,"Ġcontents":10439,"Ġmischief":10440,"Amelia":10441,"rrrrrrrrrrrrrrrr":10442,"Ġconsiderate":10443,"Ġwoodpecker":10444,"El":10445,"Els":10446,"res":10447,"Ġdips":10448,"Ġthirty":10449,"ĠBiggie":10450,"ĠJump":10451,"arning":10452,"ĠPanda":10453,"ĠRia":10454,"eading":10455,"Ġcaves":10456,"Ġpudding":10457,"Ġtoothp":10458,"Ġporridge":10459,"Dr":10460,"Kiki":10461,"sorry":10462,"wood":10463,"Ġhind":10464,"Ġhuff":10465,"ĠTurtle":10466,"ĠFeeling":10467,"Ġtales":10468,"ÅĵJohn":10469,"Ġremo":10470,"ĠPuppy":10471,"Ġhideout":10472,"Ġwinking":10473,"Ġhorror":10474,"Ġcompeting":10475,"Ġcalf":10476,"Something":10477,"Ġsuitcases":10478,"clock":10479,"Ġcorrect":10480,"Gus":10481,"Ġtend":10482,"Ġhoof":10483,"Ġcinema":10484,"ĠSinging":10485,"Ġthousand":10486,"ĠBambi":10487,"Ġforwards":10488,"ĠWant":10489,"Ġlaunch":10490,"Ġhomeless":10491,"ÅĵMe":10492,"Ġglimmer":10493,"Ġstormy":10494,"ĠLucyÃ¢":10495,"Ġsnowing":10496,"Ġrespecting":10497,"Ġdelightful":10498,"Ġguitars":10499,"Ġhammering":10500,"Ġavoided":10501,"Ġspirits":10502,"Ġpalms":10503,"ĠCheese":10504,"Jonny":10505,"Ġoverheard":10506,"Ice":10507,"believe":10508,"Ġpace":10509,"Ġrumbled":10510,"ĠbirdÃ¢":10511,"Ġaband":10512,"usic":10513,"ĠCuddles":10514,"ĠPark":10515,"Ġsquish":10516,"Ġtripping":10517,"Ġcruel":10518,"Ġclothing":10519,"colate":10520,"Ġfanc":10521,"Ġsupermark":10522,"ĠRoar":10523,"Ġ20":10524,"uttered":10525,"ĠGreta":10526,"Ġrooster":10527,"Ġloneliness":10528,"Li":10529,"hill":10530,"Ġostriches":10531,"isbee":10532,"Ġshots":10533,"ĠMir":10534,"ĠAudrey":10535,"ĠEating":10536,"ĠDee":10537,"ĠFaith":10538,"ildren":10539,"urple":10540,"ĠCher":10541,"Ġlistener":10542,"Ġfarms":10543,"Ġsettling":10544,"Ġswirled":10545,"ĠSqueak":10546,"Ġmanaging":10547,"Ġtingle":10548,"Ġunload":10549,"Ġdarted":10550,"Rabbit":10551,"Ġsupermarket":10552,"Pipp":10553,"arled":10554,"Ġgle":10555,"Ġshimmered":10556,"Ġreck":10557,"Ġseeking":10558,"Ġraked":10559,"Ġdining":10560,"ĠKenny":10561,"Ġbuckles":10562,"Ġsickness":10563,"Ġpancake":10564,"Ġexams":10565,"Ġvalues":10566,"Ġentering":10567,"Ġcommotion":10568,"ĠFriendship":10569,"ĠMelody":10570,"fer":10571,"Ġlumpy":10572,"Ġpals":10573,"Ġhare":10574,"Ġstiff":10575,"Ġloos":10576,"Ġconstr":10577,"Ġunst":10578,"Ġappears":10579,"Ġnightstand":10580,"ĠThumper":10581,"Ġbuys":10582,"Ġpotty":10583,"Ġobl":10584,"Ġrider":10585,"Ġsneaking":10586,"aids":10587,"Ġwrecked":10588,"Ġexplode":10589,"ĠWiggly":10590,"ĠDragon":10591,"Ġlurking":10592,"Nutty":10593,"Ġreckless":10594,"Santa":10595,"Zip":10596,"Ġnug":10597,"ann":10598,"Ġassist":10599,"ĠJam":10600,"Momo":10601,"ÅĵC":10602,"Ġraises":10603,"ĠPop":10604,"Ġdisappears":10605,"Ġbatch":10606,"Ġhoneycom":10607,"Ġmeets":10608,"Ġsolid":10609,"Ġpriest":10610,"Ġcurves":10611,"Ġsupplying":10612,"Should":10613,"Ġtoppings":10614,"Ġenergized":10615,"Ġlength":10616,"Ever":10617,"Fiona":10618,"Ruth":10619,"pie":10620,"Ġtroll":10621,"ilar":10622,"Ġplank":10623,"ĠBree":10624,"icated":10625,"Ġbackward":10626,"ĠSpanish":10627,"Ġjoyous":10628,"Ġmustaches":10629,"ĠOstrich":10630,"ĠChar":10631,"Ġawa":10632,"Ġyawns":10633,"Ġsubject":10634,"ĠJanice":10635,"Ġwebs":10636,"Ġthreatened":10637,"Ġservants":10638,"Ġripples":10639,"Ġinjuries":10640,"Move":10641,"Zara":10642,"fess":10643,"ilk":10644,"ĠBuster":10645,"Ġprison":10646,"ĠEve":10647,"ÅĵHere":10648,"ĠPee":10649,"imba":10650,"ĠGen":10651,"Ġowning":10652,"shop":10653,"Ġwrappers":10654,"Ġglows":10655,"ĠMarley":10656,"Sharing":10657,"Ġshooed":10658,"ĠJennifer":10659,"Robby":10660,"Sir":10661,"lock":10662,"Ġogre":10663,"Ġatop":10664,"Ġblob":10665,"ĠDel":10666,"Ġaback":10667,"Ġtrad":10668,"ateful":10669,"Ġunkind":10670,"ĠRun":10671,"Ġmusical":10672,"Stella":10673,"Ġcarts":10674,"Ġspeedy":10675,"Ġdisgusted":10676,"Ġvacu":10677,"asper":10678,"Ġreassuring":10679,"ydia":10680,"Ġembrace":10681,"ĠLucas":10682,"Ġpurchase":10683,"Ang":10684,"Gabby":10685,"Larry":10686,"Rock":10687,"Wendy":10688,"Ġwicked":10689,"ĠSil":10690,"ĠAf":10691,"eller":10692,"Ġgrasp":10693,"Ġslot":10694,"Ġruled":10695,"Ġmarvel":10696,"upert":10697,"ĠOtto":10698,"Ġdiv":10699,"Becky":10700,"Ġpinec":10701,"Ġstreams":10702,"Ġstreaming":10703,"Ġresisting":10704,"ĠCopper":10705,"Ġunicorns":10706,"Ġventure":10707,"ĠMonster":10708,"Ġdevast":10709,"Got":10710,"Squ":10711,"iet":10712,"rem":10713,"itam":10714,"aya":10715,"Ġbegs":10716,"Ġplow":10717,"Ġneighed":10718,"ryst":10719,"Ġpoles":10720,"umph":10721,"ĠPearl":10722,"Ġcooks":10723,"Ġducklings":10724,"Ġpractising":10725,"Emmy":10726,"Ġsucceeding":10727,"Ġstudio":10728,"Ġbegun":10729,"Robert":10730,"Ġreappear":10731,"Ġsquawked":10732,"ĠWilma":10733,"Ġescaping":10734,"Ryan":10735,"saw":10736,"Ġtink":10737,"lled":10738,"ĠWorking":10739,"ĠEat":10740,"Ġadop":10741,"Ġwobbles":10742,"Ġconfu":10743,"Ġappet":10744,"hocolate":10745,"Ġfolders":10746,"Ġcooper":10747,"Ġislands":10748,"ĠShadow":10749,"Ġzigzags":10750,"ĠPrune":10751,"Marie":10752,"Patty":10753,"Ġruffled":10754,"Ġfifty":10755,"Ġdevastated":10756,"dest":10757,"dog":10758,"Ġpy":10759,"ĠTurn":10760,"lle":10761,"Ġshuff":10762,"ĠMic":10763,"Butter":10764,"Ġsnarled":10765,"Ġhurtful":10766,"ĠRani":10767,"ĠInstantly":10768,"Ġcompare":10769,"Ġprefer":10770,"Ġpassion":10771,"Ġnestled":10772,"Ġpatients":10773,"Ġcontentment":10774,"Ġerasers":10775,"Ġgrinning":10776,"ĠRaven":10777,"Ġstares":10778,"ĠYellow":10779,"Ġantenna":10780,"Ġabandoned":10781,"Ġnuggets":10782,"Hooray":10783,"Mila":10784,"Turn":10785,"appy":10786,"reet":10787,"Ġnin":10788,"Ġvitam":10789,"Ġgrumble":10790,"Ġanyways":10791,"Ġanybody":10792,"Ġskating":10793,"ully":10794,"ÅĵRemember":10795,"ĠThunder":10796,"ĠKat":10797,"ggie":10798,"Ġstretcher":10799,"Seeing":10800,"rica":10801,"Ġleopards":10802,"Ġpineapple":10803,"Ġrustle":10804,"ĠSundays":10805,"ĠPingu":10806,"hi":10807,"phew":10808,"Ġlimp":10809,"Ġnephew":10810,"Ġknitting":10811,"ously":10812,"Ġquizz":10813,"Ġgardening":10814,"Ġracers":10815,"ĠGogo":10816,"Ġhairs":10817,"JohnÃ¢":10818,"Ġmisty":10819,"Whoa":10820,"Ġindependence":10821,"Ġtours":10822,"Ġlovingly":10823,"Ġleaping":10824,"Ġtargets":10825,"Ġstomping":10826,"ĠCleaning":10827,"Katy":10828,"Sm":10829,"nings":10830,"Ġsim":10831,"Ġwitches":10832,"aylor":10833,"ooked":10834,"Ġris":10835,"Ġsoggy":10836,"Ġshame":10837,"Ġscaly":10838,"Ġvast":10839,"Ġsuns":10840,"Ġsnip":10841,"Ġmotions":10842,"Ġchewy":10843,"ĠFran":10844,"ĠClub":10845,"ĠClose":10846,"Ġevents":10847,"ĠAmi":10848,"Abi":10849,"Ġproduc":10850,"Ġjuggle":10851,"Ġdouble":10852,"ĠCookies":10853,"ĠBernie":10854,"Mae":10855,"Poor":10856,"ki":10857,"mony":10858,"Ġpec":10859,"Ġstitched":10860,"ĠsheÃ¢":10861,"ĠBoom":10862,"istened":10863,"Ġdevice":10864,"Ġworkshop":10865,"ĠSarahÃ¢":10866,"Ġsund":10867,"ĠBees":10868,"Ġscolding":10869,"Ġresour":10870,"ĠIsla":10871,"ĠLouie":10872,"Ġraincoats":10873,"Ġtucks":10874,"ĠAnytime":10875,"ĠJoseph":10876,"Eva":10877,"More":10878,"tling":10879,"Ġsite":10880,"Ġtone":10881,"Ġbudd":10882,"Ġpoop":10883,"orty":10884,"ami":10885,"ential":10886,"Ġgloom":10887,"Ġcul":10888,"Ġmagpie":10889,"ĠReading":10890,"Ġattendant":10891,"ĠOld":10892,"ĠJustin":10893,"Ġpedalled":10894,"Ġchirps":10895,"Roger":10896,"ĠCarrie":10897,"smart":10898,"Ġtingling":10899,"Granny":10900,"Ġslightly":10901,"Ġhoneycomb":10902,"Ġbuddies":10903,"Confused":10904,"Ġray":10905,"Ġdodge":10906,"icia":10907,"Ġclips":10908,"ousy":10909,"Ġhowl":10910,"Ġchees":10911,"Ġglistened":10912,"ĠGoose":10913,"Ġdesce":10914,"ertie":10915,"Mumma":10916,"Ġstriped":10917,"Ġceremony":10918,"Ġautumn":10919,"Ġwiggles":10920,"Ġbleeds":10921,"Daniel":10922,"Ġsaddle":10923,"Ġpossessions":10924,"Ġtoothpaste":10925,"rystal":10926,"Fly":10927,"Ġwil":10928,"alia":10929,"ĠMag":10930,"Ġreel":10931,"Ġboast":10932,"areful":10933,"Ġgrains":10934,"Ġgranny":10935,"Nobody":10936,"Ġfixer":10937,"ĠKai":10938,"Ġpastor":10939,"Ġdialed":10940,"ĠBirds":10941,"ĠJuice":10942,"ĠElizabeth":10943,"Ġrefusing":10944,"Ġwriggling":10945,"Ġscientists":10946,"Ġundo":10947,"Ġexchanged":10948,"Ġinterrupted":10949,"Ġculture":10950,"Splash":10951,"Ġpave":10952,"Ġoars":10953,"ĠHug":10954,"Ġriches":10955,"alter":10956,"Ġsevent":10957,"Ġclover":10958,"Ġpickles":10959,"Ġkindest":10960,"ĠPuddles":10961,"Ġproceed":10962,"ĠFlash":10963,"Ġpersu":10964,"Ġimagin":10965,"Ġadmitted":10966,"Ġladders":10967,"Ġchicks":10968,"sery":10969,"Ġharmful":10970,"ĠWherever":10971,"ĠAlexa":10972,"Ġsurrounding":10973,"Ġapproval":10974,"Rover":10975,"smelling":10976,"ĠSwim":10977,"Ġinvention":10978,"ĠCrusty":10979,"Ġquizzes":10980,"Ar":10981,"Wake":10982,"ibbles":10983,"Ġfare":10984,"ada":10985,"Ġsmash":10986,"arer":10987,"ĠDylan":10988,"Ġthoughtfully":10989,"Ġdeck":10990,"issy":10991,"uliar":10992,"Ġpatting":10993,"Ġjeans":10994,"Ġmixes":10995,"Ġprotector":10996,"ĠBlink":10997,"Ġmoderation":10998,"Ġlectures":10999,"Ġscooping":11000,"Ġdefend":11001,"Trust":11002,"Ġsurprisingly":11003,"ĠBrave":11004,"Ġpeculiar":11005,"Ġpavement":11006,"'?\"":11007,"Kelly":11008,"Ne":11009,"Ġlens":11010,"isher":11011,"ĠSurpr":11012,"Ġjigg":11013,"Ġclucked":11014,"Ġcha":11015,"Ġgrumbling":11016,"ĠFaye":11017,"imals":11018,"ĠJohny":11019,"Ġjumper":11020,"ĠGreg":11021,"ĠRel":11022,"Ġperse":11023,"Ġdrople":11024,"Ġprofess":11025,"Ġthinner":11026,"ĠStu":11027,"Ġpayoff":11028,"Ġsupportive":11029,"Ġbarrels":11030,"Ġseparating":11031,"Ġequally":11032,"ĠMeanwhile":11033,"Ġsnuggles":11034,"ĠJules":11035,"ealing":11036,"Ġarrange":11037,"ĠStripey":11038,"Ġunloaded":11039,"Ġjuggling":11040,"ĠStephanie":11041,"Ġarrested":11042,"ĠAfrica":11043,"Gigi":11044,"Wheee":11045,"don":11046,"Ġwetter":11047,"Ġmitt":11048,"omers":11049,"Ġrejo":11050,"Ġsomehow":11051,"Ġroam":11052,"Ġcarved":11053,"Ġvoy":11054,"arney":11055,"ÅĵMama":11056,"Ġwond":11057,"ĠPaws":11058,"Ġacrob":11059,"ĠNed":11060,"Ġtriumph":11061,"iversity":11062,"Ġspoken":11063,"ĠStret":11064,"Beware":11065,"Ġcaptured":11066,"Ġaccepting":11067,"Ġunlike":11068,"Ġposters":11069,"Ġstudies":11070,"Ġpraises":11071,"Ġtiara":11072,"new":11073,"Mamma":11074,"aved":11075,"friend":11076,"made":11077,"tock":11078,"vie":11079,"Ġsup":11080,"Ġwit":11081,"cel":11082,"ĠMore":11083,"Ġlobby":11084,"ĠPizza":11085,"Ġfrisbee":11086,"ĠSpirit":11087,"itcher":11088,"Ġdries":11089,"Ġmailing":11090,"Ġhopeless":11091,"Ġcartwhe":11092,"Ġcapes":11093,"Ġskinny":11094,"jamin":11095,"helle":11096,"ĠMatthew":11097,"Ġwrinkly":11098,"Ġnursery":11099,"Ġpuffed":11100,"Ġconcentrated":11101,"ĠPingo":11102,"Ġobstacles":11103,"Ġproceeded":11104,"Magic":11105,"Under":11106,"bec":11107,"ole":11108,"Ġtoad":11109,"Ġpitcher":11110,"ĠSusy":11111,"Ġherd":11112,"Ġrises":11113,"Ġbegging":11114,"ĠWake":11115,"Ġbled":11116,"Ġrunny":11117,"ressed":11118,"Ġadventurers":11119,"acher":11120,"Ġwaitress":11121,"Ġfavorites":11122,"ĠEllen":11123,"Ġmelts":11124,"Ġstrict":11125,"Ġcombing":11126,"Ġhurrying":11127,"hearted":11128,"Shoo":11129,"Ġgrandchildren":11130,"ĠCrab":11131,"Ġquarrelling":11132,"Olive":11133,"Ros":11134,"talk":11135,"Ġsly":11136,"nds":11137,"atted":11138,"ooo":11139,"vey":11140,"Ġnotices":11141,"Ġbobbed":11142,"Ġoutsmart":11143,"Ġcommand":11144,"ÅĵBecause":11145,"Ġimportantly":11146,"Ġperch":11147,"Ġrecipes":11148,"Janey":11149,"ĠNoah":11150,"Ġmeasures":11151,"Ġfriendships":11152,"Ġcombs":11153,"ĠShark":11154,"isingly":11155,"Ġrustled":11156,"Twinkle":11157,"Ġconcentrate":11158,"Bubbles":11159,"ĠRespect":11160,"Ġvoyage":11161,"Buzzy":11162,"Jason":11163,"Phew":11164,"Using":11165,"Ġsomers":11166,"iddy":11167,"atic":11168,"oria":11169,"Ġforty":11170,"Ġforced":11171,"ĠMindy":11172,"Ġscan":11173,"ĠLand":11174,"pled":11175,"Ġdrags":11176,"Sofia":11177,"Ġcutter":11178,"Ġfully":11179,"Ġbarbec":11180,"Ġsprings":11181,"unted":11182,"ustrated":11183,"Ġnumbered":11184,"Ġsurrendering":11185,"Ġpistols":11186,"Shrink":11187,"Ali":11188,"Close":11189,"Ġstrolling":11190,"Ġconnection":11191,"ĠAnything":11192,"ĠNeither":11193,"epeat":11194,"Ġsomersaul":11195,"Ten":11196,"like":11197,"Ġlitter":11198,"ĠMusic":11199,"Ġspades":11200,"Ġabilities":11201,"Ġsnoo":11202,"Ġunp":11203,"Ġquicker":11204,"ĠNia":11205,"ĠRibbit":11206,"Ġinstant":11207,"ĠOak":11208,"Ġbirthdays":11209,"Ġpanicking":11210,"Ġtickly":11211,"ĠMarcus":11212,"Ġcomplicated":11213,"Ġspelling":11214,"ĠCaroline":11215,"Ġsecurely":11216,"Ġconversations":11217,"Ġsculptures":11218,"Ġperformer":11219,"Wo":11220,"Ġbumble":11221,"ute":11222,"ĠBall":11223,"ĠfriendÃ¢":11224,"Ġnewly":11225,"ousers":11226,"ĠDV":11227,"Ġtrudged":11228,"Ġtrousers":11229,"Ġtwitch":11230,"Ġskates":11231,"Ġexplan":11232,"uccess":11233,"Ġsnipped":11234,"Ġadv":11235,"ĠSpider":11236,"ĠRandy":11237,"ĠRory":11238,"Ġfirewood":11239,"Ġpartner":11240,"ĠKind":11241,"Ġempt":11242,"Ġvillain":11243,"Ġdestr":11244,"Ġcracking":11245,"ĠWhite":11246,"Ġresumed":11247,"Climb":11248,"Ġmotioned":11249,"Ġsweeping":11250,"Ġscribbled":11251,":\"":11252,"cies":11253,"ior":11254,"rous":11255,"Ġsauc":11256,"Ġrect":11257,"Ġbobbing":11258,"Ġlaz":11259,"Ġchunk":11260,"Åĵyou":11261,"Ġwalkie":11262,"Ġuseless":11263,"ĠNone":11264,"ĠNear":11265,"ĠRoo":11266,"ĠRick":11267,"Ġnightfall":11268,"Ġzippers":11269,"Ġsetup":11270,"iggles":11271,"Ġsmoky":11272,"Ġjourneyed":11273,"Ġextrem":11274,"Ġterribly":11275,"ĠShould":11276,"Ġsneakers":11277,"Ġdelaying":11278,"Ġbangs":11279,"Ġchallenging":11280,"Ġdiscussion":11281,"Ġearthquakes":11282,"ĠSean":11283,"Ġgodmother":11284,"Ġconfusing":11285,"Ġwondrous":11286,"ĠDVD":11287,"Ġextremely":11288,"Ble":11289,"ald":11290,"cr":11291,"cup":11292,"have":11293,"ks":11294,"Ġmower":11295,"ĠTri":11296,"Ġgal":11297,"ĠBillie":11298,"Ġkern":11299,"ĠJes":11300,"ĠLady":11301,"Ġgrain":11302,"ants":11303,"Ġorch":11304,"Ġflowed":11305,"than":11306,"ĠRupert":11307,"Ġbehold":11308,"Ġcollage":11309,"Ġbands":11310,"ĠZigzag":11311,"Ġhammered":11312,"Ġparrots":11313,"ĠshouldnÃ¢":11314,"Ġholidays":11315,"Ġemergencies":11316,"Ġbanks":11317,"Ġstrummed":11318,"Ġforeshadowed":11319,"Tessa":11320,"Ġunfolded":11321,"Ġvitamins":11322,"Amanda":11323,"Har":11324,"La":11325,"Over":11326,"Use":11327,"eves":11328,"gra":11329,"nis":11330,"od":11331,"Ġtang":11332,"iti":11333,"Ġdazz":11334,"idance":11335,"atrice":11336,"ĠSimba":11337,"Ġinched":11338,"ĠIvy":11339,"Ġplun":11340,"ĠBug":11341,"ĠJumpy":11342,"Ġslime":11343,"ÅĵMum":11344,"Ġglimp":11345,"Ġunsc":11346,"Ġdisob":11347,"Ġguilt":11348,"Ġguidance":11349,"Ġgiants":11350,"tiv":11351,"Ġcurls":11352,"Ġsleeves":11353,"Ġflavours":11354,"ĠCarly":11355,"Ġreplacing":11356,"Ġwrists":11357,"Ġblossom":11358,"Ġricher":11359,"ĠcafÃĥ":11360,"Ġappetite":11361,"Ġdroplets":11362,"Ġbarbecue":11363,"Despite":11364,"Sque":11365,"Te":11366,"haps":11367,"Ġpendant":11368,"ĠHippy":11369,"Ġunn":11370,"Ġstump":11371,"Ġouter":11372,"Ġprops":11373,"Ġswitches":11374,"ĠDinner":11375,"ĠFaster":11376,"Ġflyer":11377,"Ġmac":11378,"ĠNorth":11379,"Ġpromising":11380,"Ġtraining":11381,"Ġprotects":11382,"Ġlayer":11383,"Ġcaptiv":11384,"Ġlamps":11385,"Grand":11386,"rays":11387,"Ġsinks":11388,"Ġguarded":11389,"Floppy":11390,"Ġheaviest":11391,"Eww":11392,"Ġslithering":11393,"Ġstunned":11394,"Ġcreepy":11395,"Ġcheesy":11396,"Ġwitness":11397,"Ash":11398,"Ju":11399,"vious":11400,"erris":11401,"ĠToni":11402,"att":11403,"etime":11404,"stop":11405,"ĠBoy":11406,"elsey":11407,"Ġshades":11408,"Ġexcellent":11409,"ĠJimbo":11410,"ĠWr":11411,"ashing":11412,"ÅĵHelp":11413,"asey":11414,"Ġwobbling":11415,"ĠPurple":11416,"Ġwarming":11417,"Ġfixes":11418,"Ġreader":11419,"Ġsprung":11420,"Ġhonor":11421,"ĠZippy":11422,"Ġradi":11423,"Ġlowers":11424,"Ġcursed":11425,"Ġsealed":11426,"Ġshields":11427,"Ġinspected":11428,"solved":11429,"Ġcontentedly":11430,"Ġcigarette":11431,"Ġinnocent":11432,"Ġsubjects":11433,"tons":11434,"Ġgn":11435,"kelly":11436,"Ġplum":11437,"ĠtheyÃ¢":11438,"Ġwhoo":11439,"ĠMousy":11440,"Ġboomed":11441,"ĠAd":11442,"Ġclung":11443,"ĠDina":11444,"Ġtaco":11445,"Ġunh":11446,"Ġsmoothie":11447,"ĠMarcy":11448,"Ġphotog":11449,"Ġyielding":11450,"ĠMissy":11451,"Ġreleasing":11452,"Ġsqueaks":11453,"Ġaisles":11454,"Ġfulfilled":11455,"Ġfarewell":11456,"Blech":11457,"Hel":11458,"Sun":11459,"Zoey":11460,"Ġcords":11461,"Ġoo":11462,"ayed":11463,"idget":11464,"ĠSid":11465,"ĠHipp":11466,"ams":11467,"Ġplayfully":11468,"Ġcarve":11469,"Ġlace":11470,"Ġsung":11471,"ĠCake":11472,"ÅĵStop":11473,"ĠGail":11474,"Ġbrighten":11475,"Ġsquatted":11476,"Ġmornings":11477,"ĠDoing":11478,"Ġsquirt":11479,"Ġpail":11480,"ÅĵIs":11481,"ĠBrother":11482,"Ġgrownups":11483,"Ġcurved":11484,"ĠAlison":11485,"Ġtrails":11486,"ĠVal":11487,"Ġannounce":11488,"Ġsnuggly":11489,"Ġbruise":11490,"Ġcucumbers":11491,"Ġlifetime":11492,"Liam":11493,"Ġexplanation":11494,"Ġorchard":11495,"Eat":11496,"Hope":11497,"Nana":11498,"Sw":11499,"vo":11500,"Ġbould":11501,"Ġgumb":11502,"Ġweed":11503,"ĠAaron":11504,"Ġblush":11505,"Ġclearer":11506,"Ġrais":11507,"Ġgrounded":11508,"Ġfrant":11509,"ĠRoy":11510,"ĠDoll":11511,"Ġcrust":11512,"ĠAsked":11513,"Ġrepairs":11514,"Ġcrosses":11515,"Ġpinches":11516,"Ġclasses":11517,"Ġhammers":11518,"Ġfourth":11519,"Ġcurve":11520,"Ġrecovered":11521,"Ġcables":11522,"Ġapartment":11523,"Ġrequests":11524,"Ġwarns":11525,"ĠMost":11526,"Ġdodges":11527,"Ġhooked":11528,"Ġbiscuits":11529,"Ġscuttled":11530,"Imagine":11531,"Ġdetective":11532,"Ġawaited":11533,"Ġantennae":11534,"Ġgumball":11535,"Brian":11536,"Jay":11537,"giving":11538,"oes":11539,"Ġlately":11540,"ĠTippy":11541,"alling":11542,"althy":11543,"ĠMuch":11544,"ĠJemma":11545,"ĠTomÃ¢":11546,"ĠotherÃ¢":11547,"ĠLo":11548,"Ġgoods":11549,"ĠJolly":11550,"acul":11551,"Ġgreater":11552,"Ġducked":11553,"Ġsicker":11554,"ophies":11555,"ĠZog":11556,"Ġcopies":11557,"Ġbullies":11558,"Ġenvy":11559,"Ġcombined":11560,"ĠCloud":11561,"ĠClimb":11562,"Ġremains":11563,"Ġbending":11564,"Ġtippy":11565,"ĠCarrot":11566,"Ġstems":11567,"ĠScr":11568,"ĠUnderneath":11569,"Frog":11570,"Ġtimidly":11571,"ĠTrees":11572,"Ġoptions":11573,"ĠNellie":11574,"Ġoverflowing":11575,"Ġremoving":11576,"ĠSilver":11577,"Ġdestruction":11578,"?,\"":11579,"Free":11580,"Pinky":11581,"cra":11582,"rant":11583,"welcome":11584,"Ġfading":11585,"anked":11586,"Ġplus":11587,"Ġups":11588,"ĠBarky":11589,"Ġshimmer":11590,"Ġkill":11591,"ĠMill":11592,"Ġsele":11593,"ĠAmen":11594,"Ġcocked":11595,"ĠDizzy":11596,"istory":11597,"Ġkneels":11598,"Ġhowled":11599,"ĠCream":11600,"ĠPup":11601,"ĠGerry":11602,"Ġsquashes":11603,"ĠNibbles":11604,"ĠKaitlyn":11605,"Ġsilk":11606,"Ġjacks":11607,"Ġrattle":11608,"coming":11609,"ĠShall":11610,"gnes":11611,"Ġsteaming":11612,"Mmmm":11613,"Ġexact":11614,"Ġvictorious":11615,"Ġstaircase":11616,"ĠMadeline":11617,"Auntie":11618,"ĠChewy":11619,"Ġsunburn":11620,"Ġconstruction":11621,"Bra":11622,"Ricky":11623,"rope":11624,"tw":11625,"inter":11626,"Ġcities":11627,"Ġdim":11628,"alf":11629,"ĠMiles":11630,"Ġbackground":11631,"Ġdaddies":11632,"Ġhowling":11633,"Ġtrophies":11634,"Ġzig":11635,"Ġsandals":11636,"Ġcoolness":11637,"Ġclothesline":11638,"ottie":11639,"Ġcornfield":11640,"Ġaccidently":11641,"Ġdesire":11642,"Ġbreadcr":11643,"exi":11644,"Ġrecords":11645,"Ġselfishness":11646,"ĠStand":11647,"Ġrarely":11648,"Ġturkeys":11649,"Ġgaining":11650,"ĠTuesdays":11651,"ĠAngie":11652,"Ġmarveling":11653,"Ġlimits":11654,"Ġobstacle":11655,"Ġyelps":11656,"ĠPercy":11657,"Ġstalks":11658,"ĠLynn":11659,"Ġbreadcrumb":11660,"Pen":11661,"ows":11662,"ĠBurt":11663,"Ġliar":11664,"ĠMars":11665,"Ġgobble":11666,"Ġspee":11667,"ume":11668,"Ġbirdies":11669,"Ġblurry":11670,"uses":11671,"ĠFather":11672,"ĠFuzz":11673,"ĠFishy":11674,"Ġcatcher":11675,"Ġtran":11676,"Ġsunk":11677,"berries":11678,"ÅĵJust":11679,"Ġglimmered":11680,"ĠPromise":11681,"Ġdragging":11682,"Ġune":11683,"Ġperked":11684,"eyed":11685,"Ġsplitting":11686,"Ġplacing":11687,"Ġreport":11688,"Ġbalc":11689,"Megan":11690,"Ġstrikes":11691,"Ġclums":11692,"Ġcharity":11693,"ĠPeace":11694,"Ġladybugs":11695,"robes":11696,"Ġhamburger":11697,"Lina":11698,"Ġbins":11699,"Ġcy":11700,"Ġhey":11701,"ĠSlow":11702,"ĠBop":11703,"Ġwhining":11704,"ĠMix":11705,"ĠTimothy":11706,"izmo":11707,"Ġdeeds":11708,"ĠRon":11709,"ĠRuff":11710,"Ġsleepover":11711,"Ġsharpen":11712,"ĠBeatrice":11713,"Ġelder":11714,"Ġstripe":11715,"Ġflashlights":11716,"Ġurges":11717,"Ġfishermen":11718,"Ġstylish":11719,"!'\"":11720,"Ġhurriedly":11721,"ĠAlfie":11722,"Ġmurky":11723,"Ġacrobats":11724,"Ġcaptivated":11725,"Ġboulder":11726,"Ġspeech":11727,"Brrr":11728,"Maisy":11729,"Per":11730,"Paula":11731,"Surrender":11732,"uri":11733,"Ġic":11734,"Ġfired":11735,"itive":11736,"Ġpounce":11737,"aries":11738,"igher":11739,"ecess":11740,"Ġseated":11741,"oodle":11742,"Ġfeared":11743,"uren":11744,"Ġflippers":11745,"ĠFurry":11746,"Ġdonut":11747,"Ġadjust":11748,"Ġbraid":11749,"ÅĵJack":11750,"Ġhardworking":11751,"astian":11752,"ĠGeor":11753,"Ġtiredness":11754,"Ġarrives":11755,"Ġdeepest":11756,"Ġeleven":11757,"Ġpotential":11758,"ĠFluff":11759,"brina":11760,"ebastian":11761,"Ġscrunch":11762,"awk":11763,"Ġpostc":11764,"Ġbeeps":11765,"Ġpadlock":11766,"Ġironing":11767,"ĠHelping":11768,"ĠMatty":11769,"Ġgestures":11770,"Ġembraced":11771,"Ġshuffled":11772,"Ġglimpse":11773,"Ġbalcony":11774,"Jax":11775,"nut":11776,"war":11777,"innam":11778,"Ġfitting":11779,"Ġmid":11780,"ilot":11781,"ĠSpl":11782,"ĠBre":11783,"Ġshaker":11784,"ĠMin":11785,"ĠMara":11786,"Ġouting":11787,"Ġswift":11788,"ĠSamÃ¢":11789,"ĠFore":11790,"umpkin":11791,"Ġquality":11792,"Ġcupped":11793,"ĠPain":11794,"acon":11795,"ĠThough":11796,"Ġcraz":11797,"Ġdriven":11798,"Being":11799,"Ġmotors":11800,"Ġsweating":11801,"Ġanxiously":11802,"Ġviol":11803,"ĠTruck":11804,"Ġwasteful":11805,"Ġcrunching":11806,"ĠwerenÃ¢":11807,"iko":11808,"Ġaffect":11809,"Ġblessing":11810,"Ġblessings":11811,"Ġroasted":11812,"grateful":11813,"Ġdescended":11814,"Ġdisobedient":11815,"Ġunnecess":11816,"innamon":11817,"De":11818,"Judy":11819,"RA":11820,"Ġcinnamon":11821,"ĠSchool":11822,"stack":11823,"unior":11824,"Ġrent":11825,"ĠJet":11826,"Ġcarriage":11827,"asc":11828,"Ġblues":11829,"ĠDora":11830,"Ġbuds":11831,"Ġungrateful":11832,"Ġcrooked":11833,"Ġcreaked":11834,"Ġtightrope":11835,"Ġforgetful":11836,"brushes":11837,"Ġcolouring":11838,"Ġshoreline":11839,"Ġsilky":11840,"ĠDancing":11841,"Ġroofs":11842,"Ġviews":11843,"Ġcarelessly":11844,"ĠSnap":11845,"Ġhungrier":11846,"Ġexperiments":11847,"Children":11848,"Ġpreventing":11849,"Ġteaspoons":11850,"ĠDrop":11851,"Ġnuzzles":11852,"Ġtilts":11853,"Ġclutching":11854,"ĠDebbie":11855,"Ġdoub":11856,"ĠSalt":11857,"Ġinvolved":11858,"Ġdandelion":11859,"ĠCherry":11860,"Ġloosen":11861,"Ġoblig":11862,"Ġfrantically":11863,"Ginger":11864,"Ray":11865,"cip":11866,"gling":11867,"mill":11868,"mary":11869,"shes":11870,"yla":11871,"Ġhyd":11872,"arked":11873,"ilst":11874,"organ":11875,"Ġec":11876,"ĠInt":11877,"Ġforming":11878,"unate":11879,"Ġloser":11880,"icity":11881,"Ġmango":11882,"ĠWillie":11883,"Ġhobby":11884,"Ġmoist":11885,"aken":11886,"Ġadored":11887,"beha":11888,"Ġgrounds":11889,"thur":11890,"Ġsounding":11891,"coloured":11892,"Ġretrie":11893,"Ġdirtier":11894,"Ġprices":11895,"Ġhaystack":11896,"Ġ12":11897,"Ġslams":11898,"ĠScott":11899,"Ġposition":11900,"Ġscreens":11901,"Ġscreech":11902,"Ġemptied":11903,"Ġgalax":11904,"Freeze":11905,"Hoppy":11906,"Love":11907,"hop":11908,"ruck":11909,"via":11910,"Ġah":11911,"Ġwoo":11912,"Ġjay":11913,"Ġoutcome":11914,"Ġspir":11915,"ĠLydia":11916,"Ġhandled":11917,"WhatÃ¢":11918,"Ġframes":11919,"acing":11920,"Looks":11921,"Ġprincip":11922,"ĠKathy":11923,"eena":11924,"ĠBean":11925,"Ġsalads":11926,"Ġreceiving":11927,"Ġscooted":11928,"Ġimpatiently":11929,"ÅĵYour":11930,"Ġremaining":11931,"Ġmastered":11932,"ĠAnimals":11933,"Olivia":11934,"ĠAlfred":11935,"ĠPaige":11936,"Ġchaos":11937,"Ġrejoiced":11938,"Ġunscrew":11939,"Ġbreadcrumbs":11940,"Ġunnecessary":11941,"Ġobliged":11942,"Up":11943,"life":11944,"van":11945,"wow":11946,"Ġbust":11947,"Ġheated":11948,"ĠTaylor":11949,"Ġnanny":11950,"ĠSkelly":11951,"Ġstations":11952,"stret":11953,"ĠBarney":11954,"ĠMust":11955,"Ġspect":11956,"Ġcanes":11957,"ĠWhee":11958,"Ġmoles":11959,"anky":11960,"Ġstrut":11961,"Ġlonged":11962,"ocks":11963,"Shelly":11964,"Ġrelation":11965,"zzly":11966,"Ġpacket":11967,"Ġaflo":11968,"Ġsurfer":11969,"Ġcrows":11970,"ika":11971,"Ġbroomstick":11972,"Ġtiptoes":11973,"Ġlunged":11974,"Ġembarrassment":11975,"Ġunwrap":11976,"Ġfists":11977,"Ġwhirled":11978,"Ġtrimmed":11979,"ĠErnie":11980,"ĠBarb":11981,"Ġvacuum":11982,"Ġimaginative":11983,"Ġecst":11984,"Ġafloat":11985,"BC":11986,"Catch":11987,"EE":11988,"Off":11989,"Say":11990,"Son":11991,"unts":11992,"Ġwasp":11993,"adpo":11994,"ĠLilyÃ¢":11995,"ĠBelieve":11996,"ĠMist":11997,"rain":11998,"Ġsawed":11999,"ĠABC":12000,"Ġchugged":12001,"Ġchances":12002,"istle":12003,"Ġjogs":12004,"Through":12005,"Ġbrag":12006,"Ġtech":12007,"Ġglory":12008,"Ġraw":12009,"Ġrailing":12010,"Ġbedside":12011,"Ġstorybook":12012,"Ġcreaking":12013,"Ġtablecloth":12014,"Ġcleverness":12015,"ĠStealing":12016,"Grab":12017,"Ġunlucky":12018,"ictory":12019,"ĠMarco":12020,"Ġinfection":12021,"Ġdemands":12022,"Ġbills":12023,"ĠIsab":12024,"Ġinspect":12025,"ĠImagine":12026,"Ġsquawking":12027,"Ġstunning":12028,"Ġwhizzed":12029,"Ġaccessories":12030,"Ġretrieved":12031,"Ġprincipal":12032,"Ġecstatic":12033,"11":12034,"Cool":12035,"Careful":12036,"Del":12037,"Kenny":12038,"Liza":12039,"Riley":12040,"rors":12041,"Ġsips":12042,"Ġoink":12043,"armed":12044,"Ġgad":12045,"ĠSon":12046,"ĠHel":12047,"Ġoutstret":12048,"Ġclim":12049,"Ġalb":12050,"ĠLast":12051,"Ġchugging":12052,"Ġbubbled":12053,"ĠCount":12054,"ĠPig":12055,"Ġadventurer":12056,"ĠGu":12057,"ĠJaneÃ¢":12058,"ĠFlappy":12059,"Ġsmoot":12060,"Ġbandaged":12061,"Ġserves":12062,"Ġcabinets":12063,"ĠBubble":12064,"Ġtrumpets":12065,"ibi":12066,"Ġrhythms":12067,"ĠPlus":12068,"Ġprized":12069,"Kevin":12070,"ĠGrandad":12071,"Ġerupted":12072,"Bobbie":12073,"handed":12074,"Ġ911":12075,"Ġexisted":12076,"Ġraisins":12077,"Binky":12078,"Holly":12079,"Luc":12080,"Pick":12081,"Sandra":12082,"Tell":12083,"run":12084,"Ġhint":12085,"Ġdemon":12086,"isapp":12087,"ĠHanna":12088,"lderly":12089,"addy":12090,"ĠMild":12091,"Ġsawing":12092,"ĠWink":12093,"ĠLance":12094,"ĠDown":12095,"ĠdadÃ¢":12096,"ively":12097,"Ġsnore":12098,"Ġsnatch":12099,"venture":12100,"Ġfastened":12101,"Ġglinting":12102,"Ġimpact":12103,"ĠPuff":12104,"Ġunpl":12105,"Ġunison":12106,"Annabelle":12107,"olk":12108,"Ġsprinted":12109,"ĠStr":12110,"Ġsheepish":12111,"Ġsniffling":12112,"Ġpaddles":12113,"Ġsixty":12114,".''":12115,"Ġdetail":12116,"Ġbruised":12117,"Ġelbows":12118,"Ġtossing":12119,"ĠAngela":12120,"Ġfondly":12121,"Mickey":12122,"Ġthousands":12123,"Ġoutstretched":12124,"!,\"":12125,"Congratulations":12126,"OP":12127,"Ring":12128,"Zero":12129,"freeze":12130,"mi":12131,"tes":12132,"Ġtack":12133,"Ġsucked":12134,"Ġdizz":12135,"onk":12136,"ĠHeidi":12137,"Ġrash":12138,"Ġrasp":12139,"Ġstumbling":12140,"ĠBack":12141,"ĠMister":12142,"ĠAda":12143,"ĠWhe":12144,"ĠButtons":12145,"Ġblind":12146,"ĠDawn":12147,"ĠDeer":12148,"Ġendless":12149,"ĠCass":12150,"ÅĵDaddy":12151,"Ġglide":12152,"three":12153,"Ġmums":12154,"Ġcutters":12155,"Ġtastier":12156,"ĠJohnÃ¢":12157,"Ġsmarts":12158,"Ġfingert":12159,"Stan":12160,"Behind":12161,"ĠZipper":12162,"ĠBright":12163,"Ġwands":12164,"ĠMarc":12165,"Ġattracted":12166,"ĠClar":12167,"ĠClare":12168,"Ġsprinkling":12169,"Ġstruggles":12170,"ĠMole":12171,"Ġgrandparent":12172,"Ġconquer":12173,"Mona":12174,"ssssssssssssssss":12175,"Ġgleaming":12176,"Ġsuperp":12177,"ĠKindness":12178,"ĠHippo":12179,"ĠMustache":12180,"Avery":12181,"Er":12182,"Found":12183,"Fido":12184,"Hoot":12185,"tails":12186,"Ġtending":12187,"rer":12188,"Ġmain":12189,"Ġpang":12190,"Ġhalo":12191,"ĠBan":12192,"ĠBel":12193,"ĠBiscuit":12194,"ĠMilk":12195,"Ġlooped":12196,"Ġclamber":12197,"Ġrosy":12198,"Ġflakes":12199,"Ġchann":12200,"Ġfoss":12201,"ĠJohnnie":12202,"beying":12203,"ĠGia":12204,"ĠGertie":12205,"Ġcrashes":12206,"Ġcrumble":12207,"Ġmessing":12208,"Ġmessier":12209,"Ġfairly":12210,"Ġpassage":12211,"hoe":12212,"Ġmotorb":12213,"Ġrecordings":12214,"Ġcroaking":12215,"ĠMarg":12216,"Ġnotebooks":12217,"Ġvendors":12218,"Ġincludes":12219,"ĠGradually":12220,"Ġhiked":12221,"Rufus":12222,"ĠStripes":12223,"ĠKaylee":12224,"Ġwhirring":12225,"Ġforeshadowing":12226,"Ġfanciest":12227,"Pippa":12228,"Ġsimilar":12229,"Ġrisen":12230,"Ġwilted":12231,"talkie":12232,"Ġdemonstr":12233,"Ally":12234,"Elle":12235,"Near":12236,"afe":12237,"bang":12238,"ping":12239,"rimp":12240,"Ġsul":12241,"ini":12242,"Ġmended":12243,"ĠTip":12244,"idy":12245,"ĠHot":12246,"ĠHonest":12247,"ĠBro":12248,"ĠMint":12249,"Ġreins":12250,"Ġbooming":12251,"ĠBenjamin":12252,"ĠJade":12253,"Ġclam":12254,"Ġscaredy":12255,"ĠFanny":12256,"ĠMaxine":12257,"Ġrunners":12258,"ĠPiggie":12259,"Ġclosest":12260,"spass":12261,"ĠDaisyÃ¢":12262,"Ġmostly":12263,"Ġentertain":12264,"Ġparamed":12265,"Ġdials":12266,"Meg":12267,"knob":12268,"Ġspeeds":12269,"Ġsummertime":12270,"!''":12271,"Ġdrifting":12272,"Ġ15":12273,"Ġsnails":12274,"Ġinterests":12275,"Ġblinks":12276,"ĠYet":12277,"ĠAnya":12278,"Elsa":12279,"Ġninety":12280,"Ġbumblebee":12281,"Ġdazzling":12282,"Nate":12283,"Push":12284,"Rebecca":12285,"William":12286,"dled":12287,"mind":12288,"pill":12289,"tles":12290,"Ġsipping":12291,"Ġdil":12292,"Ġdut":12293,"eras":12294,"oris":12295,"ĠHen":12296,"Ġyanked":12297,"Ġrev":12298,"ifted":12299,"ĠLacey":12300,"nness":12301,"ĠmommyÃ¢":12302,"Ġquiver":12303,"Ġdonate":12304,"Ġendings":12305,"ÅĵAh":12306,"Ġdoorknob":12307,"ĠGilly":12308,"Ġtalons":12309,"ĠNan":12310,"Ġspotless":12311,"enses":12312,"appiness":12313,"ĠOlly":12314,"Ġcomfortably":12315,"Ġcalms":12316,"Ġsalsa":12317,"ĠBeary":12318,"ĠMumma":12319,"Ġfiguring":12320,"Ġdishonest":12321,"Ġnormally":12322,"Ġterrit":12323,"Ġpruning":12324,"Ġtwinkly":12325,"Ġachieving":12326,"ĠMei":12327,"ĠWednesdays":12328,"Peggy":12329,"Ġsavored":12330,"Ġinjury":12331,"Ġunstuck":12332,"ĠStretch":12333,"Helen":12334,"two":12335,"Ġalbum":12336,"Again":12337,"Bow":12338,"Cle":12339,"En":12340,"Ho":12341,"Hank":12342,"Nora":12343,"Nancy":12344,"Tuna":12345,"bet":12346,"hadow":12347,"table":12348,"wh":12349,"Ġsons":12350,"edience":12351,"Ġheed":12352,"ĠTia":12353,"ĠSugar":12354,"ĠBugs":12355,"Ġlittlest":12356,"ĠthereÃ¢":12357,"Ġreact":12358,"Ġgobl":12359,"ills":12360,"urr":12361,"ĠJem":12362,"ĠWinnie":12363,"ĠLayla":12364,"ĠDen":12365,"Ġgrazing":12366,"Ġsorrow":12367,"Ġrunway":12368,"ÅĵBye":12369,"beat":12370,"Ġeyeshadow":12371,"Ġreplies":12372,"Ġdism":12373,"Ġprinces":12374,"Ġstead":12375,"Ġyellows":12376,"ĠAfterward":12377,"Ġbathrobes":12378,"Ġpiglet":12379,"aleb":12380,"Ġspreads":12381,"Ġpricked":12382,"ĠBloom":12383,"Ġcrackling":12384,"ĠMarch":12385,"ĠJuliet":12386,"Ġfestiv":12387,"Ġscurry":12388,"Ġluxurious":12389,"Ġscraps":12390,"ĠThanksgiving":12391,"Ġshiniest":12392,"Ġcawed":12393,"Ġpopsicles":12394,"ĠBailey":12395,"Ġprivate":12396,"hillip":12397,"Ġpinecone":12398,"Ġclimber":12399,"Ġdilig":12400,"Down":12401,"Se":12402,"cling":12403,"uh":12404,"Ġ.":12405,"Ġtadpo":12406,"Ġsug":12407,"Ġcit":12408,"Ġsaves":12409,"Ġhairst":12410,"Ġplump":12411,"itters":12412,"Ġlolly":12413,"ĠAri":12414,"iffere":12415,"Ġcoaster":12416,"ĠDream":12417,"Ġpea":12418,"ĠEverytime":12419,"ĠCon":12420,"ĠGizmo":12421,"ĠNelly":12422,"Joan":12423,"ĠThree":12424,"ĠFlop":12425,"ĠFlowers":12426,"lett":12427,"oint":12428,"orks":12429,"Ġposts":12430,"ĠPrun":12431,"ĠGrump":12432,"ĠDrink":12433,"Fox":12434,"ĠSweetie":12435,"Bubba":12436,"Ġtotal":12437,"Louise":12438,"ĠFlying":12439,"Ġscreec":12440,"uriosity":12441,"Ġfingertips":12442,"Ava":12443,"Ed":12444,"Eric":12445,"Greet":12446,"IÃ¢":12447,"Life":12448,"Mouse":12449,"Phil":12450,"Pizza":12451,"Until":12452,"horse":12453,"nold":12454,"pair":12455,"tract":12456,"zoom":12457,"Ġtul":12458,"Ġsumm":12459,"Ġdates":12460,"Ġpes":12461,"eness":12462,"ĠSale":12463,"ĠHouse":12464,"ĠBell":12465,"ĠMerry":12466,"Ġreven":12467,"Ġcla":12468,"Ġcoiled":12469,"Ġswell":12470,"Ġovernight":12471,"aced":12472,"ĠNat":12473,"Ġcrum":12474,"ĠAsk":12475,"orms":12476,"Ġsharpened":12477,"Ġdial":12478,"Ġjealousy":12479,"ĠUsing":12480,"Ġtraveler":12481,"ĠSmall":12482,"Ġchalks":12483,"Ġstroking":12484,"Ġequal":12485,"Ġeffect":12486,"Ġwriggle":12487,"nowing":12488,"Ġsnorts":12489,"Amber":12490,"Ġopportunities":12491,"ĠGloria":12492,"Ġouchy":12493,"Ġcucumber":12494,"ĠGoldie":12495,"ĠMichelle":12496,"Ġkernels":12497,"ifferent":12498,"Ġrevenge":12499,"Eddie":12500,"Izzy":12501,"Pandy":12502,"SH":12503,"Woo":12504,"Want":12505,"irew":12506,"mes":12507,"who":12508,"Ġ(":12509,"Ġ7":12510,"Ġsighing":12511,"ornness":12512,"ĠJed":12513,"Ġflipping":12514,"Ġchant":12515,"maker":12516,"Ġrung":12517,"Ġsunbe":12518,"ĠComet":12519,"llowed":12520,"Ġcranky":12521,"Ġarriving":12522,"Ġcompost":12523,"Ġmini":12524,"Ġstarry":12525,"Ġfarmhouse":12526,"Ġmeetings":12527,"ĠChip":12528,"Ġcapable":12529,"Ġsuggesting":12530,"azel":12531,"Ġcameras":12532,"Ġfres":12533,"Ġpainters":12534,"Ġlicenses":12535,"Flopsy":12536,"Oliver":12537,"ifteen":12538,"Ġresources":12539,"Ġtangy":12540,"Ġwhooshing":12541,"Ġspectac":12542,"Ġterritory":12543,"Ġsugary":12544,"Drink":12545,"Girl":12546,"fying":12547,"ja":12548,"mar":12549,"nine":12550,"tre":12551,"xie":12552,"ĠYay":12553,"inn":12554,"Ġdu":12555,"Ġdue":12556,"Ġpry":12557,"Ġins":12558,"Ġrumm":12559,"ĠBones":12560,"ĠBibi":12561,"raw":12562,"Ġspitting":12563,"Ġflaming":12564,"ĠEthan":12565,"Ġtrained":12566,"Ġchildhood":12567,"Ġregister":12568,"Ġmeasurements":12569,"Ġgrownup":12570,"Ġcurry":12571,"Ġgolfer":12572,"Ġsunsets":12573,"Ġblended":12574,"ĠPiper":12575,"Ġsnatches":12576,"Surprised":12577,"Ġstalls":12578,"Ġproduce":12579,"ĠWiggles":12580,"Ġdescribed":12581,"ĠCharles":12582,"Ġpreferred":12583,"Ġsundae":12584,"Ġseventy":12585,"aculously":12586,"Ġspectacular":12587,"Barry":12588,"Four":12589,"Fuzzy":12590,"Jimbo":12591,"Sk":12592,"Terry":12593,"aves":12594,"Ġfate":12595,"Ġheater":12596,"ĠSilly":12597,"irds":12598,"stream":12599,"Ġweave":12600,"Ġshaving":12601,"ĠMoney":12602,"Ġrecy":12603,"Ġresolved":12604,"ĠAmaz":12605,"ĠAgnes":12606,"Ġcoast":12607,"Ġpranced":12608,"Ġswer":12609,"Ġsledding":12610,"ĠCut":12611,"ÅĵThey":12612,"cted":12613,"ĠRiding":12614,"Ġflopped":12615,"Ġsnowed":12616,"Ġprey":12617,"phones":12618,"Ġchoke":12619,"Ġsurge":12620,"Ġcalmness":12621,"Ġlayed":12622,"Ġlocking":12623,"ippee":12624,"Ġtougher":12625,"Ġstubbornness":12626,"Ġcrackle":12627,"Ġerra":12628,"Ġsurfed":12629,"Ġpits":12630,"Ġsubtract":12631,"ĠMeow":12632,"Ġoutdoor":12633,"ĠOwen":12634,"Ġeighty":12635,"Ġwarriors":12636,"Carla":12637,"Ġbundled":12638,"Ġechoing":12639,"Ġgrumpiness":12640,"Ġassured":12641,"ĠPasta":12642,"Ġvolunt":12643,"Ġdroopy":12644,"Ġsizzle":12645,"ĠGenie":12646,"Angel":12647,"Ġadopt":12648,"Ġcultures":12649,"Ġsomersaults":12650,"Ġscreeched":12651,"?'.":12652,"Cara":12653,"Kay":12654,"des":12655,"gent":12656,"ius":12657,"ÃĤ":12658,"Ġ8":12659,"Ġbon":12660,"Ġmuttered":12661,"Ġpest":12662,"ĠSyl":12663,"ima":12664,"verse":12665,"Ġshaken":12666,"Ġexting":12667,"Ġalike":12668,"ĠWalter":12669,"ĠLexi":12670,"master":12671,"Ġexplos":12672,"Ġadvant":12673,"ĠPol":12674,"Ġunra":12675,"Ġuniting":12676,"Johnnie":12677,"ĠThink":12678,"aterpill":12679,"Ġthankfully":12680,"DonÃ¢":12681,"ĠKarl":12682,"Ġsecretly":12683,"ĠOp":12684,"Ġhopefully":12685,"Ġparades":12686,"Ġmirrors":12687,"Ġtoughest":12688,"Ġthoughtfulness":12689,"Ġprepar":12690,"Ġdisturbance":12691,"Ġmaths":12692,"Ġpedalling":12693,"Ġdisplays":12694,"Ġunlocks":12695,"Ġskeletons":12696,"ĠUniversity":12697,"Ġregretful":12698,"ĠGoodnight":12699,"Ġpouts":12700,"Ġgreeting":12701,"boos":12702,"Ġgrizzly":12703,"ĠScar":12704,"Ġsurvived":12705,"Jean":12706,"Play":12707,"Cheese":12708,"ĠRosy":12709,"Ġunzipped":12710,"Ġassistant":12711,"Ġtradition":12712,"Ġmitts":12713,"Ġcitiz":12714,"Ġextingu":12715,"Five":12716,"dles":12717,"six":12718,"woo":12719,"Ġted":12720,"Ġalp":12721,"inning":12722,"Ġfifteen":12723,"Ġdong":12724,"onight":12725,"Ġpluck":12726,"seven":12727,"Ġjuggled":12728,"ĠJasper":12729,"Ġscoring":12730,"Ġfeature":12731,"ĠWood":12732,"ĠWest":12733,"Ġbrats":12734,"Ġcleve":12735,"ĠCol":12736,"ĠHero":12737,"eetle":12738,"Ġmeanings":12739,"Jose":12740,"Ġcranes":12741,"Ġshove":12742,"Ġpier":12743,"ĠKnowing":12744,"Ġowe":12745,"ĠOtter":12746,"ointed":12747,"Ġgoldfish":12748,"Ġcombination":12749,"Ġcacti":12750,"Ġshrimps":12751,"Ġthreatening":12752,"ĠBobbi":12753,"Ġwaddling":12754,"Ġsavoring":12755,"Ġhorrified":12756,"ĠTracy":12757,"Ġreflecting":12758,"Ġgrasped":12759,"ĠHugo":12760,"ĠMiller":12761,"EEP":12762,"Ġcrumpled":12763,"April":12764,"Lenny":12765,"Randy":12766,"four":12767,"pilot":12768,"wear":12769,"Ġsess":12770,"ndy":12771,"Ġdun":12772,"Ġgig":12773,"ĠSoup":12774,"ori":12775,"stone":12776,"ĠBon":12777,"ĠMoe":12778,"Ġanch":12779,"Ġoutrun":12780,"Ġspine":12781,"Ġeverytime":12782,"ĠDiana":12783,"ĠFour":12784,"Ġcloak":12785,"ÅĵHe":12786,"ÅĵWhen":12787,"ĠPumpkin":12788,"Ġheadphones":12789,"Ġamuse":12790,"ĠRolly":12791,"Ġruby":12792,"Ġcritter":12793,"Ġbelief":12794,"Ġsideways":12795,"Ġmustard":12796,"ixie":12797,"Ġ30":12798,"Ġretri":12799,"ĠBlinky":12800,"Ġcauliflowers":12801,"Charlotte":12802,"Ġrecommending":12803,"arium":12804,"Ġbeaten":12805,"Ġunfor":12806,"ĠMarty":12807,"Another":12808,"Ġcollapse":12809,"smith":12810,"ĠFelicity":12811,"Ġfaithful":12812,"ĠNew":12813,"ĠHarriet":12814,"Ġjingle":12815,"Ġcigarettes":12816,"Ġoohed":12817,"Ġuneasy":12818,"Ġclambered":12819,"Greetings":12820,"Ġadvantage":12821,"Greg":12822,"Hours":12823,"give":12824,"ham":12825,"sure":12826,"vor":12827,"Ġtiles":12828,"Ġcav":12829,"ĠTabby":12830,"Ġthaw":12831,"leas":12832,"Ġneg":12833,"Ġareas":12834,"ĠAbbi":12835,"gettable":12836,"Ġcoz":12837,"Ġexcuse":12838,"ĠLillie":12839,"ĠDri":12840,"Ġvari":12841,"antic":12842,"ĠCuriosity":12843,"Ġstoring":12844,"ĠPir":12845,"oyal":12846,"Ġtrapping":12847,"Ġdeath":12848,"Ġpointer":12849,"Ġmothers":12850,"olo":12851,"Ġstreak":12852,"toed":12853,"Ġrounded":12854,"Ġsupper":12855,"Ġorganiz":12856,"ĠZe":12857,"Ġdrummer":12858,"haw":12859,"Ġsuitable":12860,"Ġcarpets":12861,"Ġluckier":12862,"Ġdearly":12863,"Ġfetches":12864,"Ġgleefully":12865,"Quickly":12866,"Carol":12867,"ĠBessy":12868,"Ġbasil":12869,"ĠPetey":12870,"Ġsquealing":12871,"ĠErin":12872,"Ġvolume":12873,"ĠSabrina":12874,"ĠCrocod":12875,"ĠGuard":12876,"Ġgoblin":12877,"Ġteddies":12878,"Ġunforgettable":12879,"Bert":12880,"Ding":12881,"Farmer":12882,"King":12883,"Po":12884,"Tyler":12885,"Zoo":12886,"eight":12887,"ta":12888,"tail":12889,"reck":12890,"Ġcents":12891,"iration":12892,"stalk":12893,"ĠBecca":12894,"ĠMaking":12895,"ĠMason":12896,"Ġjig":12897,"Ġflush":12898,"Ġdecre":12899,"Ġmoan":12900,"ĠConnie":12901,"ĠCrystal":12902,"ĠPot":12903,"Ġclosets":12904,"covered":12905,"Ġduckie":12906,"Ġponds":12907,"Ġfrol":12908,"Ġlighthouse":12909,"Ġtighten":12910,"ĠEmmie":12911,"Ġbeekeeper":12912,"Ġpasture":12913,"Ġstubbed":12914,"certain":12915,"Ġdiaper":12916,"Ġsuppose":12917,"Ġbanner":12918,"Ġerased":12919,"Ġpermitting":12920,"udges":12921,"affy":12922,"Ġsqueaking":12923,"Ġzigzagging":12924,"Ahh":12925,"Ġboost":12926,"Ġrefuses":12927,"Ġpucker":12928,"Ġprivacy":12929,"rrrrrrrrrrrrrrrrrrrrrrrrrrrrrrrr":12930,"Ġjiggled":12931,"Ġrectangle":12932,"ĠWriting":12933,"Ġicic":12934,"Ġtechn":12935,"hoebe":12936,"Ġalpha":12937,"AR":12938,"Gret":12939,"Jeremy":12940,"fty":12941,"iant":12942,"ok":12943,"there":12944,"Ġtv":12945,"Ġtumble":12946,"reverse":12947,"idered":12948,"riff":12949,"ĠBes":12950,"ĠBiggy":12951,"alking":12952,"ĠMack":12953,"Ġloaf":12954,"Ġroles":12955,"owner":12956,"agged":12957,"Ġhomemade":12958,"Ġgrade":12959,"ĠSamuel":12960,"ĠFar":12961,"ĠFun":12962,"Ġgreed":12963,"Ġstray":12964,"ĠJoel":12965,"Ġgardeners":12966,"Ġbrake":12967,"Ġdangling":12968,"Ġdraped":12969,"Ġunb":12970,"ĠSpicy":12971,"ĠDove":12972,"ĠDogs":12973,"Ġcontinues":12974,"meow":12975,"erek":12976,"Ġminty":12977,"Doggy":12978,"Ġcollections":12979,"Ġwildly":12980,"Step":12981,"Ġignores":12982,"Ġleafy":12983,"Ġgrandad":12984,"Ġpersisted":12985,"Ġsurfers":12986,"ĠSmiling":12987,"Ġhesitantly":12988,"Ġthreats":12989,"Patrick":12990,"Ġmermaids":12991,"Ġtingly":12992,"Ġflicker":12993,"Ġproduct":12994,"ĠPickles":12995,"Ġuncover":12996,"Ġtinkling":12997,"Rosa":12998,"Ġtwitching":12999,"Ashley":13000,"Ġgadgets":13001,"Ġsheepishly":13002,"Ġamusement":13003,"Boom":13004,"Bounce":13005,"fill":13006,"fect":13007,"zes":13008,"ĠĠ":13009,"Ġbid":13010,"Ġwailed":13011,"Ġlat":13012,"once":13013,"Ġyay":13014,"Ġliking":13015,"Ġwhilst":13016,"ĠMal":13017,"arty":13018,"Young":13019,"ĠLions":13020,"Ġponder":13021,"ĠMaxÃ¢":13022,"Ġslippers":13023,"Ġhandker":13024,"Ġquitting":13025,"Åĵhello":13026,"Ġunc":13027,"Ġuncertain":13028,"Ġwonderland":13029,"Ġnightlight":13030,"JoJo":13031,"Ġworlds":13032,"specially":13033,"lessly":13034,"Ġblacksmith":13035,"Ġcollars":13036,"hoot":13037,"Ġdespair":13038,"Ġobedience":13039,"Ġparlor":13040,"Ġwashcloth":13041,"Spring":13042,"Ġcompliments":13043,"ĠAlicia":13044,"ĠCluck":13045,"Ġbuzzes":13046,"ĠCody":13047,"Leah":13048,"Ġslaps":13049,"Ġattacking":13050,"ĠMoley":13051,"Ġclicking":13052,"Ġtoddled":13053,"Ġpounded":13054,"Ġyummier":13055,"Froggy":13056,"Ġcoconuts":13057,"ĠOfficer":13058,"Ġdivided":13059,"Ġhandkerchief":13060,"AP":13061,"Belle":13062,"Grow":13063,"Mix":13064,"Rel":13065,"bun":13066,"ns":13067,"pitched":13068,"Ġbay":13069,"ouble":13070,"Ġdiver":13071,"ĠSebastian":13072,"Ġitches":13073,"ĠHeÃ¢":13074,"ament":13075,"alities":13076,"raph":13077,"ĠWork":13078,"Ġcock":13079,"Ġvows":13080,"erson":13081,"retruck":13082,"mail":13083,"ĠJackson":13084,"ĠCaterpill":13085,"Ġzone":13086,"Ġrounds":13087,"Ġbandaid":13088,"Spark":13089,"Ġwheeled":13090,"Ġridden":13091,"Ġteammates":13092,"Gracie":13093,"Ġsniffles":13094,"Ġbullets":13095,"Ġrecognizing":13096,"Ġinsistent":13097,"Chick":13098,"ĠRoxy":13099,"Ġblend":13100,"Ġreplacement":13101,"Ġyouths":13102,"Ġcoughs":13103,"Ġunwell":13104,"Ġaims":13105,"Ġconsidered":13106,"ÅĵWhoÃ¢":13107,"ĠWonder":13108,"Ġscribbles":13109,"Ġlimped":13110,"ĠPetal":13111,"goodbye":13112,"Ġunzip":13113,"Squeaky":13114,"Ġdoubt":13115,"ĠIntrigued":13116,"Ġgigantic":13117,"Cathy":13118,"Um":13119,"abe":13120,"girl":13121,"pher":13122,"Ġeter":13123,"itz":13124,"Ġdice":13125,"athing":13126,"anas":13127,"ĠHim":13128,"ĠHenny":13129,"Ġforces":13130,"ĠWanna":13131,"Ġtreet":13132,"aging":13133,"ĠLula":13134,"ĠCott":13135,"ĠCelery":13136,"Ġfiretruck":13137,"Ġglues":13138,"Ġunderwear":13139,"ĠPurr":13140,"ĠBobÃ¢":13141,"Ġruins":13142,"Ġpartied":13143,"spect":13144,"Ġvisible":13145,"Ġfewer":13146,"everse":13147,"erest":13148,"Ġseahorse":13149,"Ġkeyboard":13150,"ĠElli":13151,"Steven":13152,"Everywhere":13153,"Ġrecital":13154,"Ġtidier":13155,"Ġwisest":13156,"oofy":13157,"Ġchests":13158,"Ġmatchbox":13159,"Ġbeanstalk":13160,"God":13161,"Ġchalkboard":13162,"Ġskulls":13163,"Ġdirectly":13164,"Ġcontainers":13165,"ĠBethany":13166,"Freddie":13167,"ĠMonica":13168,"ĠBeef":13169,"ĠGreeny":13170,"Ġjudged":13171,"Ġsensible":13172,"Ġchattering":13173,"Martin":13174,"ĠPole":13175,"Janet":13176,"Ġhooted":13177,"ĠApple":13178,"Ġhuffed":13179,"Ġplums":13180,"Ġtacos":13181,"Ġannouncement":13182,"Ġstrutted":13183,"isappointed":13184,"Ġmotorbike":13185,"Ġvariety":13186,"Ġalphabet":13187,"Ġetern":13188,"Boy":13189,"Bonnie":13190,"Kara":13191,"Toys":13192,"Wally":13193,"eers":13194,"Ġtherap":13195,"Ġbared":13196,"Ġwavy":13197,"Ġcurse":13198,"Ġdise":13199,"Ġdying":13200,"omi":13201,"aris":13202,"atching":13203,"igo":13204,"vender":13205,"ĠBest":13206,"ĠMond":13207,"Ġarcher":13208,"Ġlavender":13209,"ĠDi":13210,"Ġcomment":13211,"Ġlongingly":13212,"Ġquickest":13213,"Ġmeanie":13214,"ĠNathan":13215,"ĠmumÃ¢":13216,"Ġfroggy":13217,"Ġwetness":13218,"ĠKara":13219,"Ġhideaway":13220,"zzz":13221,"Ġheartbeat":13222,"Ġswingset":13223,"Ġdistress":13224,"Ġrepay":13225,"Ġspoilt":13226,"flower":13227,"Ġrattling":13228,"ĠFrustrated":13229,"Ġmailboxes":13230,"ĠShiny":13231,"Ġbreathes":13232,"Ġkayaks":13233,"Ġbleated":13234,"ĠTwist":13235,"Ġchuckle":13236,"ĠBossy":13237,"Ġ100":13238,"Ġstomps":13239,"Ġhabits":13240,"ĠArthur":13241,"Princess":13242,"ĠEdward":13243,"ĠApples":13244,"Ġphotograp":13245,"Ġbustling":13246,"'!\"":13247,"Elly":13248,"Pass":13249,"Rory":13250,"Repeat":13251,"Sasha":13252,"Yippee":13253,"cco":13254,"hot":13255,"mon":13256,"yum":13257,"zo":13258,"Ġ6":13259,"Ġburp":13260,"Ġfizz":13261,"Ġlatch":13262,"ench":13263,"Ġsales":13264,"ĠSeth":13265,"ancing":13266,"ĠShell":13267,"Ġshifted":13268,"Ġneared":13269,"urray":13270,"ĠAly":13271,"ĠJunior":13272,"ĠWool":13273,"Ġflitting":13274,"Ġflicked":13275,"Ġgrave":13276,"ĠAnnabel":13277,"Ġimit":13278,"ĠCe":13279,"ĠCelia":13280,"Though":13281,"Ġchem":13282,"ÅĵTom":13283,"Ġevenly":13284,"ĠGor":13285,"ĠSpotty":13286,"ĠRace":13287,"Ġstoryt":13288,"ulty":13289,"Ġguiding":13290,"Ġpaintbrushes":13291,"ĠFlap":13292,"Ġpersonality":13293,"Ġparcel":13294,"Ġprotest":13295,"Ġprotective":13296,"Ġpressure":13297,"illiest":13298,"Ġtaxis":13299,"Ġsteaks":13300,"Ġmenus":13301,"Ġfloaties":13302,"ĠVo":13303,"Ġbendy":13304,"Ġpeeling":13305,"ĠSmokey":13306,"Ġboldly":13307,"Ġpostcard":13308,"minded":13309,"Ġsteadily":13310,"Ġfestivals":13311,"ireworks":13312,"Ġexplosion":13313,"Ġretrieve":13314,"',\"":13315,"Bess":13316,"Gemma":13317,"Jelly":13318,"Lion":13319,"Ma":13320,"NAP":13321,"Slow":13322,"ram":13323,"test":13324,"Ġ$":13325,"Ġsid":13326,"Ġbased":13327,"Ġoint":13328,"arrot":13329,"ĠSim":13330,"otions":13331,"iraffe":13332,"Ġstash":13333,"vere":13334,"Ġwhinn":13335,"Ġnewest":13336,"ĠDifferent":13337,"Ġadver":13338,"ĠChocolate":13339,"ĠCaleb":13340,"iped":13341,"ĠPass":13342,"Ġappearing":13343,"ĠJoeÃ¢":13344,"Ġbuyer":13345,"Ġpaste":13346,"Ġwilder":13347,"Ġladies":13348,"Ġshyness":13349,"ĠLearning":13350,"ĠBrady":13351,"Ġeagerness":13352,"Ġorigami":13353,"Ġspelled":13354,"ĠTrina":13355,"Ġdares":13356,"ĠCole":13357,"ĠViv":13358,"Ġzigzagged":13359,"Ġscrapes":13360,"Ġsibling":13361,"Ġartists":13362,"Ġunsafe":13363,"Ġmooing":13364,"Ġsavannah":13365,"rinkles":13366,"ĠGlass":13367,"ĠWinter":13368,"Ġmajesty":13369,"ĠJellyfish":13370,"ĠLyla":13371,"Ġlimping":13372,"ĠSwimming":13373,"ĠSurprisingly":13374,"Ġscanned":13375,"ĠStanding":13376,"ĠABCs":13377,"Ġcitizens":13378,"Ġlatest":13379,"ĠMonday":13380,"Ġwhinnied":13381,"Kathy":13382,"Merry":13383,"Nell":13384,"Oink":13385,"Soup":13386,"aomi":13387,"ji":13388,"mit":13389,"Ġome":13390,"Ġident":13391,"Ġsilliest":13392,"Ġtoot":13393,"Ġtourn":13394,"Ġhula":13395,"Ġcure":13396,"ĠHeel":13397,"Ġyards":13398,"Ġrins":13399,"Ġstressed":13400,"ĠdayÃ¢":13401,"Ġloss":13402,"Ġlosers":13403,"ico":13404,"Ġmult":13405,"ĠEast":13406,"ĠEng":13407,"Ġwatery":13408,"ÅĵSorry":13409,"ÅĵThese":13410,"Åĵyes":13411,"ÅĵAlright":13412,"obble":13413,"Ġfinest":13414,"ĠPixie":13415,"Thankfully":13416,"Ġmeaner":13417,"ĠRad":13418,"ĠDodo":13419,"Ġgreens":13420,"Ġarrival":13421,"sport":13422,"ĠmotherÃ¢":13423,"Ġbarbers":13424,"Ġemotions":13425,"Ġphra":13426,"Ġmarkings":13427,"ĠOxygen":13428,"Ġsurger":13429,"laze":13430,"ĠStacy":13431,"Ġpolicemen":13432,"Ġbedrooms":13433,"Ġvaluing":13434,"Ġtoasty":13435,"Ġponytail":13436,"Ġbrief":13437,"Ġfortune":13438,"Ġfortunate":13439,"Ġrecognised":13440,"Ġsilverware":13441,"Ġprovides":13442,"about":13443,"Ġnibbles":13444,"Cheers":13445,"ĠClaw":13446,"ĠCleo":13447,"ĠLauren":13448,"Monkey":13449,"ĠGrandmother":13450,"ĠCrane":13451,"Ġskateboard":13452,"Ġoption":13453,"Butterfly":13454,"ĠSharks":13455,"Ġgnome":13456,"Ġdizziness":13457,"ĠMargaret":13458,"Ġsession":13459,"Ġointment":13460,"Ant":13461,"Gl":13462,"ING":13463,"NO":13464,"Park":13465,"ST":13466,"Sal":13467,"gia":13468,"gies":13469,"erie":13470,"Ġpure":13471,"Ġgarl":13472,"iders":13473,"ĠSha":13474,"imate":13475,"Ġinqu":13476,"Ġintern":13477,"ooke":13478,"ĠInd":13479,"Ġsheriff":13480,"star":13481,"ĠAren":13482,"Ġtrespass":13483,"ĠDing":13484,"Ġposed":13485,"Ġtrades":13486,"orthy":13487,"Ġuntidy":13488,"Ġbraids":13489,"Ġremark":13490,"ĠPri":13491,"ĠPaddy":13492,"ĠGuess":13493,"Ġbrightness":13494,"Ġboatman":13495,"ĠRound":13496,"ĠSallyÃ¢":13497,"ĠKn":13498,"ĠKari":13499,"Ġsplattered":13500,"ĠTooth":13501,"Star":13502,"Ġcooing":13503,"Ġapologizing":13504,"Ġapplied":13505,"ĠJulian":13506,"Ġsimplest":13507,"ĠJana":13508,"ĠYummy":13509,"ĠRocks":13510,"they":13511,"Ġunderest":13512,"ydney":13513,"Ġboundaries":13514,"ĠStephen":13515,"Ġclucking":13516,"Melissa":13517,"Ġhamburgers":13518,"Ġslurped":13519,"Ġdaydreaming":13520,"Ġprisoner":13521,"Ġproduced":13522,"Ġpersuade":13523,"Ġsmoothed":13524,"Ġparamedics":13525,"Ġdiligently":13526,"Ġsurgery":13527,"Alf":13528,"Chocolate":13529,"Duck":13530,"Jasmine":13531,"Lu":13532,"Patch":13533,"Willie":13534,"bag":13535,"baby":13536,"gh":13537,"rop":13538,"ww":13539,"Ġfished":13540,"Ġweaving":13541,"ĠBark":13542,"Ġneater":13543,"ĠEspecially":13544,"bbies":13545,"Ġeater":13546,"Ġneeding":13547,"Ġsnarling":13548,"Heidi":13549,"ĠCell":13550,"ĠCora":13551,"Ġglorious":13552,"ĠPal":13553,"ĠGas":13554,"boom":13555,"Ġdragonflies":13556,"ierce":13557,"Ġobvious":13558,"ĠLego":13559,"ĠZac":13560,"Ġfearless":13561,"Ġfeeds":13562,"osaurus":13563,"Ġdifficulty":13564,"ragile":13565,"Ġterror":13566,"Ġtorch":13567,"ĠFruit":13568,"ĠPeach":13569,"Ġcactuses":13570,"Ġinsists":13571,"ĠCocoa":13572,"Ġinspiration":13573,"Ġaccomplishments":13574,"Ġpuffy":13575,"Ġgaps":13576,"Ġthrilling":13577,"Ġfulfill":13578,"Ġwhizzing":13579,"belief":13580,"Ġprofession":13581,"Teacher":13582,"ĠAdventure":13583,"Penelope":13584,"ĠIsabella":13585,"Ġunplugged":13586,"Ġchannel":13587,"Ġhairstyle":13588,"Ġomelet":13589,"AA":13590,"Bessie":13591,"Candy":13592,"Caw":13593,"Kai":13594,"Mister":13595,"Pop":13596,"Wisdom":13597,"rid":13598,"tie":13599,"Ġbacon":13600,"ĠTy":13601,"arch":13602,"Ġgown":13603,"Ġgiddy":13604,"ĠSister":13605,"ĠHome":13606,"irley":13607,"amole":13608,"Ġsobs":13609,"elines":13610,"enter":13611,"allie":13612,"ĠAround":13613,"Ġspout":13614,"Ġsomeplace":13615,"Ġlapped":13616,"ĠDark":13617,"ĠDays":13618,"Ġgrunted":13619,"Ġpoll":13620,"ĠFast":13621,"Ġsliced":13622,"ĠbearÃ¢":13623,"ĠGreat":13624,"acamole":13625,"Ġdisbelief":13626,"ĠRino":13627,"Ġcrop":13628,"Ġduckies":13629,"ships":13630,"eee":13631,"Ġlioness":13632,"Ġfighters":13633,"Ġpotions":13634,"Andrew":13635,"Ġcowgirl":13636,"Ġwildlife":13637,"Stir":13638,"Ġrecently":13639,"iffy":13640,"Ġticklish":13641,"Ġflagpo":13642,"Ġtags":13643,"Ġtagged":13644,"Ġnailed":13645,"Ġtapes":13646,"ĠShrimp":13647,"Ġrestaurants":13648,"Ġsentences":13649,"Ġharshly":13650,"Ġharbour":13651,"ĠCoffee":13652,"ikki":13653,"Ġfabrics":13654,"Ġlaps":13655,"Ġmerrily":13656,"Ġgestured":13657,"Ġencounter":13658,"Ġstumbles":13659,"Carrie":13660,"Ġwhimpering":13661,"Ġflickered":13662,"Ġwhirred":13663,"ĠScruffy":13664,"Ġtransport":13665,"Ġtackle":13666,"Ġtadpoles":13667,"treating":13668,"Ġrecycling":13669,"ĠSylvia":13670,"Ġfeatures":13671,"Ġsidelines":13672,"Ġinternet":13673,"Doug":13674,"Old":13675,"Sl":13676,"care":13677,"down":13678,"for":13679,"gum":13680,"iking":13681,"worthy":13682,"inic":13683,"rex":13684,"Ġmow":13685,"iden":13686,"ĠSNAP":13687,"Ġitching":13688,"ĠHappiness":13689,"ĠHazel":13690,"ĠBEEP":13691,"Ġformer":13692,"Ġkil":13693,"ĠMuffy":13694,"Ġcann":13695,"uments":13696,"Ġleashes":13697,"nyard":13698,"Ġhobbies":13699,"Ġpew":13700,"ĠCongratulations":13701,"ÅĵDad":13702,"ÅĵSometimes":13703,"ĠSocky":13704,"asting":13705,"ĠSpeed":13706,"Ġdew":13707,"Ġsquigg":13708,"ĠRhy":13709,"Ġgreener":13710,"Ġslows":13711,"Ġfighter":13712,"Ġtailor":13713,"Ġbarnyard":13714,"Ġgentleman":13715,"Ġcabb":13716,"Ġpathways":13717,"Stri":13718,"Ġlays":13719,"Ġsmoothness":13720,"Ġswordfish":13721,"Ġpumped":13722,"Ġcopying":13723,"Ġavoiding":13724,"Ġsentence":13725,"Ġmassive":13726,"Jenn":13727,"Ġleaks":13728,"ĠRobot":13729,"Ġhandfuls":13730,"Ġcrafted":13731,"Ġdandelions":13732,"Ġspeckled":13733,"Elsie":13734,"Ġtender":13735,"Ġcartwheel":13736,"Ġsnooze":13737,"ĠCassie":13738,"Ġpesky":13739,"Ġcockpit":13740,"Ġtherapist":13741,"Ġremarkable":13742,"Ġflagpole":13743,"CRA":13744,"Miles":13745,"Maisie":13746,"Oscar":13747,"Tonight":13748,"ander":13749,"fed":13750,"justed":13751,"love":13752,"match":13753,"Ġsis":13754,"Ġhars":13755,"Ġwary":13756,"Ġcork":13757,"Ġcases":13758,"ĠTiti":13759,"ĠSaid":13760,"orothy":13761,"ĠSheila":13762,"verance":13763,"Ġrum":13764,"ĠIgn":13765,"stem":13766,"ĠBiff":13767,"Ġjer":13768,"urf":13769,"Ġspatul":13770,"Ġclient":13771,"Ġmanner":13772,"ĠEaster":13773,"Ġballet":13774,"Ġadjusted":13775,"ĠPhoebe":13776,"ĠGlow":13777,"ĠGinny":13778,"Ġsquashed":13779,"Ġcritters":13780,"ĠKelsey":13781,"Ġsearches":13782,"zzle":13783,"Ġguacamole":13784,"Ġperspect":13785,"Ġfreeing":13786,"Ġcollects":13787,"Ġvillages":13788,"Ġmedium":13789,"Ġashore":13790,"ĠChina":13791,"ĠDonna":13792,"ĠBlood":13793,"Ġrattled":13794,"Ġbulls":13795,"Ġoctopuses":13796,"Ġpunched":13797,"ĠClown":13798,"peat":13799,"keleton":13800,"ĠBunbun":13801,"Ġblender":13802,"Ġrazors":13803,"Ġrowboat":13804,"Ġrhyme":13805,"Show":13806,"Ġflooding":13807,"?''":13808,"ĠElisa":13809,"Ġwagons":13810,"Ġdumps":13811,"Ġtweeting":13812,"Ġtransform":13813,"Ġsprouted":13814,"Ġkettle":13815,"Jonathan":13816,"ĠButterflies":13817,"ĠTrevor":13818,"Ġrichest":13819,"Snap":13820,"Eliza":13821,"Ġreeled":13822,"Ġplunge":13823,"Ġunharmed":13824,"Ġanchors":13825,"Ġcabbage":13826,"Cook":13827,"Find":13828,"Quit":13829,"Yield":13830,"because":13831,"Ġached":13832,"nda":13833,"repeat":13834,"Ġferris":13835,"Ġdash":13836,"Ġnick":13837,"ĠSari":13838,"orance":13839,"ĠHard":13840,"Ġinser":13841,"Ġbeings":13842,"Ġplugs":13843,"see":13844,"ĠMail":13845,"ĠManny":13846,"Ġsmir":13847,"Ġgods":13848,"Ġclinic":13849,"ĠWar":13850,"ĠTimmyÃ¢":13851,"Ġpred":13852,"roy":13853,"Ġintr":13854,"Ġskated":13855,"Moments":13856,"Åĵit":13857,"Ġteases":13858,"Ġbadges":13859,"ĠGil":13860,"Ġnighttime":13861,"Ġmumbled":13862,"Ġjuices":13863,"ĠKit":13864,"ĠWhatever":13865,"Ġbenef":13866,"Ġpigtails":13867,"Ġentert":13868,"ĠChad":13869,"Ġpawed":13870,"Ġtrustworthy":13871,"erald":13872,"ĠBlake":13873,"Ġshooter":13874,"awy":13875,"Ġbrilliantly":13876,"ĠDani":13877,"Ġgemstone":13878,"Ġhungrily":13879,"ĠSmiley":13880,"Ġadmires":13881,"Ġhallways":13882,"auliflower":13883,"ringe":13884,"Almost":13885,"Pepper":13886,"Ġoccur":13887,"Ġsyringe":13888,"Ġconflic":13889,"Ġresponsibly":13890,"Ġillness":13891,"Ġroasting":13892,"ĠButterfly":13893,"Ġjingled":13894,"Ġperseverance":13895,"Ġcartwheels":13896,"ĠJesus":13897,"Ġblossoms":13898,"ĠPainting":13899,"Ġunscrewed":13900,"ĠScarlett":13901,"ĠCaterpillar":13902,"Ġadvert":13903,"Ġentertained":13904,"Jilly":13905,"Last":13906,"Ms":13907,"Marry":13908,"OU":13909,"Rick":13910,"coon":13911,"dely":13912,"liest":13913,"teen":13914,"Ġir":13915,"edro":13916,"inated":13917,"Ġwasher":13918,"Ġginger":13919,"ĠHigh":13920,"ĠHistory":13921,"etti":13922,"irly":13923,"Ġweaved":13924,"Ġsaws":13925,"Ġbol":13926,"Ġbrist":13927,"ĠLil":13928,"ĠLying":13929,"Ġswished":13930,"rol":13931,"ĠDerek":13932,"Ġvig":13933,"gedy":13934,"Ġpeaked":13935,"Ġfoil":13936,"Ġsnored":13937,"ĠCal":13938,"Ġunhe":13939,"ĠGaby":13940,"ĠGiant":13941,"Ġrudely":13942,"Ġgrasses":13943,"ĠDolp":13944,"Ġcrad":13945,"Ġducky":13946,"Ġcools":13947,"Ġcounters":13948,"Ġpolicy":13949,"Ġprogr":13950,"Ġfruity":13951,"Ġseaside":13952,"Ġmadder":13953,"Ġpathway":13954,"Stand":13955,"ĠStory":13956,"Ġvanishing":13957,"ivid":13958,"Ġlowest":13959,"Ġengineer":13960,"ĠFriday":13961,"ĠClucky":13962,"Ġspeakers":13963,"Ġpeddled":13964,"Ġreindeers":13965,"Ġsymp":13966,"Ġpropeller":13967,"Ġpoisoned":13968,"Flo":13969,"Flora":13970,"Ġstitching":13971,"Ġentirely":13972,"ĠCarlos":13973,"Ġtiptoe":13974,"Ġwaddle":13975,"print":13976,"Ġarranging":13977,"Ġpuffing":13978,"Ġtransformation":13979,"otcha":13980,"rolled":13981,"Ġlimit":13982,"Ġapproaching":13983,"Ġclipboard":13984,"ĠCookie":13985,"Ġdescribe":13986,"Ġcroaks":13987,"check":13988,"Woah":13989,"ĠClimbing":13990,"Ġspeechless":13991,"behaved":13992,"Ġgalaxies":13993,"Stanley":13994,"Ġcleverest":13995,"Ġeternity":13996,"Ġphotographer":13997,"Ġtournament":13998,"Ġbarbershop":13999,"Ġspatula":14000,"Ġinserted":14001,"Ball":14002,"Dylan":14003,"Fel":14004,"Fun":14005,"Father":14006,"Gotcha":14007,"Jemma":14008,"Pay":14009,"mock":14010,"wee":14011,"Ġtus":14012,"Ġpoof":14013,"omped":14014,"ingo":14015,"ĠSissy":14016,"iginal":14017,"Ġbeaches":14018,"ĠMind":14019,"Ġfellow":14020,"Ġcoax":14021,"ĠLemon":14022,"ĠLottie":14023,"ĠLoyal":14024,"Ġchore":14025,"Ġoverall":14026,"ÅĵGive":14027,"ÅĵDid":14028,"ĠpeopleÃ¢":14029,"ĠPine":14030,"ĠPuffy":14031,"Ġheadband":14032,"ĠNapping":14033,"mances":14034,"Ġproven":14035,"ĠFlip":14036,"ĠFlower":14037,"Ġattent":14038,"Ġattend":14039,
[...]
